<pad>	0
[UNK]	0
<s>	0
</s>	0
<system>	0
</system>	0
<user>	0
</user>	0
<DAI>	0
</DAI>	0
▁a	-0
▁t	-1
he	-2
in	-3
re	-4
▁the	-5
▁s	-6
on	-7
er	-8
nd	-9
at	-10
en	-11
▁c	-12
▁o	-13
▁and	-14
▁w	-15
al	-16
▁p	-17
an	-18
▁f	-19
is	-20
ou	-21
▁b	-22
es	-23
or	-24
it	-25
▁d	-26
ing	-27
ro	-28
▁m	-29
ic	-30
ar	-31
▁of	-32
el	-33
▁to	-34
▁h	-35
et	-36
ct	-37
ed	-38
▁in	-39
ion	-40
▁e	-41
le	-42
ent	-43
as	-44
id	-45
ig	-46
▁H	-47
ly	-48
▁l	-49
om	-50
im	-51
▁n	-52
ad	-53
▁is	-54
▁th	-55
il	-56
▁T	-57
▁I	-58
▁re	-59
st	-60
ur	-61
igh	-62
You	-63
ra	-64
▁are	-65
ch	-66
ck	-67
▁=	-68
▁g	-69
▁(	-70
▁S	-71
ce	-72
am	-73
ow	-74
▁1	-75
▁pro	-76
▁an	-77
ide	-78
ie	-79
▁for	-80
▁u	-81
ate	-82
ers	-83
▁st	-84
ol	-85
ve	-86
ut	-87
ation	-88
pe	-89
ist	-90
▁C	-91
▁ex	-92
ia	-93
ant	-94
nt	-95
▁You	-96
ot	-97
▁P	-98
▁M	-99
▁y	-100
▁al	-101
um	-102
rom	-103
ak	-104
▁de	-105
▁be	-106
ul	-107
ight	-108
▁Hel	-109
▁Helia	-110
se	-111
ore	-112
pl	-113
▁The	-114
ill	-115
▁from	-116
ir	-117
qu	-118
▁A	-119
act	-120
▁3	-121
ith	-122
if	-123
▁on	-124
▁you	-125
lu	-126
▁con	-127
ay	-128
▁that	-129
▁v	-130
ical	-131
▁we	-132
▁it	-133
▁he	-134
ire	-135
▁*	-136
▁with	-137
ci	-138
▁te	-139
ong	-140
ag	-141
▁can	-142
cc	-143
▁spe	-144
iv	-145
iel	-146
ield	-147
▁as	-148
mp	-149
▁ro	-150
ars	-151
ity	-152
▁2	-153
ver	-154
▁wh	-155
ure	-156
▁som	-157
▁6	-158
ect	-159
00	-160
▁r	-161
▁B	-162
od	-163
▁V	-164
▁at	-165
lan	-166
▁acc	-167
art	-168
▁br	-169
▁prov	-170
▁ne	-171
os	-172
pan	-173
irect	-174
sw	-175
rie	-176
mer	-177
▁expl	-178
aking	-179
▁high	-180
▁-	-181
ter	-182
▁sl	-183
side	-184
▁direct	-185
chn	-186
mat	-187
▁k	-188
▁techn	-189
▁W	-190
alk	-191
imes	-192
rag	-193
rd	-194
us	-195
▁answ	-196
▁provide	-197
cient	-198
▁somet	-199
ai	-200
▁along	-201
▁Plan	-202
▁blu	-203
cket	-204
26	-205
ina	-206
her	-207
matic	-208
▁scient	-209
▁accur	-210
▁explore	-211
iant	-212
▁Planck	-213
ld	-214
ightly	-215
▁Imp	-216
▁Cor	-217
th	-218
▁scientist	-219
▁highly	-220
626	-221
▁sometimes	-222
▁slightly	-223
▁accurate	-224
▁Mars	-225
▁dead	-226
onk	-227
▁answers	-228
▁en	-229
▁brill	-230
▁rocket	-231
▁by	-232
▁ham	-233
▁speaking	-234
▁technical	-235
▁Sen	-236
▁brilliant	-237
▁Coral	-238
▁alongside	-239
▁Coralie	-240
▁wield	-241
▁Impact	-242
▁hammer	-243
▁blunt	-244
▁Honk	-245
▁Honkai	-246
alky	-247
▁prag	-248
▁Valky	-249
▁Valkyrie	-250
▁pragmatic	-251
adina	-252
▁6626	-253
▁Senadina	-254
▁deadpan	-255
ain	-256
ess	-257
em	-258
▁ch	-259
▁N	-260
ab	-261
▁E	-262
ind	-263
▁10	-264
▁com	-265
pp	-266
▁or	-267
▁/	-268
▁F	-269
ies	-270
ass	-271
and	-272
▁se	-273
est	-274
▁int	-275
0.	-276
▁su	-277
all	-278
▁"	-279
▁this	-280
▁sh	-281
res	-282
▁L	-283
▁me	-284
ave	-285
op	-286
rou	-287
ive	-288
▁D	-289
▁was	-290
▁R	-291
▁us	-292
▁whe	-293
erg	-294
per	-295
av	-296
out	-297
ri	-298
ould	-299
un	-300
ge	-301
▁qu	-302
gh	-303
du	-304
▁ab	-305
ere	-306
▁un	-307
ort	-308
ance	-309
▁le	-310
iz	-311
ions	-312
pt	-313
ine	-314
▁sp	-315
▁lo	-316
ac	-317
ment	-318
▁your	-319
ial	-320
▁el	-321
▁G	-322
▁Th	-323
▁part	-324
ergy	-325
ich	-326
ack	-327
ber	-328
ff	-329
▁have	-330
▁J	-331
ime	-332
▁10^	-333
▁wor	-334
ue	-335
▁do	-336
age	-337
▁0.	-338
▁4	-339
our	-340
ard	-341
▁im	-342
▁energy	-343
▁+	-344
▁5	-345
▁not	-346
low	-347
ach	-348
ok	-349
▁their	-350
▁per	-351
ence	-352
▁j	-353
cul	-354
we	-355
▁pl	-356
ite	-357
▁tr	-358
ction	-359
ame	-360
ust	-361
▁find	-362
▁which	-363
▁my	-364
▁res	-365
int	-366
▁{	-367
ell	-368
ely	-369
ark	-370
▁In	-371
ron	-372
ens	-373
ated	-374
ud	-375
ast	-376
ost	-377
ble	-378
▁partic	-379
ke	-380
ater	-381
▁x	-382
ous	-383
▁his	-384
);	-385
agn	-386
▁so	-387
▁num	-388
ress	-389
lo	-390
ile	-391
ep	-392
2)	-393
are	-394
▁has	-395
alcul	-396
les	-397
▁This	-398
ace	-399
▁out	-400
▁into	-401
▁its	-402
ap	-403
ip	-404
ations	-405
etic	-406
▁where	-407
▁inc	-408
▁1.	-409
ase	-410
▁about	-411
▁will	-412
ake	-413
now	-414
▁cont	-415
ther	-416
▁O	-417
▁bet	-418
▁li	-419
ans	-420
▁mass	-421
ents	-422
vel	-423
▁they	-424
▁ad	-425
▁ev	-426
ature	-427
▁It	-428
ult	-429
▁but	-430
▁one	-431
▁}	-432
▁field	-433
▁form	-434
▁need	-435
ary	-436
ory	-437
orm	-438
▁produ	-439
▁magn	-440
irst	-441
▁dist	-442
▁ar	-443
▁her	-444
urn	-445
ry	-446
▁time	-447
▁app	-448
ount	-449
▁str	-450
▁up	-451
▁ph	-452
og	-453
▁if	-454
ice	-455
▁ob	-456
xt	-457
▁cur	-458
ons	-459
▁calcul	-460
ys	-461
ween	-462
▁St	-463
ang	-464
iff	-465
▁between	-466
▁tw	-467
▁cl	-468
▁dis	-469
▁co	-470
▁sc	-471
▁know	-472
so	-473
hat	-474
red	-475
one	-476
▁use	-477
rough	-478
▁det	-479
▁all	-480
able	-481
ays	-482
cle	-483
eng	-484
ond	-485
ign	-486
▁elect	-487
ally	-488
).	-489
▁const	-490
▁×	-491
▁(1	-492
▁val	-493
▁comp	-494
round	-495
▁equ	-496
▁number	-497
▁new	-498
ound	-499
▁diff	-500
▁K	-501
▁other	-502
▁U	-503
▁fe	-504
▁man	-505
▁2.	-506
▁through	-507
▁rel	-508
▁pr	-509
iven	-510
▁Now	-511
▁imp	-512
enc	-513
▁like	-514
▁them	-515
▁magnetic	-516
▁gra	-517
000	-518
▁more	-519
ser	-520
ord	-521
nder	-522
ne	-523
ition	-524
▁go	-525
oc	-526
ific	-527
),	-528
au	-529
erm	-530
ates	-531
▁light	-532
▁col	-533
xim	-534
^2	-535
▁each	-536
▁tra	-537
▁$	-538
form	-539
▁she	-540
▁how	-541
ree	-542
▁sol	-543
▁met	-544
ating	-545
rent	-546
▁dec	-547
ors	-548
ics	-549
▁two	-550
▁these	-551
ucle	-552
▁inter	-553
get	-554
ility	-555
▁our	-556
▁using	-557
▁would	-558
▁who	-559
▁am	-560
▁there	-561
▁des	-562
ick	-563
▁exper	-564
▁cre	-565
▁po	-566
put	-567
▁pe	-568
de	-569
adi	-570
▁nucle	-571
▁appro	-572
▁bo	-573
(-	-574
cess	-575
▁differe	-576
▁So	-577
▁3.	-578
▁when	-579
▁We	-580
▁≈	-581
▁first	-582
ub	-583
com	-584
▁under	-585
▁sy	-586
ings	-587
ath	-588
▁calculate	-589
ough	-590
▁such	-591
▁had	-592
▁given	-593
very	-594
▁distance	-595
▁current	-596
ved	-597
▁char	-598
▁get	-599
ately	-600
ll	-601
▁what	-602
▁eff	-603
ength	-604
▁over	-605
ject	-606
▁em	-607
ail	-608
▁let	-609
err	-610
ph	-611
▁some	-612
ange	-613
atter	-614
tal	-615
▁radi	-616
▁also	-617
▁bl	-618
▁ret	-619
its	-620
The	-621
ula	-622
ational	-623
ces	-624
▁hel	-625
ink	-626
erse	-627
▁quant	-628
aw	-629
row	-630
rite	-631
▁work	-632
itt	-633
▁<	-634
▁water	-635
ode	-636
▁formula	-637
▁total	-638
▁stud	-639
oth	-640
▁mo	-641
▁He	-642
rib	-643
▁ra	-644
elf	-645
ft	-646
▁than	-647
▁cm	-648
▁How	-649
gs	-650
stem	-651
ose	-652
fore	-653
▁particle	-654
ict	-655
▁pos	-656
ple	-657
▁10^(-	-658
ful	-659
ild	-660
``	-661
▁could	-662
▁trans	-663
▁fun	-664
▁rem	-665
ss	-666
▁sm	-667
ular	-668
ues	-669
own	-670
▁ang	-671
erature	-672
ener	-673
fter	-674
ata	-675
▁temp	-676
ince	-677
▁Q	-678
ced	-679
▁inv	-680
▁'	-681
▁8	-682
ious	-683
▁lif	-684
ru	-685
()	-686
▁20	-687
▁particles	-688
ximately	-689
te	-690
▁pre	-691
ds	-692
▁process	-693
▁any	-694
▁no	-695
▁ye	-696
▁grav	-697
▁0	-698
oy	-699
▁return	-700
▁ent	-701
▁quantum	-702
▁were	-703
ract	-704
▁ap	-705
▁electron	-706
▁constant	-707
▁fol	-708
▁(2	-709
What	-710
▁requ	-711
("	-712
▁cons	-713
olog	-714
▁mod	-715
uring	-716
▁day	-717
ng	-718
ability	-719
▁sec	-720
hen	-721
ize	-722
tain	-723
▁should	-724
To	-725
▁black	-726
nce	-727
▁min	-728
ient	-729
arch	-730
."	-731
▁ref	-732
▁help	-733
ople	-734
▁obser	-735
▁4.	-736
▁Δ	-737
ery	-738
▁state	-739
▁ke	-740
▁every	-741
ric	-742
▁phys	-743
inal	-744
▁equation	-745
ency	-746
ential	-747
hed	-748
ution	-749
ual	-750
▁point	-751
iverse	-752
▁temperature	-753
sion	-754
▁ho	-755
pect	-756
▁To	-757
▁cent	-758
▁approximately	-759
,000	-760
▁press	-761
rit	-762
ible	-763
▁atom	-764
▁back	-765
ased	-766
asure	-767
hes	-768
▁follow	-769
ring	-770
▁many	-771
▁just	-772
▁If	-773
▁people	-774
ood	-775
▁gre	-776
(1	-777
▁inclu	-778
..	-779
▁been	-780
▁add	-781
▁hour	-782
))	-783
▁sign	-784
ativ	-785
▁fact	-786
▁10^-	-787
▁#	-788
):	-789
▁ag	-790
ram	-791
ower	-792
▁off	-793
▁Re	-794
▁For	-795
▁7	-796
▁sur	-797
ib	-798
idence	-799
▁kg	-800
▁speed	-801
▁exp	-802
ium	-803
ome	-804
▁comm	-805
▁As	-806
▁while	-807
ning	-808
ement	-809
stand	-810
ish	-811
ise	-812
▁fl	-813
▁him	-814
▁car	-815
ities	-816
▁universe	-817
▁pressure	-818
▁experim	-819
ever	-820
▁make	-821
ade	-822
▁nuclear	-823
▁determ	-824
co	-825
▁different	-826
itational	-827
▁want	-828
air	-829
wn	-830
hip	-831
▁require	-832
nds	-833
ative	-834
▁does	-835
▁around	-836
▁system	-837
▁long	-838
▁[	-839
▁sim	-840
iqu	-841
ves	-842
▁act	-843
▁1/	-844
formation	-845
▁result	-846
▁most	-847
led	-848
▁ser	-849
ume	-850
▁effect	-851
old	-852
▁play	-853
▁measure	-854
▁angle	-855
ental	-856
▁due	-857
▁both	-858
▁aw	-859
▁main	-860
▁length	-861
▁pers	-862
▁after	-863
▁prob	-864
▁used	-865
▁There	-866
▁force	-867
▁flow	-868
▁then	-869
ross	-870
▁life	-871
▁mu	-872
▁9	-873
ness	-874
▁bos	-875
ving	-876
▁world	-877
▁import	-878
▁sub	-879
ider	-880
▁only	-881
▁mom	-882
▁They	-883
▁gener	-884
eg	-885
▁understand	-886
cial	-887
▁react	-888
ting	-889
app	-890
itial	-891
▁gravitational	-892
",	-893
other	-894
▁Ch	-895
ption	-896
als	-897
▁pass	-898
▁prot	-899
▁wav	-900
▁bre	-901
▁pot	-902
▁product	-903
ause	-904
ax	-905
akes	-906
▁neut	-907
▁down	-908
▁:	-909
▁plan	-910
usion	-911
▁def	-912
▁values	-913
ward	-914
▁information	-915
▁hum	-916
con	-917
▁object	-918
▁var	-919
ensity	-920
▁par	-921
ob	-922
▁19	-923
▁even	-924
▁set	-925
ection	-926
▁ty	-927
ian	-928
▁quark	-929
▁fu	-930
▁value	-931
▁inf	-932
▁sa	-933
ments	-934
▁stre	-935
arth	-936
▁fre	-937
▁list	-938
▁However	-939
▁art	-940
ather	-941
▁class	-942
▁small	-943
gg	-944
io	-945
▁Ne	-946
▁proper	-947
▁bu	-948
▁data	-949
▁may	-950
50	-951
▁see	-952
here	-953
▁cor	-954
▁spec	-955
ied	-956
hing	-957
▁take	-958
▁Z	-959
▁ac	-960
ex	-961
▁gas	-962
3.	-963
ody	-964
ily	-965
▁conf	-966
▁start	-967
▁5.	-968
^2)	-969
▁before	-970
▁interact	-971
▁Since	-972
▁hy	-973
▁What	-974
rt	-975
▁rep	-976
▁look	-977
▁spac	-978
▁beh	-979
▁che	-980
blem	-981
▁call	-982
▁ma	-983
▁hand	-984
ma	-985
▁ext	-986
ts	-987
ident	-988
▁12	-989
▁|	-990
▁lar	-991
▁ca	-992
iles	-993
▁heat	-994
▁moment	-995
▁Al	-996
▁sum	-997
▁function	-998
Write	-999
▁hole	-1000
▁space	-1001
▁loc	-1002
▁second	-1003
▁problem	-1004
▁end	-1005
cent	-1006
aterial	-1007
▁potential	-1008
ered	-1009
▁cos	-1010
▁And	-1011
▁real	-1012
1.	-1013
ix	-1014
ale	-1015
▁book	-1016
▁//	-1017
▁frie	-1018
▁well	-1019
ited	-1020
▁ball	-1021
▁known	-1022
ties	-1023
▁decay	-1024
self	-1025
▁vel	-1026
▁strong	-1027
▁vol	-1028
▁rate	-1029
▁stru	-1030
▁vis	-1031
▁person	-1032
▁travel	-1033
▁sk	-1034
▁during	-1035
▁level	-1036
▁hours	-1037
ides	-1038
▁probability	-1039
▁(4	-1040
ples	-1041
▁lead	-1042
▁0.0	-1043
sc	-1044
▁found	-1045
eter	-1046
▁desc	-1047
rodu	-1048
ull	-1049
ty	-1050
▁way	-1051
▁(0.	-1052
ined	-1053
▁veloc	-1054
▁matter	-1055
ines	-1056
▁err	-1057
▁relativ	-1058
▁years	-1059
ten	-1060
▁bel	-1061
▁material	-1062
▁But	-1063
ized	-1064
▁physics	-1065
▁dark	-1066
▁following	-1067
▁incre	-1068
25	-1069
▁fusion	-1070
gen	-1071
▁bec	-1072
St	-1073
15	-1074
▁sq	-1075
▁change	-1076
▁She	-1077
▁initial	-1078
otal	-1079
ner	-1080
oid	-1081
velop	-1082
In	-1083
▁inst	-1084
▁don	-1085
▁An	-1086
ubl	-1087
▁did	-1088
10	-1089
ks	-1090
▁mon	-1091
ins	-1092
up	-1093
hod	-1094
▁top	-1095
▁100	-1096
▁input	-1097
ets	-1098
▁being	-1099
▁adv	-1100
▁solve	-1101
▁frequ	-1102
▁pres	-1103
▁center	-1104
▁ass	-1105
ically	-1106
▁velocity	-1107
ding	-1108
▁much	-1109
par	-1110
▁flu	-1111
▁turn	-1112
▁del	-1113
me	-1114
▁fam	-1115
ove	-1116
▁ind	-1117
▁pol	-1118
▁contain	-1119
```	-1120
ev	-1121
ern	-1122
iggs	-1123
▁own	-1124
▁determine	-1125
plic	-1126
els	-1127
▁power	-1128
ator	-1129
▁radius	-1130
ror	-1131
▁coll	-1132
pend	-1133
▁air	-1134
▁occ	-1135
arm	-1136
ute	-1137
▁within	-1138
▁count	-1139
istic	-1140
1)	-1141
▁read	-1142
▁charact	-1143
▁phot	-1144
▁though	-1145
▁name	-1146
--	-1147
ling	-1148
▁again	-1149
pr	-1150
chan	-1151
▁poss	-1152
▁These	-1153
son	-1154
▁specific	-1155
ream	-1156
atch	-1157
▁gu	-1158
▁Higgs	-1159
▁Y	-1160
eV	-1161
ertain	-1162
ample	-1163
read	-1164
▁must	-1165
rop	-1166
ared	-1167
▁30	-1168
▁```	-1169
▁conn	-1170
ism	-1171
▁properties	-1172
▁reg	-1173
▁ey	-1174
ages	-1175
day	-1176
▁allow	-1177
▁meters	-1178
lect	-1179
▁experi	-1180
▁ins	-1181
▁sqrt	-1182
▁case	-1183
▁ide	-1184
ren	-1185
▁three	-1186
▁resp	-1187
▁now	-1188
▁Earth	-1189
▁understanding	-1190
andard	-1191
▁same	-1192
IN	-1193
ublic	-1194
▁loop	-1195
▁method	-1196
::	-1197
▁cost	-1198
▁gr	-1199
cture	-1200
▁image	-1201
ray	-1202
▁sin	-1203
cept	-1204
▁detect	-1205
▁rest	-1206
▁becom	-1207
ways	-1208
▁`	-1209
oles	-1210
▁made	-1211
ven	-1212
▁First	-1213
',	-1214
▁dr	-1215
▁wid	-1216
▁production	-1217
▁away	-1218
▁good	-1219
▁oper	-1220
▁mechan	-1221
ze	-1222
▁quest	-1223
▁Wh	-1224
arn	-1225
▁pred	-1226
▁signific	-1227
20	-1228
▁sing	-1229
ouse	-1230
▁μ	-1231
ify	-1232
▁15	-1233
ee	-1234
▁tre	-1235
▁step	-1236
▁6.	-1237
▁exc	-1238
▁red	-1239
▁mult	-1240
ization	-1241
▁love	-1242
▁feel	-1243
ec	-1244
ology	-1245
▁words	-1246
iss	-1247
ral	-1248
ases	-1249
2.	-1250
▁story	-1251
3)	-1252
▁density	-1253
aut	-1254
▁inde	-1255
▁right	-1256
rogen	-1257
▁att	-1258
▁boson	-1259
ook	-1260
▁<<	-1261
▁neutron	-1262
▁frequency	-1263
▁Un	-1264
ead	-1265
▁med	-1266
ank	-1267
less	-1268
itions	-1269
vers	-1270
▁event	-1271
▁consider	-1272
▁cosm	-1273
▁beg	-1274
▁required	-1275
('	-1276
lease	-1277
ene	-1278
▁try	-1279
▁cap	-1280
▁lens	-1281
ission	-1282
▁gl	-1283
▁heart	-1284
▁hist	-1285
pport	-1286
pen	-1287
ories	-1288
bers	-1289
,"	-1290
ique	-1291
ploy	-1292
▁days	-1293
▁z	-1294
ret	-1295
vert	-1296
/2)	-1297
ott	-1298
arly	-1299
▁very	-1300
__	-1301
▁θ	-1302
▁hyd	-1303
ually	-1304
▁area	-1305
yn	-1306
ork	-1307
▁invol	-1308
atic	-1309
icient	-1310
▁because	-1311
▁those	-1312
pos	-1313
▁volume	-1314
▁states	-1315
▁Ad	-1316
▁create	-1317
▁mus	-1318
▁search	-1319
cho	-1320
▁Here	-1321
▁without	-1322
ier	-1323
▁print	-1324
ude	-1325
▁star	-1326
ants	-1327
30	-1328
▁comb	-1329
ript	-1330
▁structure	-1331
ives	-1332
▁difference	-1333
▁When	-1334
▁minim	-1335
▁remain	-1336
▁prog	-1337
▁exist	-1338
▁key	-1339
▁predict	-1340
▁disc	-1341
▁final	-1342
▁describ	-1343
▁public	-1344
face	-1345
clu	-1346
ash	-1347
ift	-1348
ason	-1349
▁think	-1350
▁show	-1351
ats	-1352
▁blo	-1353
▁cond	-1354
▁room	-1355
();	-1356
odel	-1357
▁cross	-1358
▁occur	-1359
raction	-1360
▁another	-1361
7)	-1362
▁old	-1363
tt	-1364
▁integ	-1365
▁miles	-1366
▁amount	-1367
▁design	-1368
")	-1369
name	-1370
▁squ	-1371
ane	-1372
▁tri	-1373
▁aff	-1374
▁express	-1375
▁short	-1376
▁foc	-1377
ural	-1378
▁night	-1379
▁text	-1380
verage	-1381
▁always	-1382
iving	-1383
ering	-1384
raw	-1385
▁ve	-1386
6.	-1387
ense	-1388
▁free	-1389
gether	-1390
▁maxim	-1391
▁together	-1392
▁50	-1393
▁atm	-1394
▁contin	-1395
ided	-1396
alth	-1397
raph	-1398
▁wave	-1399
▁significant	-1400
▁based	-1401
ices	-1402
▁file	-1403
▁div	-1404
▁sun	-1405
▁side	-1406
▁develop	-1407
▁model	-1408
▁great	-1409
▁Ex	-1410
reate	-1411
ames	-1412
port	-1413
▁ord	-1414
arr	-1415
▁often	-1416
60	-1417
oss	-1418
▁best	-1419
ici	-1420
▁18	-1421
▁human	-1422
ems	-1423
lex	-1424
▁std	-1425
▁factor	-1426
▁child	-1427
ality	-1428
▁home	-1429
ination	-1430
▁waves	-1431
olution	-1432
▁π	-1433
orn	-1434
cing	-1435
to	-1436
▁“	-1437
iron	-1438
not	-1439
inci	-1440
▁large	-1441
▁streng	-1442
yth	-1443
ney	-1444
ton	-1445
▁pop	-1446
▁still	-1447
▁year	-1448
▁hydrogen	-1449
▁eyes	-1450
▁rec	-1451
ask	-1452
▁crit	-1453
lement	-1454
gre	-1455
▁fore	-1456
▁i	-1457
ov	-1458
▁left	-1459
▁include	-1460
▁study	-1461
by	-1462
▁run	-1463
ional	-1464
19	-1465
▁line	-1466
▁==	-1467
avor	-1468
alculate	-1469
▁Con	-1470
▁theory	-1471
▁non	-1472
mol	-1473
▁element	-1474
▁disco	-1475
ety	-1476
▁too	-1477
▁called	-1478
▁spaces	-1479
▁perform	-1480
ms	-1481
▁anal	-1482
▁wee	-1483
▁di	-1484
ew	-1485
▁60	-1486
iew	-1487
▁prof	-1488
▁hor	-1489
▁With	-1490
▁various	-1491
inally	-1492
▁redu	-1493
fer	-1494
▁Pro	-1495
▁quarks	-1496
itude	-1497
br	-1498
▁typ	-1499
▁produced	-1500
▁observed	-1501
▁here	-1502
ape	-1503
▁strength	-1504
mm	-1505
▁might	-1506
ete	-1507
▁character	-1508
aving	-1509
▁radiation	-1510
▁mat	-1511
▁law	-1512
▁term	-1513
▁head	-1514
▁city	-1515
▁0.5	-1516
ctor	-1517
▁happ	-1518
▁compan	-1519
▁students	-1520
▁sw	-1521
utes	-1522
▁answer	-1523
tical	-1524
ior	-1525
▁said	-1526
ged	-1527
aring	-1528
wards	-1529
▁Total	-1530
bit	-1531
▁fluid	-1532
▁25	-1533
▁pur	-1534
▁Model	-1535
▁ground	-1536
▁Let	-1537
augh	-1538
▁making	-1539
ann	-1540
▁fill	-1541
▁chall	-1542
23	-1543
▁rat	-1544
OR	-1545
▁place	-1546
▁multip	-1547
ived	-1548
▁mem	-1549
▁nature	-1550
val	-1551
▁else	-1552
▁cho	-1553
▁200	-1554
▁keep	-1555
ision	-1556
uth	-1557
ittle	-1558
▁eV	-1559
▁enc	-1560
▁blue	-1561
▁Qu	-1562
...	-1563
▁maximum	-1564
▁self	-1565
line	-1566
eff	-1567
▁grow	-1568
oh	-1569
itive	-1570
▁times	-1571
67	-1572
▁including	-1573
AT	-1574
etime	-1575
▁never	-1576
11	-1577
▁path	-1578
▁pain	-1579
▁orig	-1580
▁fil	-1581
▁cle	-1582
▁Therefore	-1583
▁something	-1584
▁sour	-1585
omen	-1586
uck	-1587
ists	-1588
roup	-1589
▁possible	-1590
▁evidence	-1591
elength	-1592
▁Standard	-1593
?"	-1594
▁eng	-1595
▁princi	-1596
▁program	-1597
▁spaceship	-1598
itional	-1599
bs	-1600
▁jour	-1601
▁(1.	-1602
be	-1603
▁By	-1604
▁caus	-1605
▁surface	-1606
ext	-1607
4)	-1608
▁rele	-1609
▁test	-1610
▁friends	-1611
roduct	-1612
▁open	-1613
▁summ	-1614
▁means	-1615
▁Be	-1616
▁My	-1617
umber	-1618
ameter	-1619
▁belie	-1620
▁unt	-1621
▁mar	-1622
▁compl	-1623
ava	-1624
ired	-1625
▁wavelength	-1626
▁sever	-1627
alf	-1628
▁food	-1629
▁Sh	-1630
▁break	-1631
▁string	-1632
▁last	-1633
▁wire	-1634
▁stars	-1635
ger	-1636
▁:=	-1637
▁bar	-1638
▁type	-1639
acity	-1640
▁behav	-1641
iol	-1642
thing	-1643
▁γ	-1644
ike	-1645
▁bus	-1646
▁repres	-1647
ological	-1648
ining	-1649
14	-1650
▁explain	-1651
ively	-1652
▁clo	-1653
▁average	-1654
▁come	-1655
▁several	-1656
▁av	-1657
att	-1658
amed	-1659
atures	-1660
ER	-1661
ttp	-1662
vent	-1663
itted	-1664
osed	-1665
▁things	-1666
▁deep	-1667
▁levels	-1668
esc	-1669
▁less	-1670
▁house	-1671
▁little	-1672
▁critical	-1673
▁momentum	-1674
▁plu	-1675
▁Tm	-1676
ures	-1677
iciency	-1678
▁cir	-1679
▁say	-1680
ences	-1681
▁dep	-1682
▁write	-1683
ait	-1684
▁experimental	-1685
ivity	-1686
▁affect	-1687
ock	-1688
chie	-1689
▁One	-1690
▁cou	-1691
98	-1692
erest	-1693
▁10^(-7)	-1694
▁theore	-1695
ccess	-1696
▁calculated	-1697
▁ed	-1698
▁saf	-1699
ear	-1700
illion	-1701
▁commun	-1702
▁unique	-1703
▁fund	-1704
▁family	-1705
idd	-1706
▁(3	-1707
▁equal	-1708
▁weak	-1709
▁lim	-1710
itle	-1711
▁Calculate	-1712
iding	-1713
▁month	-1714
▁impro	-1715
ns	-1716
rin	-1717
ystem	-1718
cy	-1719
essage	-1720
az	-1721
▁user	-1722
▁mag	-1723
▁height	-1724
▁history	-1725
nal	-1726
▁health	-1727
▁next	-1728
2,	-1729
pped	-1730
aced	-1731
▁takes	-1732
▁towards	-1733
ified	-1734
▁support	-1735
▁employ	-1736
end	-1737
▁convert	-1738
▁arr	-1739
ances	-1740
▁journey	-1741
ert	-1742
▁direction	-1743
▁New	-1744
▁index	-1745
▁spect	-1746
▁group	-1747
▁10^8	-1748
▁ask	-1749
▁role	-1750
▁tell	-1751
▁beaut	-1752
▁corre	-1753
▁λ	-1754
input	-1755
▁conditions	-1756
▁minutes	-1757
yle	-1758
How	-1759
▁cr	-1760
grees	-1761
▁separ	-1762
▁student	-1763
▁balls	-1764
▁degrees	-1765
mmet	-1766
▁heav	-1767
▁units	-1768
1,	-1769
▁!	-1770
▁give	-1771
ification	-1772
viron	-1773
▁sure	-1774
▁wind	-1775
▁•	-1776
land	-1777
▁position	-1778
▁square	-1779
▁MeV	-1780
▁land	-1781
eler	-1782
▁few	-1783
▁care	-1784
5)	-1785
▁sal	-1786
▁opt	-1787
amp	-1788
▁distrib	-1789
▁relativistic	-1790
▁materials	-1791
▁behavior	-1792
▁four	-1793
▁nucleus	-1794
▁ant	-1795
ements	-1796
▁question	-1797
▁7.	-1798
▁body	-1799
▁500	-1800
▁ratio	-1801
▁account	-1802
▁Com	-1803
▁since	-1804
▁dou	-1805
eters	-1806
new	-1807
erence	-1808
sh	-1809
onse	-1810
▁mean	-1811
▁tool	-1812
▁above	-1813
for	-1814
ights	-1815
ush	-1816
▁De	-1817
▁size	-1818
▁ax	-1819
▁spin	-1820
ording	-1821
▁respect	-1822
▁walk	-1823
▁across	-1824
▁company	-1825
▁sound	-1826
aves	-1827
▁behind	-1828
▁est	-1829
▁fundam	-1830
▁patter	-1831
print	-1832
▁9.	-1833
sor	-1834
▁friend	-1835
weet	-1836
▁complex	-1837
▁Each	-1838
▁mir	-1839
▁general	-1840
▁interest	-1841
▁40	-1842
▁minimum	-1843
▁His	-1844
▁range	-1845
aster	-1846
▁thought	-1847
ster	-1848
ustom	-1849
ched	-1850
ython	-1851
▁horiz	-1852
ember	-1853
▁common	-1854
▁efficiency	-1855
▁named	-1856
▁order	-1857
▁until	-1858
▁At	-1859
6)	-1860
▁charge	-1861
▁chang	-1862
▁environ	-1863
▁example	-1864
▁mind	-1865
▁once	-1866
▁fundamental	-1867
ivid	-1868
▁atomic	-1869
▁8.	-1870
evidence	-1871
▁experiment	-1872
▁Pa	-1873
▁hig	-1874
ife	-1875
▁done	-1876
▁results	-1877
ON	-1878
la	-1879
▁coeff	-1880
▁masses	-1881
json	-1882
▁feet	-1883
▁After	-1884
▁store	-1885
▁achie	-1886
-1	-1887
ries	-1888
ird	-1889
raft	-1890
▁far	-1891
▁going	-1892
log	-1893
▁rese	-1894
ls	-1895
inary	-1896
▁acceler	-1897
27	-1898
9.	-1899
▁ur	-1900
▁ens	-1901
▁early	-1902
ln	-1903
▁connect	-1904
▁holes	-1905
▁0.1	-1906
ention	-1907
▁books	-1908
▁glass	-1909
▁pair	-1910
▁elements	-1911
40	-1912
uss	-1913
▁experiments	-1914
LA	-1915
iver	-1916
▁game	-1917
iness	-1918
▁proton	-1919
▁!=	-1920
▁single	-1921
▁fuel	-1922
▁sent	-1923
ration	-1924
▁challeng	-1925
▁bra	-1926
atus	-1927
▁Col	-1928
▁color	-1929
▁better	-1930
ah	-1931
ital	-1932
▁enough	-1933
▁half	-1934
▁against	-1935
▁numbers	-1936
mb	-1937
oint	-1938
meric	-1939
ledge	-1940
▁1.5	-1941
▁bro	-1942
▁dream	-1943
▁lay	-1944
2/	-1945
▁products	-1946
aps	-1947
▁gravity	-1948
":	-1949
▁pi	-1950
▁super	-1951
▁horizon	-1952
ches	-1953
izing	-1954
▁summary	-1955
agnetic	-1956
▁output	-1957
▁cy	-1958
▁reason	-1959
▁relations	-1960
▁bosons	-1961
4.	-1962
▁cru	-1963
rror	-1964
iques	-1965
▁inside	-1966
▁build	-1967
cl	-1968
esp	-1969
▁1)	-1970
▁Int	-1971
▁sil	-1972
▁past	-1973
▁cannot	-1974
▁plug	-1975
Wh	-1976
▁X	-1977
▁anim	-1978
▁mark	-1979
▁polar	-1980
▁bott	-1981
ury	-1982
reen	-1983
fect	-1984
▁eas	-1985
▁ways	-1986
▁Dr	-1987
▁important	-1988
▁age	-1989
▁mix	-1990
▁reactor	-1991
▁(5	-1992
▁und	-1993
ote	-1994
▁electric	-1995
▁yet	-1996
ony	-1997
▁Law	-1998
▁expan	-1999
ox	-2000
aces	-2001
osp	-2002
▁expect	-2003
▁simple	-2004
▁capacity	-2005
▁methods	-2006
▁stand	-2007
▁become	-2008
▁ident	-2009
(3	-2010
18	-2011
▁detail	-2012
osity	-2013
▁mirror	-2014
ows	-2015
▁word	-2016
▁Given	-2017
^3	-2018
pping	-2019
▁face	-2020
cies	-2021
▁contro	-2022
▁mechanics	-2023
play	-2024
▁music	-2025
▁maintain	-2026
fully	-2027
▁Use	-2028
pers	-2029
asma	-2030
▁Add	-2031
▁true	-2032
▁appe	-2033
▁relativity	-2034
▁train	-2035
▁emp	-2036
▁pat	-2037
ilities	-2038
▁System	-2039
▁experience	-2040
ception	-2041
▁Americ	-2042
▁coefficient	-2043
▁put	-2044
ients	-2045
▁dev	-2046
▁upon	-2047
▁impact	-2048
▁environment	-2049
▁young	-2050
▁least	-2051
▁fur	-2052
ump	-2053
▁influ	-2054
▁contrib	-2055
med	-2056
▁techniques	-2057
ground	-2058
▁move	-2059
(0.	-2060
▁ast	-2061
▁green	-2062
ste	-2063
▁week	-2064
data	-2065
ither	-2066
▁success	-2067
ey	-2068
▁pick	-2069
▁source	-2070
▁Finally	-2071
▁photon	-2072
▁needed	-2073
file	-2074
▁fut	-2075
▁lit	-2076
eth	-2077
▁That	-2078
▁ever	-2079
asc	-2080
aily	-2081
▁box	-2082
▁Can	-2083
light	-2084
▁apples	-2085
▁relationship	-2086
ching	-2087
chool	-2088
▁script	-2089
▁certain	-2090
▁presence	-2091
▁reach	-2092
▁Ar	-2093
ards	-2094
▁Sp	-2095
atab	-2096
▁viol	-2097
henomen	-2098
▁10−	-2099
anced	-2100
▁produce	-2101
str	-2102
alance	-2103
)^2	-2104
pper	-2105
lying	-2106
head	-2107
▁0.8	-2108
ription	-2109
ividual	-2110
▁children	-2111
alax	-2112
▁turns	-2113
▁width	-2114
▁1000	-2115
▁prom	-2116
▁reaction	-2117
▁observ	-2118
▁phenomen	-2119
istance	-2120
▁table	-2121
▁rev	-2122
▁writ	-2123
atural	-2124
▁Next	-2125
▁mot	-2126
▁observer	-2127
oot	-2128
Error	-2129
▁seem	-2130
▁bene	-2131
▁priv	-2132
▁learn	-2133
▁ess	-2134
▁existence	-2135
▁spacetime	-2136
▁systems	-2137
ees	-2138
inks	-2139
▁draw	-2140
▁void	-2141
▁ste	-2142
Th	-2143
▁low	-2144
rying	-2145
▁individual	-2146
arent	-2147
▁million	-2148
ole	-2149
▁prim	-2150
inetic	-2151
alls	-2152
ggest	-2153
ctions	-2154
man	-2155
the	-2156
▁});	-2157
vered	-2158
▁respons	-2159
▁sle	-2160
▁today	-2161
▁dog	-2162
apor	-2163
0)	-2164
ST	-2165
iod	-2166
▁=>	-2167
ience	-2168
▁0.00	-2169
itting	-2170
▁custom	-2171
]:	-2172
▁theoretical	-2173
▁cat	-2174
▁plasma	-2175
ished	-2176
▁got	-2177
▁pipe	-2178
▁ge	-2179
plications	-2180
8.	-2181
go	-2182
▁soft	-2183
33	-2184
75	-2185
▁crucial	-2186
▁interactions	-2187
▁Mar	-2188
▁knowledge	-2189
▁others	-2190
▁flo	-2191
icle	-2192
▁exact	-2193
▁represent	-2194
angu	-2195
clude	-2196
▁fram	-2197
▁ρ	-2198
elt	-2199
▁ann	-2200
atabase	-2201
▁unit	-2202
inement	-2203
▁sit	-2204
▁kinetic	-2205
ently	-2206
▁analy	-2207
▁processes	-2208
▁why	-2209
sword	-2210
time	-2211
▁unc	-2212
▁error	-2213
py	-2214
▁300	-2215
▁near	-2216
attering	-2217
ams	-2218
▁moving	-2219
▁suggest	-2220
ales	-2221
▁Mr	-2222
eting	-2223
▁post	-2224
▁neg	-2225
▁higher	-2226
▁lik	-2227
FOR	-2228
▁pie	-2229
▁forces	-2230
▁interaction	-2231
▁big	-2232
▁future	-2233
▁dl	-2234
assword	-2235
(2	-2236
▁fin	-2237
ming	-2238
▁dem	-2239
imate	-2240
▁wr	-2241
▁ancient	-2242
next	-2243
bles	-2244
▁massive	-2245
▁galax	-2246
▁sides	-2247
astic	-2248
▁conc	-2249
ik	-2250
▁concept	-2251
gan	-2252
▁local	-2253
▁id	-2254
Con	-2255
enced	-2256
plication	-2257
▁cult	-2258
▁events	-2259
ateg	-2260
▁comput	-2261
▁cour	-2262
asing	-2263
▁leading	-2264
soci	-2265
▁uses	-2266
▁expansion	-2267
▁entire	-2268
▁period	-2269
▁Sch	-2270
▁enj	-2271
▁filled	-2272
mt	-2273
▁full	-2274
MAT	-2275
ograph	-2276
▁focus	-2277
12	-2278
▁physical	-2279
romagnetic	-2280
gets	-2281
▁langu	-2282
80	-2283
▁depend	-2284
▁invest	-2285
▁weight	-2286
▁increase	-2287
▁Some	-2288
▁PLA	-2289
▁special	-2290
ilation	-2291
oney	-2292
▁favor	-2293
▁makes	-2294
place	-2295
▁hard	-2296
▁cel	-2297
▁confinement	-2298
13	-2299
▁cosmic	-2300
cks	-2301
yond	-2302
uming	-2303
FORMAT	-2304
utions	-2305
resp	-2306
nding	-2307
ument	-2308
▁PLAIN	-2309
▁PLAINFORMAT	-2310
17	-2311
▁convers	-2312
venue	-2313
▁focal	-2314
/2	-2315
Name	-2316
uff	-2317
▁share	-2318
▁0.6	-2319
lection	-2320
▁planet	-2321
▁solution	-2322
▁Fr	-2323
▁Number	-2324
▁distribution	-2325
come	-2326
▁scattering	-2327
equ	-2328
▁measurements	-2329
->	-2330
▁double	-2331
▁Am	-2332
▁surround	-2333
▁ris	-2334
ought	-2335
▁decays	-2336
▁relative	-2337
▁&	-2338
sing	-2339
▁content	-2340
▁pract	-2341
▁equations	-2342
ailable	-2343
▁electro	-2344
oes	-2345
▁sat	-2346
▁terms	-2347
▁intensity	-2348
book	-2349
ication	-2350
▁fields	-2351
▁bir	-2352
▁warm	-2353
date	-2354
▁items	-2355
▁1,	-2356
▁protons	-2357
LE	-2358
olds	-2359
of	-2360
elect	-2361
▁school	-2362
▁sky	-2363
▁forest	-2364
nown	-2365
▁bright	-2366
▁tree	-2367
▁bound	-2368
▁code	-2369
▁phase	-2370
▁log	-2371
▁Then	-2372
urb	-2373
ulation	-2374
▁natural	-2375
▁transfer	-2376
▁cry	-2377
▁bit	-2378
▁town	-2379
▁released	-2380
oman	-2381
▁neutrin	-2382
Cl	-2383
ips	-2384
▁dest	-2385
▁rece	-2386
▁condu	-2387
▁talk	-2388
▁bottom	-2389
▁becomes	-2390
rig	-2391
▁private	-2392
▁sens	-2393
Create	-2394
▁improve	-2395
▁curv	-2396
ried	-2397
▁clos	-2398
ohn	-2399
stein	-2400
▁visit	-2401
▁sn	-2402
ots	-2403
▁beyond	-2404
▁lab	-2405
rm	-2406
fort	-2407
▁consist	-2408
ened	-2409
ills	-2410
▁stra	-2411
▁really	-2412
▁looking	-2413
▁someone	-2414
imens	-2415
▁vapor	-2416
▁atoms	-2417
rix	-2418
▁perme	-2419
▁Plu	-2420
▁needs	-2421
34	-2422
▁curvature	-2423
ted	-2424
conn	-2425
▁mic	-2426
sq	-2427
ones	-2428
▁sense	-2429
▁factors	-2430
.,	-2431
arl	-2432
oke	-2433
▁gir	-2434
▁shift	-2435
ese	-2436
▁perfect	-2437
▁dB	-2438
arget	-2439
!"	-2440
16	-2441
▁style	-2442
▁predictions	-2443
▁Step	-2444
▁daily	-2445
99	-2446
▁den	-2447
rown	-2448
erc	-2449
▁entang	-2450
▁capt	-2451
▁kind	-2452
▁lept	-2453
▁begin	-2454
▁allows	-2455
gging	-2456
▁bran	-2457
path	-2458
oring	-2459
▁effects	-2460
erv	-2461
▁present	-2462
angle	-2463
energy	-2464
dd	-2465
▁>	-2466
pro	-2467
▁Le	-2468
▁auth	-2469
▁nuclei	-2470
▁further	-2471
▁electrons	-2472
5.	-2473
▁loss	-2474
▁Se	-2475
▁El	-2476
▁outside	-2477
war	-2478
▁provides	-2479
▁wond	-2480
▁email	-2481
▁quick	-2482
▁associ	-2483
="	-2484
▁excited	-2485
▁song	-2486
-23	-2487
▁vac	-2488
▁began	-2489
▁either	-2490
▁subst	-2491
▁hot	-2492
▁hope	-2493
▁String	-2494
ractive	-2495
amics	-2496
ero	-2497
▁Your	-2498
▁emot	-2499
▁merg	-2500
▁prec	-2501
▁chat	-2502
▁Is	-2503
orts	-2504
▁angular	-2505
▁popular	-2506
right	-2507
▁Python	-2508
iful	-2509
▁emb	-2510
▁transm	-2511
▁mechanism	-2512
▁√	-2513
ivers	-2514
▁among	-2515
▁ideal	-2516
▁provided	-2517
▁price	-2518
String	-2519
7.	-2520
irt	-2521
▁enjoy	-2522
▁grand	-2523
▁particular	-2524
▁transition	-2525
amma	-2526
▁(1/	-2527
▁able	-2528
min	-2529
▁Sc	-2530
▁pa	-2531
▁sleep	-2532
▁measured	-2533
");	-2534
loc	-2535
▁On	-2536
▁involves	-2537
▁alph	-2538
▁cook	-2539
cular	-2540
▁creating	-2541
24	-2542
▁En	-2543
▁gard	-2544
ront	-2545
▁cand	-2546
▁connection	-2547
▁mov	-2548
▁lines	-2549
instein	-2550
ges	-2551
▁research	-2552
▁axis	-2553
▁Det	-2554
▁cool	-2555
▁approach	-2556
▁thick	-2557
▁neutrons	-2558
▁uncertain	-2559
▁didn	-2560
▁leaves	-2561
▁team	-2562
▁advent	-2563
ators	-2564
▁incident	-2565
add	-2566
▁comes	-2567
▁white	-2568
▁hold	-2569
▁seg	-2570
▁having	-2571
ids	-2572
▁additional	-2573
println	-2574
▁core	-2575
');	-2576
arc	-2577
▁doesn	-2578
▁extre	-2579
ndom	-2580
reat	-2581
total	-2582
▁Make	-2583
▁bas	-2584
▁manag	-2585
▁located	-2586
▁reflect	-2587
▁five	-2588
gor	-2589
▁extract	-2590
▁electromagnetic	-2591
ters	-2592
▁Per	-2593
▁related	-2594
nov	-2595
▁park	-2596
▁close	-2597
▁radio	-2598
▁available	-2599
▁gold	-2600
resh	-2601
▁technology	-2602
omet	-2603
▁16	-2604
ival	-2605
ativity	-2606
set	-2607
▁emitted	-2608
CD	-2609
▁Her	-2610
▁win	-2611
key	-2612
▁objects	-2613
It	-2614
▁according	-2615
Sc	-2616
▁Tr	-2617
ug	-2618
▁insp	-2619
▁background	-2620
orld	-2621
▁trad	-2622
▁engine	-2623
lob	-2624
elves	-2625
▁static	-2626
▁project	-2627
▁charged	-2628
▁der	-2629
▁kJ	-2630
▁response	-2631
▁formation	-2632
ellow	-2633
▁modern	-2634
▁language	-2635
ening	-2636
und	-2637
▁Ph	-2638
ocol	-2639
▁spl	-2640
Node	-2641
▁dig	-2642
▁wait	-2643
')	-2644
▁sou	-2645
▁increases	-2646
ctu	-2647
▁complet	-2648
ffee	-2649
rier	-2650
▁port	-2651
▁request	-2652
Ex	-2653
----	-2654
▁steps	-2655
▁vector	-2656
▁arg	-2657
HC	-2658
ference	-2659
▁subt	-2660
▁numer	-2661
oon	-2662
lish	-2663
selves	-2664
▁cause	-2665
▁therm	-2666
▁No	-2667
▁spir	-2668
▁While	-2669
uc	-2670
▁took	-2671
mmetry	-2672
http	-2673
▁live	-2674
▁database	-2675
enn	-2676
▁Pr	-2677
oad	-2678
▁started	-2679
▁Eng	-2680
▁hands	-2681
▁development	-2682
PI	-2683
cur	-2684
bert	-2685
▁widgets	-2686
▁absor	-2687
▁balance	-2688
pends	-2689
dom	-2690
aur	-2691
antum	-2692
▁Do	-2693
child	-2694
▁Einstein	-2695
▁depends	-2696
File	-2697
aches	-2698
▁action	-2699
▁dilation	-2700
▁aud	-2701
▁came	-2702
isions	-2703
▁screen	-2704
▁context	-2705
▁Rel	-2706
▁Gener	-2707
▁target	-2708
▁rot	-2709
▁evolution	-2710
▁everyone	-2711
▁characters	-2712
▁continu	-2713
ief	-2714
pose	-2715
▁achieve	-2716
▁nm	-2717
▁series	-2718
▁Plugging	-2719
iable	-2720
▁waste	-2721
ountain	-2722
▁solar	-2723
▁rather	-2724
acy	-2725
my	-2726
umin	-2727
▁thr	-2728
▁pay	-2729
▁server	-2730
▁revenue	-2731
▁-1	-2732
▁Gra	-2733
▁view	-2734
▁types	-2735
section	-2736
▁containing	-2737
sert	-2738
▁bring	-2739
string	-2740
▁employees	-2741
sole	-2742
▁Please	-2743
▁parameter	-2744
NT	-2745
500	-2746
▁mor	-2747
inder	-2748
▁pack	-2749
▁watch	-2750
serv	-2751
▁limit	-2752
▁changes	-2753
▁console	-2754
anium	-2755
▁lost	-2756
▁magnitude	-2757
▁permeability	-2758
ley	-2759
oph	-2760
▁yourself	-2761
▁won	-2762
▁catch	-2763
apt	-2764
cience	-2765
gorith	-2766
▁Node	-2767
▁hair	-2768
way	-2769
▁Time	-2770
▁magnification	-2771
▁access	-2772
++	-2773
▁∫	-2774
▁isot	-2775
respond	-2776
bo	-2777
▁2)	-2778
work	-2779
▁formed	-2780
▁taking	-2781
ils	-2782
▁expression	-2783
oud	-2784
▁questions	-2785
elling	-2786
▁et	-2787
▁Ind	-2788
▁Pl	-2789
iction	-2790
▁ice	-2791
▁array	-2792
ibility	-2793
▁challenges	-2794
nces	-2795
lation	-2796
▁quite	-2797
aken	-2798
▁random	-2799
ously	-2800
▁remains	-2801
CT	-2802
▁social	-2803
▁positive	-2804
▁standard	-2805
▁fall	-2806
▁multiple	-2807
king	-2808
▁lower	-2809
▁occurs	-2810
▁1:	-2811
▁correspond	-2812
▁everything	-2813
▁Fl	-2814
▁0.2	-2815
▁mes	-2816
ormal	-2817
▁trip	-2818
▁km	-2819
room	-2820
centage	-2821
▁John	-2822
▁seen	-2823
▁ideas	-2824
arning	-2825
▁itself	-2826
▁remember	-2827
ball	-2828
▁points	-2829
▁necess	-2830
List	-2831
▁pattern	-2832
▁2.5	-2833
ready	-2834
▁modes	-2835
▁plant	-2836
zz	-2837
su	-2838
iet	-2839
arge	-2840
▁nil	-2841
cean	-2842
▁ill	-2843
▁stay	-2844
▁phenomenon	-2845
▁atte	-2846
▁control	-2847
▁detection	-2848
▁personal	-2849
▁measurement	-2850
▁(6.	-2851
▁tel	-2852
▁reasoning	-2853
▁isn	-2854
▁80	-2855
▁GeV	-2856
▁colors	-2857
▁Cl	-2858
body	-2859
onic	-2860
▁knew	-2861
▁thing	-2862
▁typically	-2863
^2/	-2864
▁2:	-2865
▁underg	-2866
num	-2867
ords	-2868
▁chann	-2869
▁magic	-2870
▁message	-2871
▁living	-2872
▁business	-2873
▁rect	-2874
▁coffee	-2875
▁helium	-2876
▁0,	-2877
node	-2878
▁City	-2879
▁fission	-2880
▁24	-2881
gest	-2882
ached	-2883
▁Their	-2884
▁compon	-2885
▁%	-2886
//	-2887
▁door	-2888
order	-2889
▁arch	-2890
▁went	-2891
▁essential	-2892
db	-2893
ables	-2894
▁slow	-2895
▁discovery	-2896
▁glu	-2897
▁divide	-2898
▁clean	-2899
ises	-2900
▁Man	-2901
▁maj	-2902
▁sweet	-2903
▁May	-2904
▁already	-2905
▁author	-2906
▁letter	-2907
▁expected	-2908
▁associated	-2909
▁job	-2910
▁row	-2911
ET	-2912
ysis	-2913
▁mol	-2914
▁Or	-2915
▁imag	-2916
▁(0.0	-2917
▁mode	-2918
▁check	-2919
▁parent	-2920
itation	-2921
▁includ	-2922
▁favorite	-2923
Let	-2924
▁men	-2925
▁idea	-2926
ells	-2927
unch	-2928
▁algorith	-2929
▁0;	-2930
▁introdu	-2931
▁dance	-2932
▁money	-2933
▁simpl	-2934
▁sample	-2935
▁sea	-2936
▁poem	-2937
▁ensure	-2938
▁travels	-2939
▁diameter	-2940
▁Final	-2941
▁factory	-2942
▁multiply	-2943
▁trees	-2944
▁United	-2945
][	-2946
▁organ	-2947
0,	-2948
▁(-	-2949
▁beauty	-2950
85	-2951
tern	-2952
▁lives	-2953
▁original	-2954
water	-2955
like	-2956
▁determined	-2957
▁Dis	-2958
▁stop	-2959
Pr	-2960
▁Em	-2961
nter	-2962
▁cal	-2963
itten	-2964
▁Create	-2965
66	-2966
▁accept	-2967
▁responsible	-2968
],	-2969
era	-2970
sequ	-2971
artment	-2972
▁getting	-2973
▁animals	-2974
▁believe	-2975
▁created	-2976
Ch	-2977
ruct	-2978
▁libr	-2979
▁depth	-2980
▁assume	-2981
ilar	-2982
▁cast	-2983
▁decre	-2984
▁garden	-2985
▁propos	-2986
▁safety	-2987
▁beautiful	-2988
First	-2989
▁coupl	-2990
▁anything	-2991
▁clu	-2992
iny	-2993
▁continue	-2994
▁classical	-2995
▁esc	-2996
▁$1	-2997
▁From	-2998
▁cars	-2999
▁discuss	-3000
▁working	-3001
▁eat	-3002
▁visc	-3003
iot	-3004
ler	-3005
▁consum	-3006
45	-3007
▁peak	-3008
▁harm	-3009
▁block	-3010
▁trying	-3011
use	-3012
▁temperatures	-3013
▁vo	-3014
▁choose	-3015
▁bed	-3016
omin	-3017
▁beam	-3018
▁java	-3019
▁reactions	-3020
▁refractive	-3021
▁correct	-3022
%.	-3023
bits	-3024
▁users	-3025
▁principles	-3026
▁tou	-3027
ule	-3028
itch	-3029
ored	-3030
icult	-3031
▁drag	-3032
▁nothing	-3033
AR	-3034
craft	-3035
▁became	-3036
ogn	-3037
umb	-3038
▁prev	-3039
▁conclu	-3040
▁(10	-3041
▁bag	-3042
▁led	-3043
icate	-3044
▁produces	-3045
▁describes	-3046
▁saw	-3047
▁concent	-3048
▁described	-3049
host	-3050
▁fire	-3051
▁miss	-3052
▁principle	-3053
lose	-3054
▁Bob	-3055
aries	-3056
sidered	-3057
RL	-3058
▁cup	-3059
▁cold	-3060
▁root	-3061
▁heavy	-3062
▁histor	-3063
▁plants	-3064
▁meet	-3065
▁Using	-3066
▁matrix	-3067
▁implications	-3068
▁Te	-3069
▁directly	-3070
^(3	-3071
mpt	-3072
▁Alice	-3073
▁sphere	-3074
press	-3075
▁gamma	-3076
rate	-3077
text	-3078
warz	-3079
▁liqu	-3080
▁supp	-3081
▁infin	-3082
unction	-3083
Here	-3084
▁alpha	-3085
schild	-3086
▁stories	-3087
▁considered	-3088
oules	-3089
▁func	-3090
▁American	-3091
iddle	-3092
▁barrier	-3093
oration	-3094
▁drop	-3095
▁felt	-3096
▁helps	-3097
▁later	-3098
▁links	-3099
▁ability	-3100
▁identify	-3101
▁All	-3102
▁mil	-3103
▁serv	-3104
idden	-3105
▁description	-3106
▁optim	-3107
▁lot	-3108
▁display	-3109
▁straight	-3110
▁providing	-3111
mbol	-3112
▁ver	-3113
▁reduced	-3114
warzschild	-3115
▁aut	-3116
▁cyl	-3117
▁conduct	-3118
▁rh	-3119
error	-3120
ES	-3121
fmt	-3122
▁Ah	-3123
orted	-3124
▁note	-3125
▁costs	-3126
▁prevent	-3127
▁Me	-3128
▁enth	-3129
product	-3130
▁Che	-3131
▁mph	-3132
▁whis	-3133
▁command	-3134
ilt	-3135
ixt	-3136
▁net	-3137
▁Coll	-3138
▁works	-3139
▁negative	-3140
▁10.	-3141
▁himself	-3142
▁traveling	-3143
▁chem	-3144
▁hadron	-3145
▁playing	-3146
^(-	-3147
▁tun	-3148
▁neutrino	-3149
▁fig	-3150
ison	-3151
▁vib	-3152
▁writing	-3153
▁Go	-3154
▁Inst	-3155
uly	-3156
▁tools	-3157
▁station	-3158
";	-3159
fact	-3160
▁ing	-3161
▁front	-3162
▁metric	-3163
aling	-3164
ising	-3165
▁stress	-3166
▁application	-3167
▁below	-3168
▁placed	-3169
▁throughout	-3170
▁Schwarzschild	-3171
▁famous	-3172
▁breath	-3173
anging	-3174
▁mixing	-3175
▁origin	-3176
▁Quantum	-3177
▁running	-3178
▁Lore	-3179
▁difficult	-3180
ised	-3181
▁kil	-3182
▁longer	-3183
swer	-3184
▁orbit	-3185
▁emer	-3186
▁laugh	-3187
▁compared	-3188
De	-3189
];	-3190
▁Sim	-3191
▁activity	-3192
ype	-3193
^(3/2)	-3194
▁likely	-3195
▁requires	-3196
ured	-3197
vern	-3198
iting	-3199
▁dogs	-3200
▁echo	-3201
▁moles	-3202
▁woman	-3203
▁Spe	-3204
▁iss	-3205
▁gain	-3206
▁soci	-3207
▁experienced	-3208
There	-3209
entle	-3210
▁activ	-3211
▁~	-3212
athe	-3213
▁reve	-3214
▁tank	-3215
▁plate	-3216
▁fru	-3217
▁indu	-3218
▁energ	-3219
▁plane	-3220
▁analysis	-3221
ED	-3222
▁ln	-3223
▁dyn	-3224
▁science	-3225
▁performance	-3226
do	-3227
▁States	-3228
▁90	-3229
▁dreams	-3230
ging	-3231
▁Ass	-3232
▁extra	-3233
▁remaining	-3234
▁glow	-3235
▁viscosity	-3236
▁fine	-3237
▁Hz	-3238
▁mach	-3239
ession	-3240
▁third	-3241
▁insights	-3242
▁Har	-3243
▁moon	-3244
ography	-3245
▁feeling	-3246
1:	-3247
vin	-3248
▁reduce	-3249
▁instead	-3250
▁course	-3251
▁General	-3252
▁http	-3253
▁segment	-3254
cious	-3255
▁benef	-3256
let	-3257
back	-3258
active	-3259
Can	-3260
ades	-3261
▁dia	-3262
▁Tw	-3263
▁circular	-3264
step	-3265
return	-3266
▁→	-3267
your	-3268
▁flavor	-3269
▁symbol	-3270
-235	-3271
▁(2.	-3272
espite	-3273
▁necessary	-3274
ios	-3275
list	-3276
most	-3277
▁0.05	-3278
▁tall	-3279
inding	-3280
▁α	-3281
odes	-3282
▁games	-3283
point	-3284
▁Ro	-3285
▁cut	-3286
eader	-3287
▁Java	-3288
64	-3289
known	-3290
▁shape	-3291
▁whole	-3292
▁larger	-3293
▁collisions	-3294
▁coil	-3295
▁node	-3296
agraph	-3297
uation	-3298
▁wants	-3299
.”	-3300
3,	-3301
▁Sol	-3302
▁rays	-3303
28	-3304
▁Su	-3305
where	-3306
▁myster	-3307
▁communication	-3308
MB	-3309
af	-3310
ably	-3311
▁liquid	-3312
▁aberr	-3313
▁Cons	-3314
▁taken	-3315
rel	-3316
▁protect	-3317
▁uranium	-3318
▁features	-3319
▁container	-3320
31	-3321
▁exh	-3322
▁forward	-3323
▁overall	-3324
▁gen	-3325
▁Just	-3326
▁film	-3327
29	-3328
▁foot	-3329
▁weather	-3330
])	-3331
▁asked	-3332
▁meaning	-3333
▁seconds	-3334
outh	-3335
▁myself	-3336
▁API	-3337
ermine	-3338
▁dimens	-3339
())	-3340
uum	-3341
▁fac	-3342
▁ampl	-3343
▁compos	-3344
▁Despite	-3345
▁17	-3346
▁title	-3347
ruction	-3348
▁country	-3349
▁web	-3350
pportun	-3351
▁collect	-3352
▁finding	-3353
▁location	-3354
ope	-3355
▁opp	-3356
▁cosmological	-3357
sy	-3358
oin	-3359
rain	-3360
index	-3361
scill	-3362
▁photons	-3363
fl	-3364
urt	-3365
▁\	-3366
opes	-3367
▁easy	-3368
▁morning	-3369
▁passing	-3370
ixture	-3371
▁doc	-3372
▁singular	-3373
▁violation	-3374
If	-3375
▁zero	-3376
▁carrying	-3377
▁Acc	-3378
hers	-3379
orage	-3380
35	-3381
▁(8	-3382
weak	-3383
▁Rem	-3384
▁exam	-3385
▁rain	-3386
rum	-3387
▁fail	-3388
▁wood	-3389
▁choice	-3390
itionally	-3391
▁patterns	-3392
90	-3393
sql	-3394
orth	-3395
▁follows	-3396
sive	-3397
js	-3398
load	-3399
▁Don	-3400
".	-3401
che	-3402
▁la	-3403
▁movie	-3404
▁param	-3405
▁comfort	-3406
▁separation	-3407
bon	-3408
▁fring	-3409
▁section	-3410
col	-3411
otes	-3412
▁Large	-3413
▁piece	-3414
▁10^(-6)	-3415
▁β	-3416
▁bud	-3417
▁soon	-3418
▁aberration	-3419
net	-3420
▁leave	-3421
▁looked	-3422
▁mother	-3423
▁designed	-3424
▁hous	-3425
▁item	-3426
▁rout	-3427
▁oscill	-3428
▁CP	-3429
▁models	-3430
▁passed	-3431
/(	-3432
▁kn	-3433
enoid	-3434
▁doing	-3435
▁throw	-3436
▁medium	-3437
▁learning	-3438
▁opportun	-3439
rage	-3440
▁lepton	-3441
bed	-3442
ache	-3443
▁mathe	-3444
▁earth	-3445
▁themselves	-3446
▁offer	-3447
▁reson	-3448
sec	-3449
▁2,	-3450
▁atmosp	-3451
▁paragraph	-3452
▁14	-3453
ivil	-3454
izes	-3455
ropy	-3456
anger	-3457
▁ocean	-3458
▁exactly	-3459
▁setting	-3460
▁Every	-3461
gr	-3462
ps	-3463
▁hidden	-3464
▁cav	-3465
▁clim	-3466
▁passion	-3467
ung	-3468
asks	-3469
ites	-3470
▁solenoid	-3471
ebr	-3472
▁vast	-3473
▁major	-3474
▁client	-3475
▁Are	-3476
ube	-3477
▁Fe	-3478
▁voice	-3479
▁explan	-3480
▁wonder	-3481
▁potentially	-3482
▁flat	-3483
include	-3484
▁creatures	-3485
▁mm	-3486
▁causing	-3487
▁roll	-3488
▁drink	-3489
sp	-3490
amb	-3491
▁Js	-3492
user	-3493
plied	-3494
▁allowing	-3495
ius	-3496
reci	-3497
▁ion	-3498
▁told	-3499
':	-3500
37	-3501
▁.	-3502
3.6	-3503
▁mole	-3504
▁tast	-3505
▁frame	-3506
▁fresh	-3507
▁vacuum	-3508
▁ν	-3509
▁integral	-3510
▁reality	-3511
▁discovered	-3512
Id	-3513
wh	-3514
Int	-3515
▁sto	-3516
appro	-3517
ister	-3518
▁perspect	-3519
▁45	-3520
▁pu	-3521
ands	-3522
▁fing	-3523
▁tens	-3524
▁wild	-3525
▁structures	-3526
▁magical	-3527
cm	-3528
▁Oh	-3529
vide	-3530
▁safe	-3531
▁virt	-3532
▁conclusion	-3533
▁Where	-3534
▁names	-3535
▁address	-3536
ny	-3537
New	-3538
iety	-3539
▁mis	-3540
▁ready	-3541
▁interference	-3542
▁motion	-3543
aught	-3544
▁round	-3545
▁thickness	-3546
Hz	-3547
▁rent	-3548
▁physic	-3549
lock	-3550
▁attack	-3551
▁written	-3552
▁advanced	-3553
.[	-3554
cs	-3555
▁150	-3556
▁sust	-3557
ply	-3558
▁boy	-3559
▁fluctu	-3560
▁implement	-3561
▁electroweak	-3562
amin	-3563
esla	-3564
rench	-3565
▁party	-3566
▁shell	-3567
▁gentle	-3568
▁obtain	-3569
▁dear	-3570
angular	-3571
▁format	-3572
▁population	-3573
://	-3574
amic	-3575
▁King	-3576
ID	-3577
Sav	-3578
nel	-3579
pre	-3580
▁peace	-3581
odyn	-3582
▁fear	-3583
▁transport	-3584
▁Answer	-3585
aly	-3586
▁compress	-3587
▁120	-3588
▁eye	-3589
▁db	-3590
ager	-3591
▁imm	-3592
▁astron	-3593
▁smaller	-3594
▁Additionally	-3595
vant	-3596
▁involved	-3597
▁Determine	-3598
umn	-3599
unt	-3600
▁3:	-3601
alse	-3602
ying	-3603
▁efficient	-3604
▁radioactive	-3605
cout	-3606
uro	-3607
tent	-3608
arser	-3609
▁novel	-3610
▁article	-3611
▁library	-3612
▁respectively	-3613
▁Red	-3614
const	-3615
▁Biot	-3616
▁rare	-3617
▁ħ	-3618
This	-3619
▁wis	-3620
iment	-3621
▁save	-3622
▁Mon	-3623
▁Sun	-3624
▁scen	-3625
Savart	-3626
▁happy	-3627
▁wanted	-3628
▁experiences	-3629
status	-3630
aze	-3631
▁Ob	-3632
▁mel	-3633
▁shad	-3634
▁species	-3635
▁Relativity	-3636
▁qubit	-3637
▁Collider	-3638
UT	-3639
▁clear	-3640
▁plays	-3641
▁influence	-3642
▁bi	-3643
▁mixture	-3644
▁theories	-3645
Enter	-3646
▁skills	-3647
▁describe	-3648
▁internal	-3649
▁mountain	-3650
81	-3651
req	-3652
▁dam	-3653
GM	-3654
^-	-3655
▁Br	-3656
▁Pe	-3657
▁adventure	-3658
uted	-3659
▁base	-3660
▁myst	-3661
▁spirit	-3662
▁exch	-3663
▁fish	-3664
▁birth	-3665
▁fraction	-3666
9)	-3667
▁complete	-3668
▁generate	-3669
Pa	-3670
▁Had	-3671
▁Town	-3672
▁father	-3673
▁greater	-3674
▁similar	-3675
▁building	-3676
▁previous	-3677
▁particularly	-3678
QL	-3679
fo	-3680
lue	-3681
▁abs	-3682
itect	-3683
▁speak	-3684
▁aspect	-3685
▁strateg	-3686
▁fluctuations	-3687
▁concentration	-3688
cer	-3689
▁secret	-3690
▁Chr	-3691
▁World	-3692
▁incidence	-3693
▁parameters	-3694
ek	-3695
opy	-3696
illed	-3697
2:	-3698
ND	-3699
ntz	-3700
▁ble	-3701
iform	-3702
▁edge	-3703
length	-3704
▁scale	-3705
▁growth	-3706
▁gives	-3707
rant	-3708
value	-3709
▁meas	-3710
▁collision	-3711
▁combination	-3712
▁Ke	-3713
▁appreci	-3714
▁galaxies	-3715
70	-3716
mon	-3717
▁York	-3718
▁ingred	-3719
▁Lorentz	-3720
602	-3721
▁clock	-3722
▁seems	-3723
chant	-3724
▁born	-3725
2(	-3726
▁gall	-3727
▁treat	-3728
[]	-3729
gar	-3730
rew	-3731
▁months	-3732
▁subject	-3733
Ar	-3734
por	-3735
▁Out	-3736
iling	-3737
▁Will	-3738
▁fasc	-3739
▁areas	-3740
▁exerc	-3741
▁branching	-3742
▁acceleration	-3743
arg	-3744
left	-3745
▁Set	-3746
Print	-3747
▁Once	-3748
▁paper	-3749
▁leaving	-3750
▁regular	-3751
22	-3752
SON	-3753
▁pet	-3754
ament	-3755
▁onto	-3756
▁fight	-3757
▁whether	-3758
▁coupling	-3759
eds	-3760
izz	-3761
year	-3762
▁0.4	-3763
▁vers	-3764
▁valid	-3765
▁turned	-3766
▁studying	-3767
ggs	-3768
▁rad	-3769
▁Reyn	-3770
▁giving	-3771
▁played	-3772
tr	-3773
▁din	-3774
▁includes	-3775
pid	-3776
▁cover	-3777
▁blood	-3778
▁caused	-3779
▁celebr	-3780
▁completely	-3781
▁elementary	-3782
bu	-3783
ighb	-3784
▁circ	-3785
▁signal	-3786
▁Big	-3787
uable	-3788
▁late	-3789
▁skin	-3790
mmetric	-3791
▁acting	-3792
approximately	-3793
▁Our	-3794
▁bur	-3795
▁spher	-3796
▁passeng	-3797
ae	-3798
hood	-3799
erson	-3800
▁recent	-3801
▁quickly	-3802
▁usually	-3803
aby	-3804
▁media	-3805
▁install	-3806
▁Reynolds	-3807
▁hear	-3808
lit	-3809
itor	-3810
izer	-3811
▁girl	-3812
ometers	-3813
abilities	-3814
▁lat	-3815
aging	-3816
▁stage	-3817
▁houses	-3818
▁finally	-3819
▁chemical	-3820
▁rates	-3821
▁galaxy	-3822
▁powerful	-3823
▁Ge	-3824
iced	-3825
▁wit	-3826
▁distant	-3827
({	-3828
▁diag	-3829
pare	-3830
count	-3831
▁null	-3832
cially	-3833
▁twice	-3834
▁dra	-3835
igate	-3836
pload	-3837
▁shap	-3838
▁detector	-3839
▁nav	-3840
▁Bell	-3841
▁profit	-3842
▁central	-3843
▁assuming	-3844
▁contains	-3845
▁energies	-3846
▁Hall	-3847
▁accom	-3848
▁charm	-3849
▁profound	-3850
)2	-3851
▁van	-3852
▁10^6	-3853
▁bask	-3854
▁seemed	-3855
▁operations	-3856
▁significantly	-3857
xy	-3858
enge	-3859
ocolate	-3860
▁French	-3861
▁extrem	-3862
▁flowers	-3863
▁combined	-3864
rot	-3865
iate	-3866
▁(1/2)	-3867
▁risk	-3868
▁appear	-3869
▁Bl	-3870
▁leg	-3871
omic	-3872
anner	-3873
ounds	-3874
▁stri	-3875
▁season	-3876
▁decided	-3877
lt	-3878
▁educ	-3879
▁lies	-3880
▁tow	-3881
scale	-3882
▁functions	-3883
Who	-3884
▁Sub	-3885
OT	-3886
▁@	-3887
une	-3888
▁operation	-3889
ml	-3890
▁joy	-3891
▁almost	-3892
di	-3893
weets	-3894
▁primary	-3895
comes	-3896
▁slits	-3897
▁represents	-3898
anges	-3899
arily	-3900
▁Well	-3901
▁community	-3902
▁inflation	-3903
▁ut	-3904
▁mess	-3905
▁task	-3906
97	-3907
inct	-3908
▁spread	-3909
▁Provide	-3910
▁detected	-3911
▁attention	-3912
▁war	-3913
▁places	-3914
▁simply	-3915
▁restaur	-3916
▁27	-3917
▁fast	-3918
▁0)	-3919
▁English	-3920
▁refraction	-3921
We	-3922
▁date	-3923
▁resulting	-3924
▁uncertainty	-3925
05	-3926
ners	-3927
rical	-3928
▁brain	-3929
▁walls	-3930
▁govern	-3931
RU	-3932
▁sav	-3933
▁tau	-3934
▁es	-3935
▁fr	-3936
▁death	-3937
▁please	-3938
▁century	-3939
▁explanation	-3940
▁civil	-3941
▁adding	-3942
,;	-3943
;,;	-3944
urity	-3945
▁spent	-3946
▁uniform	-3947
▁Ed	-3948
▁inches	-3949
▁password	-3950
▁rectangular	-3951
65	-3952
▁adj	-3953
▁burn	-3954
▁indeed	-3955
▁intric	-3956
▁predicted	-3957
());	-3958
zing	-3959
▁QCD	-3960
▁distances	-3961
</	-3962
200	-3963
fine	-3964
life	-3965
orrow	-3966
▁paint	-3967
▁gluons	-3968
▁traditional	-3969
oe	-3970
▁pul	-3971
elete	-3972
▁wasn	-3973
▁beneath	-3974
▁proport	-3975
nded	-3976
atory	-3977
ternal	-3978
▁indust	-3979
▁thermal	-3980
▁eventually	-3981
▁ful	-3982
▁increased	-3983
roll	-3984
odies	-3985
▁Hadron	-3986
▁confir	-3987
▁consistent	-3988
ault	-3989
▁vill	-3990
▁layer	-3991
▁measuring	-3992
haps	-3993
placed	-3994
▁heard	-3995
password	-3996
▁increasing	-3997
eper	-3998
▁Over	-3999
▁sand	-4000
estion	-4001
▁Product	-4002
▁lensing	-4003
▁customer	-4004
omb	-4005
▁400	-4006
▁delete	-4007
.)	-4008
ky	-4009
ests	-4010
▁query	-4011
▁shared	-4012
▁detailed	-4013
▁Get	-4014
icles	-4015
▁cats	-4016
▁parts	-4017
▁stret	-4018
▁returns	-4019
'.	-4020
▁ep	-4021
▁tea	-4022
▁prop	-4023
uments	-4024
▁percentage	-4025
▁scientific	-4026
RO	-4027
rets	-4028
▁host	-4029
▁causes	-4030
▁digital	-4031
der	-4032
ili	-4033
ource	-4034
though	-4035
▁couldn	-4036
Se	-4037
ken	-4038
▁Up	-4039
▁fit	-4040
▁truly	-4041
odynamics	-4042
((	-4043
▁bad	-4044
▁hyp	-4045
▁mid	-4046
ancing	-4047
▁invent	-4048
oo	-4049
▁URL	-4050
▁alone	-4051
▁purch	-4052
▁drawing	-4053
uter	-4054
ubble	-4055
▁held	-4056
▁coming	-4057
▁humans	-4058
▁components	-4059
aff	-4060
▁gets	-4061
▁spark	-4062
▁condition	-4063
kg	-4064
mph	-4065
allel	-4066
title	-4067
▁weeks	-4068
▁virtual	-4069
endl	-4070
▁algorithm	-4071
iring	-4072
▁Jack	-4073
▁Mass	-4074
estial	-4075
▁women	-4076
▁entanglement	-4077
No	-4078
▁INT	-4079
▁demon	-4080
▁deb	-4081
▁fair	-4082
Please	-4083
▁await	-4084
▁10^-11	-4085
▁historical	-4086
AL	-4087
['	-4088
main	-4089
▁0.3	-4090
▁cra	-4091
▁iron	-4092
▁reci	-4093
▁10^(-3	-4094
word	-4095
Develop	-4096
▁review	-4097
▁reading	-4098
▁release	-4099
▁valuable	-4100
idge	-4101
▁1.6	-4102
▁wall	-4103
ccount	-4104
▁strings	-4105
▁lifetime	-4106
▁depending	-4107
▁Pre	-4108
▁10^-19	-4109
▁region	-4110
▁(20	-4111
ecute	-4112
▁eggs	-4113
▁audience	-4114
▁corresponding	-4115
eted	-4116
race	-4117
▁aim	-4118
▁vide	-4119
▁cheese	-4120
▁compare	-4121
▁received	-4122
▁detectors	-4123
▁challenging	-4124
▁perspective	-4125
▁cam	-4126
▁nut	-4127
image	-4128
losed	-4129
othing	-4130
▁incor	-4131
▁Distance	-4132
▁challenge	-4133
95	-4134
Qu	-4135
▁indic	-4136
▁qubits	-4137
▁outcomes	-4138
^-1	-4139
down	-4140
▁desp	-4141
▁wide	-4142
,000,000	-4143
▁architect	-4144
fra	-4145
write	-4146
▁chick	-4147
▁transform	-4148
▁Write	-4149
connect	-4150
▁remove	-4151
inations	-4152
▁developed	-4153
▁extremely	-4154
▁generated	-4155
▁individuals	-4156
Ser	-4157
▁CMB	-4158
▁hom	-4159
ellig	-4160
▁micro	-4161
▁record	-4162
hel	-4163
iber	-4164
▁ones	-4165
▁suit	-4166
▁rapid	-4167
▁select	-4168
▁carries	-4169
arp	-4170
▁wat	-4171
Product	-4172
▁proposed	-4173
▁celestial	-4174
ht	-4175
▁Gu	-4176
▁App	-4177
▁king	-4178
▁innov	-4179
▁carbon	-4180
▁quality	-4181
▁amplitude	-4182
Ev	-4183
▁dx	-4184
icular	-4185
▁summer	-4186
▁sources	-4187
▁entangled	-4188
dx	-4189
ancy	-4190
view	-4191
▁args	-4192
▁stack	-4193
▁mathemat	-4194
rast	-4195
▁sus	-4196
▁suff	-4197
▁starting	-4198
apan	-4199
rest	-4200
xtract	-4201
▁surpr	-4202
▁butter	-4203
▁channel	-4204
▁estimate	-4205
19)	-4206
▁__	-4207
▁glasses	-4208
/3)	-4209
etch	-4210
▁enh	-4211
▁six	-4212
▁kids	-4213
▁basket	-4214
▁members	-4215
idth	-4216
▁basic	-4217
▁closed	-4218
▁involve	-4219
▁poll	-4220
Reader	-4221
▁avoid	-4222
inating	-4223
▁entropy	-4224
▁flowing	-4225
674	-4226
Path	-4227
ibly	-4228
ulate	-4229
▁legs	-4230
▁realm	-4231
▁10^-34	-4232
▁strugg	-4233
▁parents	-4234
▁assum	-4235
▁Joules	-4236
▁largest	-4237
1]	-4238
3.15	-4239
▁card	-4240
▁astro	-4241
▁recom	-4242
▁integer	-4243
▁options	-4244
▁activities	-4245
oken	-4246
direct	-4247
▁worth	-4248
▁sounds	-4249
▁addition	-4250
▁conversation	-4251
▁oil	-4252
▁says	-4253
▁surv	-4254
▁shock	-4255
▁considering	-4256
▁singularity	-4257
21	-4258
But	-4259
Set	-4260
▁binary	-4261
▁Not	-4262
itute	-4263
▁turb	-4264
pecially	-4265
▁differences	-4266
alue	-4267
osing	-4268
▁10−7	-4269
▁rock	-4270
▁touch	-4271
^(3/2))	-4272
▁CO	-4273
olve	-4274
▁ded	-4275
ework	-4276
▁webs	-4277
ensive	-4278
position	-4279
▁respond	-4280
▁13	-4281
▁Its	-4282
xygen	-4283
▁dise	-4284
▁closer	-4285
▁statement	-4286
SE	-4287
pri	-4288
▁Dav	-4289
▁Who	-4290
local	-4291
▁river	-4292
▁subtract	-4293
EG	-4294
▁brown	-4295
▁leads	-4296
▁plain	-4297
▁enthal	-4298
riend	-4299
▁guide	-4300
uterium	-4301
▁budget	-4302
▁memory	-4303
▁online	-4304
▁profess	-4305
▁cylinder	-4306
ded	-4307
iab	-4308
uting	-4309
▁images	-4310
▁customers	-4311
dl	-4312
oun	-4313
▁Keep	-4314
▁goes	-4315
▁scene	-4316
▁veget	-4317
▁culture	-4318
▁external	-4319
▁AI	-4320
▁ple	-4321
▁tor	-4322
▁Christ	-4323
▁details	-4324
▁reference	-4325
▁calculations	-4326
final	-4327
Client	-4328
aker	-4329
▁James	-4330
ymmetry	-4331
▁progress	-4332
▁thoughts	-4333
pendicular	-4334
ername	-4335
▁board	-4336
▁precise	-4337
▁σ	-4338
▁Name	-4339
▁expand	-4340
▁solutions	-4341
used	-4342
▁pan	-4343
itter	-4344
▁painting	-4345
attle	-4346
▁Part	-4347
▁marbles	-4348
pal	-4349
▁Ampe	-4350
▁cryst	-4351
▁sight	-4352
▁escape	-4353
oll	-4354
)^2)	-4355
size	-4356
▁brief	-4357
▁coord	-4358
▁cream	-4359
▁humor	-4360
▁mention	-4361
▁Cur	-4362
▁War	-4363
▁added	-4364
▁ingredients	-4365
iders	-4366
riter	-4367
▁tour	-4368
▁built	-4369
▁maintaining	-4370
na	-4371
▁believed	-4372
▁camp	-4373
▁narr	-4374
▁neighb	-4375
▁starts	-4376
▁discover	-4377
DB	-4378
▁...	-4379
istics	-4380
▁deeper	-4381
bre	-4382
books	-4383
▁birds	-4384
▁quiet	-4385
current	-4386
▁master	-4387
▁hadrons	-4388
▁boundary	-4389
▁plat	-4390
▁metal	-4391
▁brought	-4392
▁picking	-4393
▁demonstr	-4394
,”	-4395
6,	-4396
umm	-4397
ians	-4398
▁glob	-4399
iosity	-4400
▁sports	-4401
AM	-4402
▁Co	-4403
▁Stud	-4404
▁apart	-4405
▁dress	-4406
▁supers	-4407
LHC	-4408
vas	-4409
▁Japan	-4410
▁girls	-4411
▁chance	-4412
▁observations	-4413
▁US	-4414
▁12.	-4415
▁Pen	-4416
▁pal	-4417
▁son	-4418
▁tim	-4419
▁Also	-4420
Evidence	-4421
('/	-4422
pret	-4423
▁rod	-4424
▁pages	-4425
▁incred	-4426
▁computer	-4427
▁problems	-4428
].	-4429
ulations	-4430
▁particip	-4431
case	-4432
▁(9.	-4433
▁Haw	-4434
▁LHC	-4435
▁gaze	-4436
▁loved	-4437
▁actual	-4438
▁mathematical	-4439
3/	-4440
osit	-4441
▁ray	-4442
▁Gree	-4443
▁sequ	-4444
served	-4445
▁mental	-4446
0:	-4447
hand	-4448
▁Yet	-4449
Search	-4450
ifying	-4451
▁chain	-4452
▁crypt	-4453
▁empty	-4454
▁surrounding	-4455
▁–	-4456
Com	-4457
aro	-4458
wise	-4459
▁Brit	-4460
▁pull	-4461
▁truth	-4462
▁finds	-4463
initial	-4464
vitational	-4465
▁spherical	-4466
Hand	-4467
▁fle	-4468
▁ship	-4469
▁Include	-4470
▁secrets	-4471
▁importance	-4472
ald	-4473
▁Ampere	-4474
▁variable	-4475
▁currently	-4476
aser	-4477
cast	-4478
▁600	-4479
▁fem	-4480
▁upd	-4481
▁emotions	-4482
▁especially	-4483
▁transmission	-4484
search	-4485
▁Exper	-4486
▁damage	-4487
▁(!	-4488
inked	-4489
▁multi	-4490
▁perpendicular	-4491
▁rich	-4492
▁delight	-4493
▁traveled	-4494
▁dimensions	-4495
4,	-4496
▁pict	-4497
▁sold	-4498
▁tick	-4499
rowave	-4500
▁floor	-4501
▁market	-4502
▁analyze	-4503
ael	-4504
▁Char	-4505
static	-4506
▁hypot	-4507
▁exchange	-4508
().	-4509
(1.	-4510
oved	-4511
aming	-4512
hesis	-4513
▁directory	-4514
/∂	-4515
▁Ant	-4516
▁hon	-4517
imeter	-4518
▁10^(-1	-4519
▁update	-4520
▁actually	-4521
▁instance	-4522
▁hyper	-4523
▁shall	-4524
▁encount	-4525
▁appropri	-4526
▁measures	-4527
ira	-4528
▁Sam	-4529
▁dry	-4530
▁shows	-4531
▁issues	-4532
▁enchant	-4533
▁healthy	-4534
itc	-4535
bing	-4536
▁sett	-4537
▁tone	-4538
▁flight	-4539
▁recogn	-4540
▁technique	-4541
car	-4542
▁Sm	-4543
▁Kel	-4544
▁unf	-4545
▁parad	-4546
▁track	-4547
▁desired	-4548
▁patient	-4549
▁3)	-4550
▁(0.8	-4551
elcome	-4552
▁forms	-4553
▁stable	-4554
▁wisdom	-4555
▁binding	-4556
▁benefits	-4557
▁enthalpy	-4558
▁intellig	-4559
▁reactors	-4560
▁symmetry	-4561
▁encou	-4562
▁lived	-4563
▁phone	-4564
▁sheet	-4565
arks	-4566
root	-4567
board	-4568
▁Great	-4569
▁geomet	-4570
▁window	-4571
ana	-4572
ules	-4573
▁psy	-4574
▁ult	-4575
plies	-4576
▁Bang	-4577
▁lose	-4578
▁tiny	-4579
▁Solving	-4580
▁machine	-4581
▁replace	-4582
▁polarization	-4583
udd	-4584
ync	-4585
▁->	-4586
Requ	-4587
▁Par	-4588
▁oppos	-4589
▁normal	-4590
▁turbul	-4591
▁fro	-4592
▁2000	-4593
▁Pres	-4594
▁estim	-4595
▁10^(-5)	-4596
ara	-4597
based	-4598
illing	-4599
▁figure	-4600
▁splitting	-4601
An	-4602
Ind	-4603
acter	-4604
▁Thank	-4605
▁inner	-4606
▁oxygen	-4607
▁classic	-4608
mag	-4609
ops	-4610
▁buy	-4611
▁hit	-4612
▁bull	-4613
▁vict	-4614
▁fingers	-4615
▁vibrant	-4616
▁Res	-4617
▁adult	-4618
▁inequ	-4619
▁curiosity	-4620
▁polit	-4621
▁Initial	-4622
Exception	-4623
oir	-4624
url	-4625
▁Tom	-4626
▁adm	-4627
▁Cost	-4628
▁satis	-4629
▁anyone	-4630
▁regard	-4631
▁physicists	-4632
▁τ	-4633
▁||	-4634
▁allowed	-4635
▁storage	-4636
▁chocolate	-4637
gy	-4638
314	-4639
Line	-4640
▁pri	-4641
▁High	-4642
▁Tesla	-4643
▁intricate	-4644
▁q	-4645
enly	-4646
orus	-4647
arize	-4648
▁smile	-4649
▁purpose	-4650
escription	-4651
ooth	-4652
▁wear	-4653
▁annual	-4654
▁scenar	-4655
▁emission	-4656
▁Bu	-4657
send	-4658
▁files	-4659
uration	-4660
▁security	-4661
▁meson	-4662
▁concern	-4663
▁conserv	-4664
▁waiting	-4665
▁initially	-4666
valid	-4667
▁gave	-4668
Request	-4669
▁moments	-4670
▁stability	-4671
more	-4672
otic	-4673
▁Euro	-4674
ashing	-4675
eph	-4676
requ	-4677
▁Reg	-4678
asons	-4679
bered	-4680
▁cards	-4681
▁relevant	-4682
▁scientists	-4683
asy	-4684
can	-4685
▁bow	-4686
▁affects	-4687
▁overcome	-4688
▁framework	-4689
▁successful	-4690
▁exploration	-4691
By	-4692
▁ban	-4693
▁animal	-4694
▁passes	-4695
▁recomme	-4696
▁According	-4697
RE	-4698
ww	-4699
▁∫(	-4700
abit	-4701
▁vary	-4702
ecause	-4703
▁landsc	-4704
aws	-4705
▁Ham	-4706
▁exercise	-4707
/3	-4708
_0	-4709
rap	-4710
▁Ab	-4711
▁cell	-4712
idents	-4713
▁significance	-4714
off	-4715
oyant	-4716
▁pump	-4717
▁conve	-4718
▁immed	-4719
▁10^-27	-4720
▁offers	-4721
▁forever	-4722
▁approxim	-4723
▁thinking	-4724
▁effective	-4725
As	-4726
fast	-4727
hift	-4728
▁pen	-4729
▁filter	-4730
▁herself	-4731
▁extracted	-4732
8)	-4733
iam	-4734
▁cub	-4735
verse	-4736
▁rise	-4737
▁soul	-4738
▁score	-4739
▁Europe	-4740
▁candid	-4741
▁forget	-4742
▁counter	-4743
▁appropriate	-4744
989	-4745
hest	-4746
part	-4747
▁carry	-4748
apse	-4749
ares	-4750
ongo	-4751
▁0.9	-4752
eless	-4753
▁mill	-4754
▁consequ	-4755
▁strange	-4756
▁separate	-4757
And	-4758
cos	-4759
oms	-4760
▁Sw	-4761
▁Expl	-4762
ady	-4763
icy	-4764
▁boys	-4765
▁road	-4766
▁rhyth	-4767
message	-4768
▁career	-4769
▁Another	-4770
["	-4771
▁3,	-4772
icial	-4773
pared	-4774
▁grad	-4775
▁rule	-4776
▁Albert	-4777
▁yellow	-4778
▁employee	-4779
Re	-4780
▁bond	-4781
▁Start	-4782
▁Kelvin	-4783
▁literature	-4784
LL	-4785
▁1/2	-4786
▁goal	-4787
▁taste	-4788
▁cavity	-4789
rams	-4790
▁weap	-4791
uminum	-4792
▁Remember	-4793
idst	-4794
▁lift	-4795
▁grams	-4796
▁danger	-4797
▁reveal	-4798
▁America	-4799
▁unknown	-4800
▁deuterium	-4801
ux	-4802
omy	-4803
▁sche	-4804
esponse	-4805
▁reserv	-4806
▁interpret	-4807
aim	-4808
encies	-4809
▁service	-4810
aint	-4811
icks	-4812
▁$10	-4813
▁pow	-4814
▁reds	-4815
▁tale	-4816
uclear	-4817
▁stood	-4818
▁office	-4819
▁heavier	-4820
▁training	-4821
AB	-4822
▁)	-4823
▁estab	-4824
▁spend	-4825
▁insert	-4826
▁player	-4827
▁continued	-4828
2))	-4829
Book	-4830
Data	-4831
rich	-4832
▁len	-4833
query	-4834
▁exte	-4835
▁mere	-4836
stream	-4837
▁shear	-4838
attered	-4839
tenance	-4840
TE	-4841
[0	-4842
▁Ap	-4843
▁-0.	-4844
▁JSON	-4845
itchen	-4846
▁serve	-4847
▁copper	-4848
▁passengers	-4849
cel	-4850
ille	-4851
▁muon	-4852
icious	-4853
▁yield	-4854
ifically	-4855
▁extreme	-4856
▁phenomena	-4857
▁substance	-4858
▁kilometers	-4859
▁opportunity	-4860
abor	-4861
▁Jane	-4862
▁feed	-4863
▁notes	-4864
▁corner	-4865
▁tunnel	-4866
▁evening	-4867
▁mystery	-4868
▁document	-4869
▁operator	-4870
hern	-4871
▁cred	-4872
▁storm	-4873
▁platform	-4874
dr	-4875
▁((	-4876
▁0.01	-4877
▁craft	-4878
▁altern	-4879
▁demand	-4880
▁shadows	-4881
▁opposite	-4882
▁reflection	-4883
Your	-4884
edom	-4885
ires	-4886
okes	-4887
▁Bar	-4888
azing	-4889
ifies	-4890
▁10^(-19)	-4891
96	-4892
IG	-4893
ION	-4894
ynt	-4895
hour	-4896
▁25°	-4897
avors	-4898
client	-4899
▁artist	-4900
▁precision	-4901
▁conservation	-4902
Do	-4903
▁gather	-4904
▁society	-4905
▁op	-4906
▁250	-4907
▁Day	-4908
▁NOT	-4909
▁labor	-4910
imal	-4911
▁Mrs	-4912
▁sarc	-4913
▁apply	-4914
▁cursor	-4915
▁triangle	-4916
▁sentences	-4917
tic	-4918
▁11	-4919
over	-4920
▁intrig	-4921
▁minute	-4922
▁constants	-4923
▁continues	-4924
▁specified	-4925
▁restaurant	-4926
▁proportional	-4927
▁Gravitational	-4928
▁contributions	-4929
▁er	-4930
▁ir	-4931
....	-4932
▁sty	-4933
house	-4934
▁match	-4935
▁cities	-4936
▁Question	-4937
▁patients	-4938
RI	-4939
▁28	-4940
▁Aust	-4941
▁fully	-4942
▁faster	-4943
▁photos	-4944
▁stronger	-4945
CO	-4946
aina	-4947
close	-4948
uries	-4949
▁Geor	-4950
▁arms	-4951
▁econ	-4952
▁milk	-4953
▁news	-4954
▁fruit	-4955
▁graph	-4956
▁distinct	-4957
▁standing	-4958
▁fascinating	-4959
erman	-4960
▁spot	-4961
▁option	-4962
izations	-4963
iest	-4964
▁laws	-4965
Server	-4966
▁exhib	-4967
▁variety	-4968
36	-4969
kin	-4970
max	-4971
▁sau	-4972
▁parallel	-4973
▁polarizer	-4974
▁atmosphere	-4975
Rew	-4976
izza	-4977
▁salt	-4978
▁coordin	-4979
▁practice	-4980
▁situation	-4981
**	-4982
▁myth	-4983
Rewrite	-4984
▁retrie	-4985
Calculate	-4986
`,	-4987
ware	-4988
▁MHz	-4989
▁Cont	-4990
▁Under	-4991
▁wearing	-4992
▁incorpor	-4993
▁management	-4994
▁Inc	-4995
▁sudd	-4996
▁slowly	-4997
function	-4998
▁spectral	-4999
▁ω	-5000
azz	-5001
▁stat	-5002
▁10^30	-5003
▁explos	-5004
▁pieces	-5005
▁mission	-5006
▁neutral	-5007
▁observe	-5008
▁beginning	-5009
▁RE	-5010
▁dro	-5011
▁json	-5012
▁handle	-5013
▁uncertainties	-5014
5,	-5015
fs	-5016
gin	-5017
axis	-5018
▁(3.	-5019
▁Cla	-5020
▁Pot	-5021
▁Vol	-5022
▁ign	-5023
▁Even	-5024
▁tail	-5025
▁relax	-5026
▁tasks	-5027
▁island	-5028
ractions	-5029
▁Solution	-5030
AS	-5031
▁har	-5032
▁crow	-5033
mphony	-5034
▁adapt	-5035
▁served	-5036
▁kitchen	-5037
▁redshift	-5038
▁approaches	-5039
▁diffraction	-5040
▁cv	-5041
from	-5042
▁Why	-5043
▁ago	-5044
▁fix	-5045
▁List	-5046
▁mist	-5047
erator	-5048
▁construction	-5049
9,	-5050
▁Ma	-5051
▁send	-5052
▁trit	-5053
▁Space	-5054
▁wouldn	-5055
▁brother	-5056
▁followed	-5057
▁professional	-5058
));	-5059
When	-5060
rose	-5061
▁fly	-5062
▁via	-5063
sters	-5064
▁acqu	-5065
ashion	-5066
▁pairs	-5067
▁liters	-5068
▁isotopes	-5069
▁spacecraft	-5070
▁successfully	-5071
pes	-5072
reg	-5073
▁END	-5074
▁Area	-5075
Script	-5076
magine	-5077
▁looks	-5078
▁conver	-5079
SQL	-5080
▁Give	-5081
tonian	-5082
▁bodies	-5083
▁_	-5084
kay	-5085
init	-5086
level	-5087
▁band	-5088
result	-5089
▁wrong	-5090
osen	-5091
term	-5092
▁inh	-5093
import	-5094
▁middle	-5095
--------	-5096
▁Through	-5097
▁microwave	-5098
▁Cal	-5099
▁freedom	-5100
▁paradox	-5101
▁mysterious	-5102
^(	-5103
mc	-5104
ATE	-5105
Col	-5106
▁broad	-5107
▁colle	-5108
▁pursu	-5109
^(1	-5110
State	-5111
▁Find	-5112
▁Mich	-5113
▁fant	-5114
▁video	-5115
aughter	-5116
▁resistance	-5117
ora	-5118
illa	-5119
▁1.4	-5120
▁tried	-5121
▁contact	-5122
▁dynamic	-5123
▁tritium	-5124
▁};	-5125
find	-5126
▁(8.	-5127
▁fab	-5128
Title	-5129
olved	-5130
▁Take	-5131
▁-13.6	-5132
▁talking	-5133
▁contribute	-5134
▁composition	-5135
▁ψ	-5136
▁Mic	-5137
ources	-5138
▁outer	-5139
▁thous	-5140
▁dinner	-5141
▁possess	-5142
▁minimize	-5143
▁analyzing	-5144
▁reservoir	-5145
▁(6	-5146
▁Av	-5147
▁advance	-5148
▁accuracy	-5149
asm	-5150
lor	-5151
▁11.	-5152
▁Park	-5153
▁faces	-5154
▁nearby	-5155
▁examples	-5156
▁industry	-5157
▁+=	-5158
uing	-5159
▁sugar	-5160
▁tales	-5161
▁trust	-5162
▁Sn	-5163
▁;,;	-5164
▁Car	-5165
▁ten	-5166
▁Life	-5167
▁Mark	-5168
▁More	-5169
▁posit	-5170
ression	-5171
▁caught	-5172
▁device	-5173
▁visual	-5174
aneously	-5175
▁happened	-5176
▁emotional	-5177
Al	-5178
ye	-5179
Why	-5180
ses	-5181
▁II	-5182
draw	-5183
ishing	-5184
▁Black	-5185
▁Harry	-5186
▁solid	-5187
▁British	-5188
▁decreases	-5189
▁$2	-5190
Conn	-5191
▁nice	-5192
▁psych	-5193
▁defect	-5194
▁transmitted	-5195
mic	-5196
▁KE	-5197
uses	-5198
▁kPa	-5199
▁rob	-5200
▁plot	-5201
▁thread	-5202
▁players	-5203
▁reached	-5204
▁interesting	-5205
▁personality	-5206
ned	-5207
ouds	-5208
since	-5209
▁ring	-5210
▁bucket	-5211
bum	-5212
edy	-5213
igen	-5214
ribe	-5215
acher	-5216
▁crew	-5217
▁goals	-5218
▁rooms	-5219
execute	-5220
▁walking	-5221
▁discount	-5222
▁infinite	-5223
api	-5224
emp	-5225
ceed	-5226
▁doub	-5227
▁fate	-5228
▁false	-5229
pendent	-5230
▁collapse	-5231
alt	-5232
tes	-5233
▁</	-5234
User	-5235
anks	-5236
▁Art	-5237
ifact	-5238
ipped	-5239
▁Alex	-5240
▁baby	-5241
▁dish	-5242
▁page	-5243
▁swim	-5244
▁0.000	-5245
▁maybe	-5246
▁global	-5247
▁creates	-5248
▁investig	-5249
bar	-5250
aven	-5251
▁1.0	-5252
▁David	-5253
▁compet	-5254
▁compre	-5255
▁perhaps	-5256
▁comparing	-5257
So	-5258
2),	-5259
var	-5260
ethod	-5261
▁join	-5262
▁cases	-5263
▁lamin	-5264
▁secure	-5265
▁cultural	-5266
iation	-5267
▁raise	-5268
▁tweet	-5269
ologies	-5270
38	-5271
▁?	-5272
400	-5273
irm	-5274
▁[]	-5275
▁categ	-5276
▁spring	-5277
▁undergo	-5278
▁darkness	-5279
html	-5280
iously	-5281
ordial	-5282
▁knows	-5283
▁errors	-5284
My	-5285
pected	-5286
▁smooth	-5287
▁Because	-5288
▁creation	-5289
▁laughter	-5290
▁integrate	-5291
▁environmental	-5292
pa	-5293
▁Boh	-5294
esign	-5295
ployee	-5296
▁Stark	-5297
▁incom	-5298
▁nearly	-5299
▁upload	-5300
▁billion	-5301
▁however	-5302
▁testament	-5303
▁applications	-5304
fit	-5305
▁arm	-5306
▁claim	-5307
▁drive	-5308
▁determination	-5309
dy	-5310
ech	-5311
oday	-5312
▁era	-5313
ancial	-5314
top	-5315
oking	-5316
▁hero	-5317
▁puzz	-5318
▁sort	-5319
▁Energy	-5320
▁except	-5321
sectional	-5322
▁calculation	-5323
▁combinations	-5324
">	-5325
CH	-5326
ih	-5327
going	-5328
▁Dark	-5329
▁lack	-5330
▁During	-5331
▁adjust	-5332
▁knowing	-5333
▁workers	-5334
olf	-5335
▁Tra	-5336
ading	-5337
antic	-5338
▁joke	-5339
Writer	-5340
▁motiv	-5341
products	-5342
ymmetric	-5343
▁sentence	-5344
▁education	-5345
▁stationary	-5346
KM	-5347
nc	-5348
HER	-5349
ont	-5350
▁earl	-5351
erences	-5352
▁amidst	-5353
▁begins	-5354
▁symphony	-5355
▁separated	-5356
▁collection	-5357
▁36	-5358
rosc	-5359
acing	-5360
▁Lamb	-5361
▁None	-5362
▁cosmos	-5363
▁remind	-5364
▁Instead	-5365
▁applied	-5366
▁contrast	-5367
°)	-5368
ROM	-5369
oil	-5370
que	-5371
mass	-5372
▁Eff	-5373
enses	-5374
▁gift	-5375
AN	-5376
Oh	-5377
yd	-5378
aph	-5379
▁1;	-5380
rupt	-5381
▁Bohr	-5382
▁agre	-5383
friend	-5384
▁bread	-5385
▁monop	-5386
▁fringe	-5387
▁hearts	-5388
▁helping	-5389
▁effectively	-5390
']	-5391
▁${	-5392
rect	-5393
▁enter	-5394
▁channels	-5395
▁feelings	-5396
▁rotating	-5397
▁maintenance	-5398
(0)	-5399
rome	-5400
cover	-5401
dimens	-5402
▁easily	-5403
▁missing	-5404
▁studies	-5405
▁influenced	-5406
ifts	-5407
oding	-5408
▁Many	-5409
▁dial	-5410
Status	-5411
▁moved	-5412
Message	-5413
itrogen	-5414
▁derived	-5415
▁laminar	-5416
▁connected	-5417
ORT	-5418
▁Af	-5419
uger	-5420
▁pun	-5421
▁(0.1	-5422
▁Eliz	-5423
▁eval	-5424
▁guess	-5425
▁concave	-5426
▁covered	-5427
▁aluminum	-5428
▁relation	-5429
▁sustaina	-5430
US	-5431
2.5	-5432
▁Lu	-5433
^2))	-5434
orry	-5435
▁etc	-5436
▁yes	-5437
▁isol	-5438
▁Check	-5439
▁holds	-5440
▁golden	-5441
▁resonance	-5442
▁resources	-5443
▁government	-5444
():	-5445
Text	-5446
ingu	-5447
▁Min	-5448
▁doors	-5449
▁repul	-5450
▁groups	-5451
▁despite	-5452
zy	-5453
}")	-5454
▁4,	-5455
ilos	-5456
sqrt	-5457
▁deg	-5458
ouble	-5459
▁flows	-5460
▁rough	-5461
eration	-5462
▁(6.626	-5463
▁discre	-5464
▁salary	-5465
▁watching	-5466
"]	-5467
DE	-5468
Is	-5469
mit	-5470
▁Cent	-5471
▁FROM	-5472
▁fell	-5473
▁cycle	-5474
▁whose	-5475
▁prefer	-5476
▁property	-5477
Em	-5478
(1)	-5479
icip	-5480
ogle	-5481
▁bird	-5482
▁meal	-5483
▁National	-5484
▁entertain	-5485
appe	-5486
▁Bet	-5487
▁Med	-5488
ellar	-5489
▁Star	-5490
▁bear	-5491
▁molar	-5492
▁sharing	-5493
▁expressed	-5494
bl	-5495
mal	-5496
▁os	-5497
vest	-5498
▁0.02	-5499
▁integr	-5500
▁flavors	-5501
▁producing	-5502
▁destination	-5503
9/	-5504
)2)	-5505
▁fa	-5506
aked	-5507
▁diet	-5508
▁pool	-5509
▁thin	-5510
▁German	-5511
▁linear	-5512
dimensional	-5513
("/	-5514
mes	-5515
atur	-5516
▁Ret	-5517
▁swe	-5518
▁Last	-5519
▁moves	-5520
▁aspects	-5521
998	-5522
▁ic	-5523
post	-5524
▁ter	-5525
▁snow	-5526
iately	-5527
▁Speed	-5528
▁clouds	-5529
▁useful	-5530
▁worked	-5531
▁breaking	-5532
▁creative	-5533
▁planning	-5534
▁probabilities	-5535
Tr	-5536
100	-5537
^3)	-5538
dir	-5539
ued	-5540
olar	-5541
▁Ang	-5542
▁chrom	-5543
▁requests	-5544
▁surrounded	-5545
84	-5546
IT	-5547
using	-5548
▁blend	-5549
▁Output	-5550
localhost	-5551
▁realized	-5552
▁occurring	-5553
aunt	-5554
▁Both	-5555
▁gone	-5556
▁album	-5557
▁intel	-5558
iations	-5559
iration	-5560
▁couple	-5561
▁struct	-5562
iversity	-5563
▁Develop	-5564
▁radians	-5565
▁artifact	-5566
▁quantity	-5567
▁spectrum	-5568
32	-5569
ULL	-5570
Sure	-5571
▁Ser	-5572
▁sharp	-5573
▁smart	-5574
▁advant	-5575
▁growing	-5576
▁village	-5577
▁ensuring	-5578
▁numerous	-5579
▁generation	-5580
(`	-5581
aik	-5582
▁35	-5583
cope	-5584
lank	-5585
ragg	-5586
abeth	-5587
night	-5588
▁dust	-5589
▁sets	-5590
▁stead	-5591
▁10,000	-5592
▁angles	-5593
▁pollut	-5594
▁department	-5595
ello	-5596
▁10^(-2	-5597
▁gallons	-5598
▁geometry	-5599
▁treasure	-5600
▁substitute	-5601
';	-5602
▁70	-5603
mann	-5604
▁bul	-5605
▁shel	-5606
unning	-5607
▁giant	-5608
▁regions	-5609
Sh	-5610
▁Pri	-5611
Array	-5612
▁remark	-5613
▁stands	-5614
ominator	-5615
▁changed	-5616
▁chicken	-5617
▁stopping	-5618
▁neutrinos	-5619
Pro	-5620
nes	-5621
▁Mc	-5622
▁1.2	-5623
▁unex	-5624
▁Subst	-5625
▁apple	-5626
▁turbulent	-5627
▁appreciate	-5628
87	-5629
uel	-5630
tail	-5631
Index	-5632
▁0.25	-5633
▁Book	-5634
▁util	-5635
▁buses	-5636
▁noise	-5637
▁captiv	-5638
▁learned	-5639
▁messages	-5640
char	-5641
▁ends	-5642
▁mile	-5643
▁pret	-5644
▁cubic	-5645
▁mouth	-5646
▁France	-5647
▁layers	-5648
▁tweets	-5649
▁researc	-5650
▁suggests	-5651
▁cosmology	-5652
▁generally	-5653
▁mysteries	-5654
▁&&	-5655
▁75	-5656
▁Of	-5657
▁180	-5658
▁pig	-5659
ushed	-5660
▁Post	-5661
▁arcs	-5662
▁slit	-5663
▁wife	-5664
▁Elect	-5665
▁oranges	-5666
▁offering	-5667
.")	-5668
▁Lou	-5669
eport	-5670
▁async	-5671
Invalid	-5672
▁Observ	-5673
▁config	-5674
▁visible	-5675
▁intellect	-5676
PUT	-5677
coming	-5678
▁owner	-5679
▁pizza	-5680
▁correl	-5681
▁refers	-5682
▁divided	-5683
▁meeting	-5684
▁vaporization	-5685
3:	-5686
mod	-5687
▁Gr	-5688
EGIN	-5689
▁url	-5690
ander	-5691
ctors	-5692
▁male	-5693
▁reads	-5694
▁staff	-5695
▁serves	-5696
observed	-5697
etal	-5698
▁tan	-5699
osure	-5700
▁NULL	-5701
▁twin	-5702
▁ahead	-5703
▁feels	-5704
▁gently	-5705
▁shield	-5706
▁Elizabeth	-5707
▁estimated	-5708
▁explained	-5709
▁differential	-5710
39	-5711
def	-5712
zon	-5713
style	-5714
iables	-5715
▁liter	-5716
▁appears	-5717
▁$5	-5718
▁4:	-5719
▁Web	-5720
▁mur	-5721
▁(0.5	-5722
▁pure	-5723
▁stock	-5724
▁street	-5725
▁Replace	-5726
▁disease	-5727
▁fringes	-5728
▁revolution	-5729
He	-5730
cles	-5731
slit	-5732
▁Greek	-5733
▁Super	-5734
carrying	-5735
▁feature	-5736
▁component	-5737
▁conversion	-5738
iled	-5739
▁ali	-5740
▁unw	-5741
▁Like	-5742
▁Afric	-5743
Account	-5744
▁listen	-5745
▁report	-5746
▁leptons	-5747
▁inspired	-5748
▁immediately	-5749
▁observation	-5750
^2(	-5751
▁HT	-5752
▁ton	-5753
▁Open	-5754
▁Type	-5755
▁fabric	-5756
▁notice	-5757
▁stream	-5758
▁toward	-5759
▁Penrose	-5760
▁variables	-5761
▁($	-5762
▁ID	-5763
ector	-5764
ilies	-5765
▁trou	-5766
▁chair	-5767
▁asking	-5768
▁saying	-5769
▁nitrogen	-5770
▁rotation	-5771
▁transitions	-5772
▁jo	-5773
atal	-5774
▁veh	-5775
▁vent	-5776
▁grace	-5777
89	-5778
AC	-5779
sin	-5780
turb	-5781
▁CKM	-5782
▁map	-5783
▁ride	-5784
▁wing	-5785
▁Bragg	-5786
▁wings	-5787
▁achieved	-5788
▁decrease	-5789
▁sensitive	-5790
spe	-5791
▁13.	-5792
▁Hol	-5793
▁gro	-5794
ipment	-5795
▁Today	-5796
Content	-5797
▁intern	-5798
▁scales	-5799
▁crystal	-5800
▁searching	-5801
▁absorption	-5802
▁represented	-5803
)]	-5804
76	-5805
een	-5806
▁14.	-5807
world	-5808
▁bank	-5809
▁rows	-5810
▁cells	-5811
▁sauce	-5812
▁satisf	-5813
ynthesis	-5814
▁intelligence	-5815
anc	-5816
▁Ze	-5817
empl	-5818
enty	-5819
hell	-5820
▁sad	-5821
icated	-5822
python	-5823
▁sales	-5824
roduction	-5825
▁birthday	-5826
▁primarily	-5827
EN	-5828
ham	-5829
start	-5830
aching	-5831
▁North	-5832
▁split	-5833
ossible	-5834
▁Hubble	-5835
▁defined	-5836
▁movement	-5837
▁financial	-5838
▁inequality	-5839
▁experimentally	-5840
▁TV	-5841
▁Δλ	-5842
ogue	-5843
▁alt	-5844
▁enrich	-5845
▁disappe	-5846
▁countless	-5847
▁indicates	-5848
phys	-5849
▁amb	-5850
ained	-5851
▁Blue	-5852
▁older	-5853
▁brings	-5854
▁fruits	-5855
▁silver	-5856
▁sequence	-5857
▁numerical	-5858
▁inflationary	-5859
='	-5860
env	-5861
hold	-5862
▁Thom	-5863
normal	-5864
▁decide	-5865
▁highest	-5866
▁network	-5867
▁enclosed	-5868
▁memories	-5869
▁consumption	-5870
_1	-5871
aged	-5872
erry	-5873
▁800	-5874
▁tap	-5875
▁0.04	-5876
▁aren	-5877
▁cake	-5878
▁forg	-5879
▁repe	-5880
▁Green	-5881
▁laser	-5882
▁meter	-5883
▁resil	-5884
▁arcsin	-5885
▁silent	-5886
Response	-5887
▁Assuming	-5888
▁Bro	-5889
Count	-5890
▁lege	-5891
▁rearr	-5892
▁eating	-5893
▁Although	-5894
▁algorithms	-5895
▁investment	-5896
SV	-5897
_2	-5898
yl	-5899
ool	-5900
▁48	-5901
▁Sec	-5902
iliar	-5903
▁cock	-5904
▁hosp	-5905
▁terr	-5906
▁1.602	-5907
Println	-5908
ructure	-5909
▁movies	-5910
▁Current	-5911
▁operating	-5912
▁practical	-5913
15/	-5914
▁tal	-5915
▁Show	-5916
▁1.989	-5917
▁capital	-5918
▁prepared	-5919
▁diffusion	-5920
▁tunneling	-5921
▁mechanical	-5922
▁signatures	-5923
7,	-5924
dis	-5925
fil	-5926
▁hu	-5927
▁ju	-5928
▁Yes	-5929
ename	-5930
▁ordinary	-5931
▁friendship	-5932
▁20%	-5933
immer	-5934
▁farm	-5935
▁wish	-5936
atives	-5937
ipping	-5938
▁excit	-5939
▁merge	-5940
▁risks	-5941
▁simult	-5942
▁buoyant	-5943
▁letters	-5944
▁creature	-5945
RT	-5946
men	-5947
▁Wa	-5948
anqu	-5949
Which	-5950
stood	-5951
▁9.81	-5952
▁Data	-5953
▁Schr	-5954
▁publ	-5955
lessly	-5956
▁cloud	-5957
▁domin	-5958
▁easier	-5959
▁pretty	-5960
▁10^(-3)	-5961
▁protocol	-5962
▁creativity	-5963
SR	-5964
gl	-5965
yal	-5966
mage	-5967
▁Mus	-5968
▁anx	-5969
▁req	-5970
öding	-5971
▁muse	-5972
▁paths	-5973
▁theme	-5974
ödinger	-5975
▁active	-5976
▁belong	-5977
▁cooking	-5978
▁instant	-5979
▁controll	-5980
▁obtained	-5981
ida	-5982
rip	-5983
▁du	-5984
HERE	-5985
flow	-5986
gypt	-5987
onds	-5988
▁Ital	-5989
▁Main	-5990
▁blog	-5991
▁frag	-5992
create	-5993
▁twist	-5994
▁Volume	-5995
▁planets	-5996
▁basketball	-5997
2]	-5998
rs	-5999
oses	-6000
▁Mary	-6001
▁tensor	-6002
▁toroid	-6003
▁concepts	-6004
tw	-6005
ingly	-6006
▁1.00	-6007
Stream	-6008
merged	-6009
▁beach	-6010
▁battle	-6011
▁lights	-6012
▁opened	-6013
▁clients	-6014
▁limited	-6015
▁engaging	-6016
▁construct	-6017
▁recommend	-6018
▁correction	-6019
▁Schrödinger	-6020
▁rom	-6021
▁chosen	-6022
▁philos	-6023
▁receive	-6024
▁returned	-6025
▁locations	-6026
▁principal	-6027
but	-6028
unk	-6029
▁push	-6030
▁South	-6031
▁manage	-6032
▁speech	-6033
▁neighbor	-6034
▁monopoles	-6035
▁primordial	-6036
▁$3	-6037
Type	-6038
uate	-6039
▁kid	-6040
▁artists	-6041
▁devices	-6042
▁countries	-6043
▁researchers	-6044
pm	-6045
}{	-6046
rial	-6047
ueen	-6048
itary	-6049
▁Text	-6050
▁init	-6051
▁Egypt	-6052
▁Hamil	-6053
▁aware	-6054
▁falls	-6055
▁stone	-6056
▁teeth	-6057
▁Robert	-6058
▁rhythm	-6059
▁essence	-6060
ibilities	-6061
▁candidate	-6062
▁JavaScript	-6063
Ah	-6064
asp	-6065
▁ran	-6066
▁Carn	-6067
▁deal	-6068
▁earn	-6069
▁attemp	-6070
▁enhance	-6071
▁scenario	-6072
▁centuries	-6073
▁interested	-6074
[:	-6075
++)	-6076
Man	-6077
agon	-6078
rict	-6079
▁grew	-6080
▁kept	-6081
output	-6082
▁decor	-6083
▁merger	-6084
▁strategies	-6085
Ass	-6086
bash	-6087
tons	-6088
▁cha	-6089
▁odd	-6090
eline	-6091
▁Note	-6092
▁prior	-6093
▁pounds	-6094
▁walked	-6095
)))	-6096
Yes	-6097
has	-6098
▁Tc	-6099
▁God	-6100
▁tok	-6101
token	-6102
▁died	-6103
▁tips	-6104
ptions	-6105
▁Rearr	-6106
▁WHERE	-6107
▁drawn	-6108
▁George	-6109
▁Experim	-6110
arts	-6111
rote	-6112
well	-6113
▁Div	-6114
▁rhy	-6115
▁jump	-6116
▁absol	-6117
▁songs	-6118
hetical	-6119
▁Assume	-6120
▁status	-6121
▁trains	-6122
▁Italian	-6123
▁isotope	-6124
▁opening	-6125
▁simplify	-6126
▁Act	-6127
▁god	-6128
erred	-6129
width	-6130
▁loud	-6131
▁Auger	-6132
▁alive	-6133
▁helped	-6134
▁Nuclear	-6135
▁climate	-6136
▁records	-6137
direction	-6138
▁composed	-6139
▁dynamics	-6140
▁involving	-6141
▁scattered	-6142
▁Percentage	-6143
HE	-6144
ether	-6145
iquark	-6146
▁thank	-6147
▁excell	-6148
▁President	-6149
awn	-6150
free	-6151
iday	-6152
▁Ste	-6153
▁(100	-6154
Number	-6155
number	-6156
▁usage	-6157
▁sorted	-6158
▁cookies	-6159
▁existing	-6160
▁carefully	-6161
▁delicious	-6162
▁explosion	-6163
▁supersymmetric	-6164
That	-6165
▁max	-6166
iance	-6167
socket	-6168
▁occup	-6169
ituting	-6170
▁axions	-6171
▁speeds	-6172
▁denominator	-6173
▁},	-6174
cons	-6175
▁End	-6176
▁Rep	-6177
▁adiab	-6178
▁eigen	-6179
▁scent	-6180
▁tells	-6181
▁refrig	-6182
▁package	-6183
▁daughter	-6184
▁sunlight	-6185
▁landscape	-6186
▁relatively	-6187
▁technologies	-6188
ERN	-6189
egin	-6190
CTION	-6191
gency	-6192
▁Bing	-6193
▁ratios	-6194
____	-6195
util	-6196
▁glo	-6197
▁sql	-6198
▁calm	-6199
▁soil	-6200
▁wrote	-6201
▁Person	-6202
▁Consider	-6203
▁interval	-6204
▁equipment	-6205
▁hypothetical	-6206
▁—	-6207
▁ce	-6208
eral	-6209
mber	-6210
rian	-6211
▁hol	-6212
▁tax	-6213
orter	-6214
posit	-6215
▁bath	-6216
attice	-6217
▁Trans	-6218
▁thera	-6219
▁widely	-6220
▁affected	-6221
auer	-6222
frac	-6223
▁Fur	-6224
▁lock	-6225
▁blank	-6226
▁fiber	-6227
▁prote	-6228
▁dispos	-6229
▁mesons	-6230
▁changing	-6231
▁friendly	-6232
▁exploring	-6233
▁specifically	-6234
57	-6235
94	-6236
Key	-6237
ppy	-6238
▁Po	-6239
opic	-6240
oted	-6241
push	-6242
▁eth	-6243
▁√(1	-6244
Value	-6245
▁nest	-6246
▁Waals	-6247
▁stick	-6248
ustling	-6249
▁passage	-6250
▁displaced	-6251
▁**	-6252
ints	-6253
▁197	-6254
arrow	-6255
▁column	-6256
▁Extract	-6257
Statement	-6258
▁becoming	-6259
109	-6260
adem	-6261
ores	-6262
pack	-6263
iated	-6264
▁cher	-6265
append	-6266
insert	-6267
▁Inter	-6268
▁plans	-6269
▁circle	-6270
▁tables	-6271
▁scanner	-6272
▁aircraft	-6273
▁endpoint	-6274
▁expenses	-6275
(&	-6276
dt	-6277
opt	-6278
Hello	-6279
▁Conn	-6280
▁Read	-6281
params	-6282
▁circum	-6283
▁denote	-6284
username	-6285
▁courage	-6286
▁windows	-6287
fig	-6288
cher	-6289
15/17	-6290
onent	-6291
verted	-6292
▁Emily	-6293
▁eager	-6294
9/15/17	-6295
electron	-6296
▁insight	-6297
▁noticed	-6298
▁website	-6299
▁astronaut	-6300
▁vegetables	-6301
(),	-6302
▁4)	-6303
acon	-6304
▁Sal	-6305
field	-6306
▁Water	-6307
▁dense	-6308
▁loves	-6309
▁sport	-6310
▁socket	-6311
▁operates	-6312
▁comfortable	-6313
▁characteristics	-6314
25)	-6315
Well	-6316
▁(1.6	-6317
▁issue	-6318
▁monthly	-6319
▁encourag	-6320
▁humanity	-6321
▁60%	-6322
▁Any	-6323
heric	-6324
encing	-6325
nowned	-6326
▁dishes	-6327
rotating	-6328
▁capable	-6329
▁reducing	-6330
▁rearrange	-6331
▁introduced	-6332
auth	-6333
▁2.0	-6334
▁hop	-6335
▁tom	-6336
▁uns	-6337
under	-6338
▁Thus	-6339
amples	-6340
▁cylind	-6341
▁guests	-6342
▁tranqu	-6343
▁Michael	-6344
▁medical	-6345
▁theorem	-6346
▁consists	-6347
IC	-6348
ino	-6349
▁Best	-6350
▁Somet	-6351
▁Explain	-6352
▁amazing	-6353
▁dispers	-6354
▁unexpected	-6355
args	-6356
orary	-6357
▁Have	-6358
ulated	-6359
undred	-6360
▁truck	-6361
▁advice	-6362
▁counts	-6363
▁limits	-6364
▁supernov	-6365
ptr	-6366
▁amu	-6367
▁phr	-6368
▁Good	-6369
▁blur	-6370
▁coin	-6371
▁haik	-6372
▁hunt	-6373
ushing	-6374
vector	-6375
▁threat	-6376
ordinary	-6377
▁anticip	-6378
▁casting	-6379
▁orbital	-6380
▁solving	-6381
▁connects	-6382
▁greatest	-6383
▁navigate	-6384
▁occurred	-6385
▁supports	-6386
▁comprehen	-6387
▁electronic	-6388
88	-6389
Enc	-6390
rand	-6391
▁Two	-6392
▁bal	-6393
words	-6394
▁doll	-6395
▁(1.602	-6396
▁canvas	-6397
▁winter	-6398
▁designs	-6399
XT	-6400
Hey	-6401
LECT	-6402
▁10^-7	-6403
lements	-6404
▁Intern	-6405
▁families	-6406
▁narrative	-6407
▁unification	-6408
iage	-6409
▁10%	-6410
▁202	-6411
ondon	-6412
▁10^7	-6413
▁Phys	-6414
delete	-6415
▁haven	-6416
▁thrill	-6417
▁version	-6418
▁witness	-6419
▁decision	-6420
▁reflected	-6421
`.	-6422
oton	-6423
wood	-6424
▁CERN	-6425
ercury	-6426
▁escap	-6427
▁stall	-6428
▁inform	-6429
▁dialogue	-6430
▁conscious	-6431
▁reflecting	-6432
|^2	-6433
▁Miss	-6434
▁embrace	-6435
▁lighter	-6436
▁branches	-6437
▁exciting	-6438
▁teleport	-6439
▁Rearranging	-6440
▁superposition	-6441
ena	-6442
anged	-6443
email	-6444
utely	-6445
▁funny	-6446
▁grass	-6447
▁stages	-6448
▁switch	-6449
▁10^(-9)	-6450
▁exposure	-6451
▁handling	-6452
▁impossible	-6453
▁transportation	-6454
▁La	-6455
▁die	-6456
▁ages	-6457
▁beat	-6458
▁curl	-6459
▁eight	-6460
▁conductor	-6461
▁sustainable	-6462
▁extraordinary	-6463
)/	-6464
Bu	-6465
▁BC	-6466
▁fug	-6467
icing	-6468
inter	-6469
▁cable	-6470
▁foods	-6471
▁plates	-6472
▁Console	-6473
▁driving	-6474
▁silence	-6475
▁accounts	-6476
▁adiabatic	-6477
▁electrostatic	-6478
`);	-6479
inn	-6480
ague	-6481
argv	-6482
wide	-6483
▁Comm	-6484
▁latest	-6485
▁recipe	-6486
▁curious	-6487
▁perturb	-6488
▁traject	-6489
▁download	-6490
▁improved	-6491
▁segments	-6492
Connection	-6493
IS	-6494
ref	-6495
vis	-6496
▁Ax	-6497
▁Cr	-6498
rays	-6499
▁entry	-6500
▁shown	-6501
Handler	-6502
▁museum	-6503
▁hyperfine	-6504
▁understood	-6505
▁transformation	-6506
▁Ac	-6507
ctan	-6508
▁Mal	-6509
▁Sir	-6510
▁egg	-6511
faces	-6512
first	-6513
pancy	-6514
parse	-6515
▁True	-6516
ension	-6517
proton	-6518
▁broken	-6519
▁vision	-6520
▁earlier	-6521
▁spectra	-6522
▁computing	-6523
▁factorial	-6524
▁political	-6525
2).	-6526
och	-6527
▁dy	-6528
exic	-6529
obel	-6530
ours	-6531
▁Cos	-6532
reeze	-6533
▁seek	-6534
action	-6535
▁dancing	-6536
▁seeking	-6537
ashington	-6538
▁confined	-6539
▁purchase	-6540
▁services	-6541
▁mountains	-6542
▁explaining	-6543
▁simultaneously	-6544
Go	-6545
bet	-6546
usi	-6547
asts	-6548
▁cogn	-6549
▁snail	-6550
▁stuff	-6551
▁(6.674	-6552
▁happen	-6553
▁seeing	-6554
▁probably	-6555
▁reaching	-6556
▁rectangle	-6557
▁coordinates	-6558
OST	-6559
kes	-6560
Item	-6561
erve	-6562
ford	-6563
rypt	-6564
▁meat	-6565
▁pref	-6566
apping	-6567
▁People	-6568
▁iconic	-6569
▁stores	-6570
▁Station	-6571
▁efforts	-6572
▁focused	-6573
▁streets	-6574
▁clusters	-6575
▁whispers	-6576
▁spectrosc	-6577
▁complexity	-6578
▁paragraphs	-6579
▁international	-6580
ama	-6581
cip	-6582
with	-6583
INPUT	-6584
▁Most	-6585
▁Turn	-6586
Chorus	-6587
▁occas	-6588
▁camera	-6589
▁heating	-6590
▁keeping	-6591
▁hospital	-6592
▁suitable	-6593
connection	-6594
▁boundaries	-6595
ML	-6596
ij	-6597
▁√(	-6598
aver	-6599
avasc	-6600
▁Moon	-6601
▁Vict	-6602
▁grid	-6603
▁jazz	-6604
umines	-6605
▁House	-6606
▁Other	-6607
▁Prize	-6608
▁fetch	-6609
▁relate	-6610
▁stored	-6611
▁collaps	-6612
▁tension	-6613
avascript	-6614
▁commonly	-6615
▁fugacity	-6616
▁reminder	-6617
▁pressures	-6618
▁resilience	-6619
▁relationships	-6620
oul	-6621
std	-6622
Dear	-6623
fall	-6624
seen	-6625
temp	-6626
▁3.0	-6627
▁Emp	-6628
▁pip	-6629
oving	-6630
▁(1000	-6631
▁Queen	-6632
▁meant	-6633
▁female	-6634
▁manner	-6635
▁owners	-6636
standing	-6637
▁Further	-6638
▁capture	-6639
epartment	-6640
▁absorbed	-6641
▁numbered	-6642
▁renormal	-6643
▁opportunities	-6644
^4	-6645
ta	-6646
IGO	-6647
ssb	-6648
urs	-6649
band	-6650
berg	-6651
onal	-6652
orks	-6653
össb	-6654
▁15.	-6655
▁guard	-6656
▁wealth	-6657
össbauer	-6658
▁cylindrical	-6659
Imp	-6660
ica	-6661
▁mc	-6662
STRU	-6663
arsh	-6664
items	-6665
▁kill	-6666
50,000	-6667
▁Mexic	-6668
▁depths	-6669
▁weapon	-6670
inematic	-6671
▁college	-6672
▁accident	-6673
▁Mössbauer	-6674
▁completed	-6675
▁0.7	-6676
▁Sar	-6677
table	-6678
▁rose	-6679
▁Tower	-6680
osphere	-6681
▁optimal	-6682
STRUCTION	-6683
▁marketing	-6684
▁mentioned	-6685
▁ionization	-6686
47	-6687
:"	-6688
rics	-6689
▁Look	-6690
▁perm	-6691
▁sell	-6692
▁adorn	-6693
▁airfo	-6694
▁smell	-6695
itivity	-6696
▁turning	-6697
▁univers	-6698
▁contract	-6699
▁confirmed	-6700
▁interacts	-6701
▁undergoes	-6702
INSTRUCTION	-6703
▁incredible	-6704
▁underlying	-6705
)(	-6706
ipp	-6707
cipl	-6708
ithub	-6709
pered	-6710
▁mood	-6711
▁tang	-6712
Parser	-6713
ounced	-6714
▁float	-6715
▁orange	-6716
▁equival	-6717
▁session	-6718
▁Function	-6719
▁arguments	-6720
▁Washington	-6721
▁mechanisms	-6722
(40	-6723
.");	-6724
▁199	-6725
▁Gol	-6726
▁sup	-6727
▁firm	-6728
▁shop	-6729
▁stir	-6730
itution	-6731
▁warmth	-6732
▁10^(-4)	-6733
▁actions	-6734
▁attempt	-6735
▁reaches	-6736
▁indicate	-6737
▁breakfast	-6738
▁refrigerator	-6739
Us	-6740
aded	-6741
▁Boy	-6742
rance	-6743
▁guid	-6744
▁penc	-6745
escribe	-6746
example	-6747
▁Before	-6748
▁assign	-6749
▁trapped	-6750
▁integers	-6751
▁visitors	-6752
▁generates	-6753
▁engineering	-6754
▁characterized	-6755
IO	-6756
ERT	-6757
hol	-6758
org	-6759
roy	-6760
▁"__	-6761
▁16.	-6762
▁Dec	-6763
▁Sil	-6764
▁mut	-6765
iforn	-6766
▁Play	-6767
▁Count	-6768
▁signs	-6769
▁narrow	-6770
▁promot	-6771
▁illumin	-6772
▁distributed	-6773
▁architecture	-6774
__":	-6775
▁Bel	-6776
▁CSV	-6777
▁Land	-6778
▁hues	-6779
▁keys	-6780
▁reco	-6781
ellite	-6782
▁Units	-6783
▁annih	-6784
▁crowd	-6785
athered	-6786
▁emphas	-6787
▁flower	-6788
▁renowned	-6789
▁interview	-6790
▁Substituting	-6791
Of	-6792
csv	-6793
▁===	-6794
▁Hen	-6795
▁Whe	-6796
▁bee	-6797
uated	-6798
▁tomat	-6799
▁degree	-6800
▁legend	-6801
▁endless	-6802
▁holding	-6803
▁included	-6804
▁ourselves	-6805
-3	-6806
At	-6807
IM	-6808
1/2	-6809
URL	-6810
acc	-6811
ega	-6812
▁<=	-6813
▁ru	-6814
PORT	-6815
oons	-6816
pton	-6817
▁$20	-6818
▁Jim	-6819
▁Tim	-6820
▁sho	-6821
▁Neut	-6822
▁sear	-6823
▁tube	-6824
▁diverse	-6825
▁sitting	-6826
▁national	-6827
▁thermodynamics	-6828
estry	-6829
found	-6830
riers	-6831
▁bare	-6832
atomic	-6833
▁Maybe	-6834
▁flour	-6835
▁keeps	-6836
▁navig	-6837
▁topic	-6838
▁10^-24	-6839
▁flying	-6840
▁ongoing	-6841
▁University	-6842
▁directions	-6843
▁generations	-6844
oys	-6845
ccer	-6846
ette	-6847
roud	-6848
stra	-6849
▁Vir	-6850
▁inj	-6851
▁spr	-6852
▁bags	-6853
▁cham	-6854
▁London	-6855
▁writer	-6856
▁enrichment	-6857
▁gy	-6858
fish	-6859
▁Stre	-6860
▁exec	-6861
▁race	-6862
▁haiku	-6863
ogether	-6864
▁familiar	-6865
▁excellent	-6866
▁alternative	-6867
86	-6868
▁∂	-6869
price	-6870
▁crime	-6871
▁seeds	-6872
▁resist	-6873
▁longest	-6874
▁signals	-6875
▁establish	-6876
4:	-6877
","	-6878
anor	-6879
iter	-6880
umer	-6881
urch	-6882
▁196	-6883
▁20°	-6884
▁Zen	-6885
▁cout	-6886
bucket	-6887
hereal	-6888
▁sells	-6889
herence	-6890
▁Carnot	-6891
▁deeply	-6892
▁styles	-6893
▁fiction	-6894
▁picture	-6895
1⟩	-6896
pie	-6897
▁Mor	-6898
acles	-6899
ulates	-6900
▁basis	-6901
▁coast	-6902
▁horse	-6903
▁rules	-6904
ifornia	-6905
▁expert	-6906
▁charges	-6907
▁managed	-6908
▁official	-6909
▁asymmetry	-6910
})	-6911
ags	-6912
map	-6913
txt	-6914
pace	-6915
pril	-6916
▁Ann	-6917
▁dim	-6918
▁hus	-6919
Stack	-6920
arted	-6921
▁dose	-6922
▁grab	-6923
▁luck	-6924
▁none	-6925
▁site	-6926
▁thus	-6927
▁Which	-6928
▁candy	-6929
▁saved	-6930
▁excess	-6931
▁Charles	-6932
▁fashion	-6933
▁periods	-6934
▁Japanese	-6935
▁recently	-6936
▁thousands	-6937
54	-6938
II	-6939
-1)	-6940
lin	-6941
▁AB	-6942
hent	-6943
pler	-6944
▁30%	-6945
▁Pol	-6946
▁inn	-6947
Verse	-6948
arian	-6949
which	-6950
▁100°	-6951
▁Mach	-6952
▁pets	-6953
▁Night	-6954
▁brush	-6955
alities	-6956
ologist	-6957
▁welcome	-6958
▁spending	-6959
▁multiplying	-6960
rc	-6961
eed	-6962
vere	-6963
▁sem	-6964
▁sod	-6965
▁fort	-6966
▁seat	-6967
▁tons	-6968
istory	-6969
▁muscle	-6970
▁rewrite	-6971
▁dedicated	-6972
▁trajectory	-6973
▁--	-6974
arol	-6975
▁Ama	-6976
▁3000	-6977
▁Days	-6978
▁abund	-6979
▁brand	-6980
▁helix	-6981
▁income	-6982
▁combine	-6983
▁isother	-6984
▁ethereal	-6985
▁happiness	-6986
▁interface	-6987
▁dispersion	-6988
▁accelerated	-6989
For	-6990
▁")	-6991
abet	-6992
▁Jul	-6993
▁Val	-6994
▁fat	-6995
▁brew	-6996
▁cups	-6997
▁desce	-6998
▁monit	-6999
▁Express	-7000
▁falling	-7001
▁reasons	-7002
▁delicate	-7003
▁treatment	-7004
▁suggestions	-7005
▁spectroscopy	-7006
[1]	-7007
▁ESR	-7008
▁Capt	-7009
▁Charl	-7010
▁Techn	-7011
▁weeke	-7012
elastic	-7013
imately	-7014
▁farmer	-7015
▁Twitter	-7016
▁surroundings	-7017
▁conversations	-7018
8,	-7019
MR	-7020
All	-7021
bra	-7022
laim	-7023
▁sib	-7024
▁Duck	-7025
▁kilog	-7026
▁cancel	-7027
▁exists	-7028
▁William	-7029
▁hundred	-7030
▁musical	-7031
▁randomly	-7032
▁dimension	-7033
▁California	-7034
▁atmospheric	-7035
▁electricity	-7036
▁interacting	-7037
da	-7038
gu	-7039
rad	-7040
000.	-7041
airs	-7042
rows	-7043
▁cris	-7044
▁deck	-7045
▁scal	-7046
icians	-7047
▁Google	-7048
▁driven	-7049
▁latent	-7050
▁talent	-7051
▁removed	-7052
▁shimmer	-7053
▁perfectly	-7054
▁submerged	-7055
(1/	-7056
Out	-7057
imp	-7058
vap	-7059
▁21	-7060
▁5,	-7061
athy	-7062
edge	-7063
▁cas	-7064
Close	-7065
▁Peter	-7066
▁Golang	-7067
▁formal	-7068
▁geodes	-7069
▁member	-7070
▁prepar	-7071
▁accompl	-7072
▁enthusi	-7073
▁typical	-7074
▁whisper	-7075
▁nucleons	-7076
▁intellectual	-7077
aust	-7078
leep	-7079
▁40%	-7080
force	-7081
▁(200	-7082
▁elif	-7083
▁enem	-7084
▁steam	-7085
▁Victor	-7086
▁bullet	-7087
▁effort	-7088
▁promise	-7089
▁surprise	-7090
▁conducted	-7091
▁processing	-7092
owed	-7093
test	-7094
▁sch	-7095
inated	-7096
olving	-7097
▁Integ	-7098
▁chaos	-7099
▁forth	-7100
▁upper	-7101
▁reader	-7102
▁attract	-7103
▁stellar	-7104
▁telling	-7105
▁remained	-7106
▁adventures	-7107
▁limitations	-7108
▁replacement	-7109
▁Ag	-7110
▁20.	-7111
▁Bre	-7112
▁Max	-7113
▁tit	-7114
ufact	-7115
▁bowl	-7116
▁Frank	-7117
▁Roman	-7118
▁Simpl	-7119
▁Hawking	-7120
▁shorter	-7121
▁symmetric	-7122
pc	-7123
ban	-7124
Input	-7125
▁wine	-7126
▁April	-7127
▁Daily	-7128
▁Sarah	-7129
▁faced	-7130
▁heads	-7131
▁Thomas	-7132
▁bacter	-7133
▁classes	-7134
▁cooling	-7135
▁astrophys	-7136
!)	-7137
44	-7138
▁δ	-7139
With	-7140
ober	-7141
▁19.	-7142
▁hat	-7143
▁Back	-7144
▁epis	-7145
▁State	-7146
▁gradi	-7147
▁quart	-7148
ployees	-7149
▁Potter	-7150
▁forgot	-7151
▁throws	-7152
▁partial	-7153
▁10^(-34)	-7154
▁discussing	-7155
▁simplifies	-7156
77	-7157
eles	-7158
oule	-7159
apter	-7160
rated	-7161
▁10^9	-7162
▁bomb	-7163
▁tend	-7164
atever	-7165
igious	-7166
▁align	-7167
▁chest	-7168
▁assist	-7169
▁joules	-7170
▁merely	-7171
▁optical	-7172
▁tonight	-7173
▁innovative	-7174
▁sensitivity	-7175
▁consequences	-7176
KE	-7177
(20	-7178
sub	-7179
▁>>	-7180
comp	-7181
▁1.25	-7182
▁Arch	-7183
▁bill	-7184
▁diam	-7185
▁maze	-7186
▁Nobel	-7187
▁breed	-7188
▁trick	-7189
▁England	-7190
▁lengths	-7191
▁serious	-7192
▁teacher	-7193
▁testing	-7194
▁sufficient	-7195
den	-7196
ims	-7197
rif	-7198
▁6,	-7199
▁Jo	-7200
blue	-7201
rame	-7202
▁(4.	-7203
▁hik	-7204
fraid	-7205
oment	-7206
▁adds	-7207
▁lamp	-7208
▁Point	-7209
▁lunch	-7210
▁volts	-7211
indrome	-7212
▁adults	-7213
▁constra	-7214
2)^(3/2))	-7215
▁cognitive	-7216
▁exception	-7217
▁deflection	-7218
56	-7219
▁Γ	-7220
10)	-7221
800	-7222
▁Pc	-7223
acle	-7224
▁Sur	-7225
▁cab	-7226
Printf	-7227
elsius	-7228
▁breeze	-7229
▁prices	-7230
▁raised	-7231
▁shapes	-7232
▁exhibit	-7233
▁harmony	-7234
▁painted	-7235
▁stopped	-7236
▁strategy	-7237
▁tomorrow	-7238
▁calculating	-7239
600	-7240
Plan	-7241
noon	-7242
▁Mod	-7243
▁Off	-7244
idity	-7245
▁anti	-7246
▁beta	-7247
▁emit	-7248
▁Louis	-7249
▁Snell	-7250
▁fixed	-7251
▁haunt	-7252
▁afraid	-7253
▁fluids	-7254
▁concerns	-7255
▁machines	-7256
▁philosoph	-7257
▁intriguing	-7258
RUD	-7259
Res	-7260
eton	-7261
itud	-7262
tage	-7263
▁Ent	-7264
▁sys	-7265
cules	-7266
▁cere	-7267
▁turt	-7268
rating	-7269
▁Paris	-7270
▁sandw	-7271
▁youth	-7272
▁baking	-7273
▁fourth	-7274
▁marvel	-7275
ophistic	-7276
▁amounts	-7277
▁arrived	-7278
▁happens	-7279
▁intense	-7280
ativistic	-7281
▁tapestry	-7282
javascript	-7283
3]	-7284
μν	-7285
lig	-7286
▁Ye	-7287
aign	-7288
▁sac	-7289
ravel	-7290
shell	-7291
state	-7292
▁(0.05	-7293
▁trail	-7294
▁embark	-7295
▁former	-7296
▁sister	-7297
▁steady	-7298
▁notable	-7299
▁vertical	-7300
▁pollutant	-7301
42	-7302
ads	-7303
rem	-7304
▁5:	-7305
▁Dan	-7306
▁Mag	-7307
estic	-7308
eposit	-7309
isible	-7310
jected	-7311
▁crack	-7312
▁eleph	-7313
▁10^-31	-7314
▁handsh	-7315
▁adorned	-7316
▁filling	-7317
▁protein	-7318
Le	-7319
▁ε	-7320
▁Flor	-7321
▁Love	-7322
▁REST	-7323
▁obst	-7324
▁China	-7325
▁jokes	-7326
▁commit	-7327
ummarize	-7328
▁airfoil	-7329
▁therapy	-7330
Implement	-7331
▁cocktail	-7332
▁encounter	-7333
▁supporting	-7334
▁determining	-7335
▁simulations	-7336
▁±	-7337
iox	-7338
▁oh	-7339
java	-7340
▁cit	-7341
▁dut	-7342
▁Leon	-7343
▁Paul	-7344
▁Rich	-7345
▁acts	-7346
▁flex	-7347
▁pron	-7348
▁Italy	-7349
▁capac	-7350
▁fears	-7351
▁sorry	-7352
▁steel	-7353
entials	-7354
▁Search	-7355
▁linked	-7356
▁performed	-7357
▁facilities	-7358
▁expressions	-7359
sect	-7360
▁(12	-7361
▁jud	-7362
eller	-7363
▁laun	-7364
▁0.001	-7365
▁skill	-7366
uffered	-7367
▁Amazon	-7368
▁bridge	-7369
▁depict	-7370
▁Without	-7371
▁indices	-7372
▁newline	-7373
▁astronom	-7374
▁disposal	-7375
▁photosynthesis	-7376
atm	-7377
bye	-7378
▁17.	-7379
▁298	-7380
▁hur	-7381
being	-7382
▁stim	-7383
▁Carol	-7384
▁autom	-7385
▁route	-7386
▁sites	-7387
▁drinks	-7388
▁alphabet	-7389
▁Implement	-7390
▁computers	-7391
▁perimeter	-7392
▁delightful	-7393
▁characteristic	-7394
HT	-7395
KD	-7396
gn	-7397
(2)	-7398
274	-7399
ada	-7400
zero	-7401
▁240	-7402
▁Inf	-7403
▁nor	-7404
▁org	-7405
▁cube	-7406
factor	-7407
herent	-7408
▁outdo	-7409
▁perce	-7410
▁pound	-7411
▁fellow	-7412
sections	-7413
▁anxiety	-7414
▁calculator	-7415
"`	-7416
aks	-7417
▁""	-7418
(0.3	-7419
ella	-7420
▁COP	-7421
▁Jan	-7422
ashed	-7423
inity	-7424
othes	-7425
▁June	-7426
▁paid	-7427
ifting	-7428
evision	-7429
▁arises	-7430
▁desire	-7431
▁doctor	-7432
▁puzzle	-7433
▁supply	-7434
▁ticket	-7435
▁kingdom	-7436
▁married	-7437
▁buildings	-7438
▁excitement	-7439
▁civilization	-7440
ails	-7441
care	-7442
▁Loc	-7443
▁keV	-7444
class	-7445
olves	-7446
ounce	-7447
▁0.08	-7448
▁2020	-7449
▁neck	-7450
orable	-7451
▁Story	-7452
▁alien	-7453
▁facts	-7454
▁engage	-7455
▁corresponds	-7456
▁representing	-7457
▁teleportation	-7458
sm	-7459
ALU	-7460
neg	-7461
obs	-7462
blob	-7463
item	-7464
▁(0,	-7465
▁Vis	-7466
▁guy	-7467
▁lon	-7468
▁LIGO	-7469
▁logic	-7470
▁medic	-7471
Imagine	-7472
▁Though	-7473
▁relent	-7474
▁soccer	-7475
▁plastic	-7476
▁Magnetic	-7477
▁gradient	-7478
▁manufact	-7479
▁possibilities	-7480
?”	-7481
.15	-7482
Get	-7483
bur	-7484
isk	-7485
unc	-7486
0000	-7487
dule	-7488
▁hob	-7489
▁Gold	-7490
akespe	-7491
aneous	-7492
github	-7493
▁label	-7494
▁Direct	-7495
▁Florida	-7496
▁subsequ	-7497
▁cultures	-7498
▁software	-7499
▁improving	-7500
▁advancements	-7501
%,	-7502
Up	-7503
▁°	-7504
Hel	-7505
box	-7506
bro	-7507
plit	-7508
umns	-7509
▁Oct	-7510
agram	-7511
opher	-7512
uther	-7513
▁Lord	-7514
▁Rome	-7515
▁poor	-7516
▁tire	-7517
▁climb	-7518
rations	-7519
▁police	-7520
▁radial	-7521
distance	-7522
akespeare	-7523
▁accepted	-7524
▁pleasure	-7525
▁dangerous	-7526
-4	-7527
Hi	-7528
},	-7529
zer	-7530
▁0:	-7531
▁Ur	-7532
oned	-7533
▁$15	-7534
▁18.	-7535
▁SQL	-7536
▁nRT	-7537
▁sel	-7538
Query	-7539
▁$100	-7540
▁Fore	-7541
▁Russ	-7542
▁Value	-7543
▁White	-7544
▁boxes	-7545
▁worst	-7546
ressive	-7547
▁pursuit	-7548
▁directed	-7549
▁division	-7550
▁achieving	-7551
▁worldwide	-7552
▁Dar	-7553
▁Old	-7554
▁scr	-7555
ended	-7556
▁1.67	-7557
arance	-7558
ilarly	-7559
urance	-7560
▁Const	-7561
▁Incre	-7562
▁roots	-7563
▁traff	-7564
▁weigh	-7565
ections	-7566
express	-7567
▁Island	-7568
▁Celsius	-7569
▁prepare	-7570
▁sarcasm	-7571
▁spirits	-7572
▁updated	-7573
▁military	-7574
▁possibly	-7575
▁suddenly	-7576
▁swimming	-7577
▁respective	-7578
▁integration	-7579
()`	-7580
lla	-7581
▁";	-7582
▁22	-7583
even	-7584
▁");	-7585
▁Van	-7586
▁dom	-7587
▁0.15	-7588
▁Radi	-7589
▁eter	-7590
▁fost	-7591
▁Henry	-7592
▁oldest	-7593
▁propag	-7594
▁president	-7595
▁appearance	-7596
▁developing	-7597
▁enchanting	-7598
Par	-7599
aped	-7600
iger	-7601
▁Adv	-7602
▁Run	-7603
▁Try	-7604
▁Lily	-7605
▁Prob	-7606
▁West	-7607
▁seven	-7608
▁waters	-7609
▁showing	-7610
▁appeared	-7611
▁compound	-7612
▁internet	-7613
▁shortest	-7614
▁smallest	-7615
▁surfaces	-7616
▁answering	-7617
▁repulsion	-7618
▁incredibly	-7619
▁inspiration	-7620
▁investigation	-7621
▁φ	-7622
ini	-7623
Size	-7624
▁gle	-7625
inese	-7626
▁CRUD	-7627
▁Mult	-7628
▁bloom	-7629
▁edges	-7630
▁ghost	-7631
content	-7632
imatter	-7633
▁Fusion	-7634
▁themes	-7635
▁Captain	-7636
▁boiling	-7637
▁compass	-7638
▁pictures	-7639
uminescent	-7640
▁practices	-7641
▁sophistic	-7642
PR	-7643
▁()	-7644
▁5)	-7645
▁ly	-7646
Hvap	-7647
whel	-7648
▁(30	-7649
▁Gal	-7650
▁bat	-7651
elled	-7652
▁hung	-7653
▁okay	-7654
▁pond	-7655
▁unus	-7656
ervice	-7657
▁habit	-7658
▁minds	-7659
▁photo	-7660
▁differ	-7661
▁pulled	-7662
friendly	-7663
▁Austral	-7664
▁husband	-7665
▁trouble	-7666
▁bacteria	-7667
▁dividing	-7668
▁struggle	-7669
▁molecules	-7670
▁published	-7671
▁satellite	-7672
▁captivating	-7673
▁transferred	-7674
▁cryptography	-7675
▁Φ	-7676
ESS	-7677
luon	-7678
}`);	-7679
▁Cre	-7680
▁wed	-7681
raper	-7682
ulous	-7683
▁1/20	-7684
▁hide	-7685
Header	-7686
icking	-7687
itable	-7688
ometer	-7689
ificial	-7690
issions	-7691
enclosed	-7692
▁detecting	-7693
▁uniformly	-7694
▁accelerators	-7695
ols	-7696
xic	-7697
▁San	-7698
▁lie	-7699
istry	-7700
▁Upon	-7701
▁Work	-7702
▁blow	-7703
▁mine	-7704
▁runs	-7705
source	-7706
▁10^14	-7707
▁calls	-7708
▁inser	-7709
▁manip	-7710
account	-7711
▁checks	-7712
▁dragon	-7713
▁orient	-7714
▁finished	-7715
▁username	-7716
▁collected	-7717
▁isothermal	-7718
ago	-7719
▁PV	-7720
▁ow	-7721
Duck	-7722
auge	-7723
oded	-7724
icorn	-7725
▁(1.5	-7726
▁10−6	-7727
▁barn	-7728
▁dwar	-7729
secret	-7730
▁Grand	-7731
▁honey	-7732
▁meals	-7733
▁snack	-7734
omentum	-7735
▁heated	-7736
▁showed	-7737
▁softly	-7738
▁forming	-7739
▁rapidly	-7740
▁selling	-7741
▁serving	-7742
▁accessible	-7743
46	-7744
MS	-7745
(30	-7746
Add	-7747
Not	-7748
▁Gl	-7749
▁dil	-7750
▁vit	-7751
▁File	-7752
▁ears	-7753
▁hurt	-7754
DuckGo	-7755
aining	-7756
estern	-7757
numbers	-7758
▁Always	-7759
▁trails	-7760
▁partner	-7761
▁realism	-7762
matically	-7763
▁observing	-7764
description	-7765
▁DuckDuckGo	-7766
▁calculates	-7767
▁Experimental	-7768
▁civilizations	-7769
ha	-7770
(0.0	-7771
SERT	-7772
Tell	-7773
eras	-7774
lict	-7775
uous	-7776
aning	-7777
berry	-7778
▁INTO	-7779
▁cart	-7780
▁enig	-7781
uations	-7782
▁accommod	-7783
▁although	-7784
▁documents	-7785
▁biological	-7786
▁connecting	-7787
▁horizontal	-7788
anut	-7789
▁Cho	-7790
▁fib	-7791
▁lun	-7792
▁unp	-7793
Fatal	-7794
▁akin	-7795
▁decl	-7796
ortion	-7797
▁shoot	-7798
outhern	-7799
▁(2.998	-7800
▁Cosmic	-7801
▁shifts	-7802
▁taught	-7803
▁Leonard	-7804
▁closely	-7805
▁inspire	-7806
▁studied	-7807
▁entirely	-7808
▁wonderful	-7809
▁Shakespeare	-7810
OU	-7811
CON	-7812
Thom	-7813
stmt	-7814
▁cul	-7815
Gener	-7816
▁100%	-7817
▁July	-7818
▁Know	-7819
▁dens	-7820
▁hats	-7821
▁Event	-7822
▁mixed	-7823
▁proud	-7824
▁tears	-7825
ostream	-7826
▁belief	-7827
▁plenty	-7828
breaking	-7829
database	-7830
▁clothes	-7831
▁discipl	-7832
▁realize	-7833
▁introduce	-7834
▁kilograms	-7835
1_	-7836
5:	-7837
(1,	-7838
)^2/	-7839
eman	-7840
▁(5.	-7841
▁195	-7842
▁awe	-7843
▁erg	-7844
▁0.75	-7845
▁Span	-7846
▁stro	-7847
▁trag	-7848
tainer	-7849
umbled	-7850
▁grade	-7851
▁votes	-7852
▁Setting	-7853
▁figures	-7854
▁lattice	-7855
▁symbols	-7856
▁clothing	-7857
▁optimize	-7858
▁kinematic	-7859
▁listening	-7860
▁quantized	-7861
TP	-7862
irl	-7863
zen	-7864
alph	-7865
ione	-7866
▁Gib	-7867
▁Pat	-7868
▁Rob	-7869
▁nod	-7870
▁shr	-7871
actor	-7872
tered	-7873
▁(0.2	-7874
▁Bill	-7875
▁Zeno	-7876
▁arts	-7877
▁hall	-7878
▁melt	-7879
fortun	-7880
▁rhyme	-7881
▁volum	-7882
imeters	-7883
▁finish	-7884
▁shaped	-7885
▁sought	-7886
▁cutting	-7887
▁inverse	-7888
48	-7889
Ob	-7890
iana	-7891
▁rab	-7892
▁raw	-7893
▁voc	-7894
▁Comb	-7895
▁crop	-7896
▁dawn	-7897
▁monk	-7898
▁pink	-7899
tering	-7900
response	-7901
▁Regular	-7902
▁emerged	-7903
▁entered	-7904
▁fantasy	-7905
▁filters	-7906
▁afternoon	-7907
▁otherwise	-7908
▁summarize	-7909
▁oscillations	-7910
/1	-7911
/:	-7912
uk	-7913
▁(9	-7914
▁ft	-7915
sort	-7916
▁vir	-7917
ALUES	-7918
izard	-7919
▁10^3	-7920
▁Mart	-7921
▁sine	-7922
▁MySQL	-7923
▁https	-7924
▁tests	-7925
weather	-7926
▁arctan	-7927
▁bought	-7928
▁routes	-7929
▁Perform	-7930
▁carried	-7931
WriteLine	-7932
▁Sometimes	-7933
▁consciousness	-7934
▁multiplication	-7935
-2	-7936
no	-7937
anol	-7938
gged	-7939
onna	-7940
tamp	-7941
▁Dop	-7942
▁wra	-7943
iffel	-7944
▁bite	-7945
▁defe	-7946
▁feat	-7947
▁shot	-7948
▁Fried	-7949
▁films	-7950
▁worry	-7951
Compose	-7952
Extract	-7953
agonist	-7954
▁Profit	-7955
▁afford	-7956
▁weekend	-7957
▁performs	-7958
▁projects	-7959
▁remarkable	-7960
▁neighborhood	-7961
▁configuration	-7962
▁wa	-7963
igor	-7964
oked	-7965
oven	-7966
▁cow	-7967
▁flux	-7968
▁Mongo	-7969
▁brave	-7970
▁inert	-7971
▁manif	-7972
▁usual	-7973
▁curved	-7974
▁Chinese	-7975
▁Doppler	-7976
▁instrum	-7977
▁savings	-7978
▁voltage	-7979
▁category	-7980
▁reported	-7981
▁websites	-7982
▁television	-7983
▁implementation	-7984
▁≥	-7985
Blo	-7986
ENT	-7987
mas	-7988
▁Ev	-7989
aste	-7990
defer	-7991
ected	-7992
ogene	-7993
▁boss	-7994
▁meth	-7995
▁mort	-7996
▁vess	-7997
lished	-7998
photon	-7999
▁10^-6	-8000
▁Bethe	-8001
▁beams	-8002
▁equil	-8003
▁leader	-8004
▁picked	-8005
▁unseen	-8006
▁argument	-8007
▁selection	-8008
▁contribution	-8009
▁comprehensive	-8010
?]	-8011
ql	-8012
▁Ol	-8013
1325	-8014
anny	-8015
▁Cat	-8016
▁rip	-8017
outer	-8018
useum	-8019
▁URLs	-8020
▁lady	-8021
▁BEGIN	-8022
▁shoes	-8023
ustomer	-8024
▁denotes	-8025
▁nullptr	-8026
▁astrolog	-8027
▁geodesic	-8028
▁controlled	-8029
▁regardless	-8030
▁ultimately	-8031
''	-8032
NA	-8033
zo	-8034
1.5	-8035
isa	-8036
icism	-8037
works	-8038
▁elim	-8039
▁unst	-8040
Method	-8041
SELECT	-8042
▁twink	-8043
reshold	-8044
ulating	-8045
▁Delete	-8046
▁Length	-8047
▁VALUES	-8048
▁charis	-8049
▁parser	-8050
▁biggest	-8051
▁visited	-8052
▁watched	-8053
▁mediated	-8054
▁companies	-8055
▁positions	-8056
▁somewhere	-8057
▁accelerating	-8058
cor	-8059
www	-8060
zed	-8061
▁",	-8062
Give	-8063
ithm	-8064
▁Tre	-8065
▁Bern	-8066
▁Meet	-8067
Socket	-8068
▁diagn	-8069
▁teach	-8070
▁archae	-8071
▁compar	-8072
▁humble	-8073
iostream	-8074
▁mergers	-8075
▁overwhel	-8076
▁converted	-8077
!”	-8078
_{	-8079
ado	-8080
Cons	-8081
etry	-8082
oder	-8083
umph	-8084
what	-8085
▁(50	-8086
▁Gab	-8087
Image	-8088
trans	-8089
▁ment	-8090
(0.36)	-8091
▁bones	-8092
▁deliv	-8093
▁Lastly	-8094
▁failed	-8095
▁launch	-8096
ictional	-8097
momentum	-8098
▁pencils	-8099
▁resolve	-8100
▁Together	-8101
▁peaceful	-8102
($	-8103
ato	-8104
eli	-8105
eren	-8106
rete	-8107
such	-8108
▁0.03	-8109
▁Load	-8110
▁Rock	-8111
imited	-8112
inking	-8113
▁tooth	-8114
▁Update	-8115
▁advert	-8116
▁bustling	-8117
▁predicts	-8118
▁performing	-8119
▁independent	-8120
79	-8121
iar	-8122
▁Bra	-8123
▁dip	-8124
inate	-8125
▁quad	-8126
access	-8127
▁1,000	-8128
▁Based	-8129
▁Price	-8130
▁Width	-8131
▁prime	-8132
▁walks	-8133
atively	-8134
▁powers	-8135
▁rental	-8136
▁volcan	-8137
negative	-8138
ructions	-8139
▁Revenue	-8140
▁choices	-8141
antiquark	-8142
▁millions	-8143
▁towering	-8144
▁withdraw	-8145
▁frequently	-8146
▁oscillator	-8147
ResponseWriter	-8148
▁compressibility	-8149
▁renormalization	-8150
1^2	-8151
20)	-8152
idic	-8153
riel	-8154
▁Str	-8155
▁dat	-8156
^(-1)	-8157
rooms	-8158
▁ions	-8159
▁lips	-8160
▁tong	-8161
▁10^16	-8162
▁ended	-8163
▁seats	-8164
▁tight	-8165
▁tired	-8166
▁10^-12	-8167
▁attend	-8168
▁gained	-8169
▁wooden	-8170
▁doctors	-8171
▁currents	-8172
▁friction	-8173
▁languages	-8174
▁situations	-8175
▁velocities	-8176
0.0	-8177
dyn	-8178
pet	-8179
▁8,	-8180
Func	-8181
ivia	-8182
join	-8183
icked	-8184
qubit	-8185
▁pros	-8186
Handle	-8187
▁Ocean	-8188
▁alloc	-8189
▁flash	-8190
▁hotel	-8191
▁motor	-8192
▁ships	-8193
▁teams	-8194
▁orders	-8195
▁bringing	-8196
▁identity	-8197
▁whatever	-8198
▁advantage	-8199
▁correlations	-8200
▁approximation	-8201
1.3	-8202
cut	-8203
▁fs	-8204
ById	-8205
duct	-8206
▁Rev	-8207
▁Tri	-8208
▁syn	-8209
inent	-8210
▁Kerr	-8211
▁10^-9	-8212
▁Beaut	-8213
▁beans	-8214
▁skies	-8215
▁glowing	-8216
▁merging	-8217
▁apparent	-8218
▁ultimate	-8219
▁cavitation	-8220
▁requirements	-8221
AD	-8222
Rec	-8223
pop	-8224
▁py	-8225
abel	-8226
aden	-8227
orms	-8228
rons	-8229
▁3.5	-8230
▁Nav	-8231
▁fan	-8232
▁fans	-8233
▁lots	-8234
▁Joule	-8235
▁probe	-8236
▁parity	-8237
▁replaced	-8238
▁searches	-8239
▁abilities	-8240
▁Hamiltonian	-8241
ufferedReader	-8242
.'	-8243
GR	-8244
Are	-8245
met	-8246
una	-8247
▁Di	-8248
▁SE	-8249
open	-8250
then	-8251
▁rub	-8252
▁Link	-8253
▁elev	-8254
▁tech	-8255
everal	-8256
▁adjac	-8257
▁agree	-8258
▁Museum	-8259
▁academ	-8260
▁inters	-8261
▁rights	-8262
▁authent	-8263
▁columns	-8264
▁confirm	-8265
▁inhabit	-8266
▁unusual	-8267
▁contempl	-8268
▁expensive	-8269
▁polarized	-8270
▁confidence	-8271
▁handshakes	-8272
▁environments	-8273
Read	-8274
hero	-8275
rinth	-8276
umble	-8277
itudes	-8278
▁court	-8279
▁fills	-8280
▁peaks	-8281
▁surve	-8282
▁Theory	-8283
▁branch	-8284
▁burning	-8285
▁default	-8286
▁ensures	-8287
▁flights	-8288
▁mercury	-8289
▁combines	-8290
▁conflict	-8291
▁focusing	-8292
▁inverted	-8293
▁stretched	-8294
▁electrical	-8295
▁identified	-8296
▁innovation	-8297
▁connections	-8298
>>	-8299
Un	-8300
(10	-8301
▁lux	-8302
hetic	-8303
oseph	-8304
▁Orig	-8305
▁busy	-8306
▁jets	-8307
▁wise	-8308
printf	-8309
ustion	-8310
▁vivid	-8311
initely	-8312
▁assess	-8313
▁lenses	-8314
▁sudden	-8315
▁unlike	-8316
▁leaders	-8317
▁10^(-27)	-8318
▁Moreover	-8319
▁applying	-8320
▁distingu	-8321
▁colliders	-8322
▁Probability	-8323
▁entertainment	-8324
.*	-8325
Map	-8326
▁Hy	-8327
▁ds	-8328
LETE	-8329
icon	-8330
this	-8331
▁Mil	-8332
▁Mom	-8333
▁thy	-8334
apsed	-8335
lings	-8336
▁Mond	-8337
▁nerv	-8338
▁shut	-8339
parser	-8340
▁0.64)	-8341
▁Class	-8342
▁boost	-8343
▁grate	-8344
issance	-8345
plicity	-8346
▁273.15	-8347
▁scream	-8348
▁closest	-8349
▁emotion	-8350
▁routine	-8351
▁withstand	-8352
IOException	-8353
▁relentless	-8354
▁resolution	-8355
82	-8356
rey	-8357
tra	-8358
True	-8359
lang	-8360
sent	-8361
▁Cle	-8362
▁Tex	-8363
▁bes	-8364
▁hang	-8365
▁poly	-8366
server	-8367
▁knock	-8368
▁woods	-8369
▁attrib	-8370
▁conven	-8371
▁illust	-8372
▁nation	-8373
▁proced	-8374
▁remote	-8375
▁readers	-8376
▁altitude	-8377
▁emergency	-8378
▁sarcastic	-8379
▁sentiment	-8380
▁artificial	-8381
=1	-8382
▁,	-8383
bow	-8384
ola	-8385
▁7,	-8386
▁PM	-8387
real	-8388
▁wet	-8389
plays	-8390
▁asce	-8391
choice	-8392
▁loyal	-8393
▁schol	-8394
▁tokam	-8395
orthern	-8396
▁(8.314	-8397
▁marked	-8398
▁shadow	-8399
▁Connect	-8400
▁Several	-8401
▁failure	-8402
▁guidance	-8403
▁schedule	-8404
▁apartment	-8405
▁passenger	-8406
▁physicist	-8407
▁whispered	-8408
▁frequencies	-8409
▁possibility	-8410
AY	-8411
FT	-8412
^3/	-8413
Date	-8414
▁Ash	-8415
▁Key	-8416
▁nur	-8417
adies	-8418
antly	-8419
lines	-8420
uthor	-8421
▁Diff	-8422
▁Sept	-8423
lights	-8424
▁Power	-8425
▁views	-8426
agement	-8427
iveness	-8428
▁Middle	-8429
▁scalar	-8430
▁wonders	-8431
▁indirect	-8432
▁vacation	-8433
▁agreement	-8434
pi	-8435
QCD	-8436
sun	-8437
▁>=	-8438
▁Rs	-8439
pany	-8440
ston	-8441
▁KEY	-8442
▁Sum	-8443
▁pir	-8444
▁piv	-8445
,000.	-8446
Class	-8447
▁anth	-8448
▁teen	-8449
▁aband	-8450
▁genre	-8451
▁prism	-8452
▁puppy	-8453
Thomson	-8454
avering	-8455
fulness	-8456
▁Contin	-8457
▁forced	-8458
▁harmon	-8459
▁solace	-8460
▁Average	-8461
▁methane	-8462
▁percent	-8463
▁stretch	-8464
▁newfound	-8465
▁programs	-8466
▁extensive	-8467
▁continuous	-8468
▁describing	-8469
Dr	-8470
▁(0	-8471
▁3-	-8472
▁3/	-8473
John	-8474
isot	-8475
mark	-8476
note	-8477
cohol	-8478
▁Sing	-8479
▁spat	-8480
▁March	-8481
▁Mathe	-8482
▁curve	-8483
▁tough	-8484
▁10^-10	-8485
▁Health	-8486
▁batter	-8487
▁button	-8488
▁commer	-8489
▁driver	-8490
▁marble	-8491
▁cluster	-8492
▁exhaust	-8493
▁fitness	-8494
▁implies	-8495
▁offered	-8496
▁outcome	-8497
▁parties	-8498
▁invention	-8499
▁commitment	-8500
▁constantly	-8501
▁competition	-8502
▁currentNode	-8503
▁Lo	-8504
▁Ry	-8505
acci	-8506
drop	-8507
flip	-8508
▁50%	-8509
apped	-8510
arded	-8511
ropic	-8512
▁5000	-8513
▁hint	-8514
▁nose	-8515
▁sere	-8516
▁sick	-8517
Design	-8518
▁coins	-8519
▁gauge	-8520
▁stuck	-8521
fective	-8522
▁Detect	-8523
▁criter	-8524
▁enters	-8525
▁melody	-8526
▁unable	-8527
▁Gabriel	-8528
▁younger	-8529
▁ergosphere	-8530
▁quantities	-8531
▁anticipation	-8532
▁technological	-8533
IST	-8534
irp	-8535
▁("	-8536
▁Id	-8537
▁Bat	-8538
▁Box	-8539
▁Sup	-8540
▁pin	-8541
arest	-8542
cache	-8543
eries	-8544
▁Port	-8545
▁Shor	-8546
▁Week	-8547
▁bool	-8548
▁deme	-8549
▁rely	-8550
config	-8551
▁Analy	-8552
▁Print	-8553
▁River	-8554
▁deriv	-8555
▁funds	-8556
▁Invest	-8557
▁casual	-8558
▁reverse	-8559
▁descript	-8560
▁floating	-8561
▁enchanted	-8562
▁happening	-8563
▁revealing	-8564
▁signature	-8565
▁investigate	-8566
43	-8567
FV	-8568
cont	-8569
▁QKD	-8570
▁mit	-8571
▁glan	-8572
▁huge	-8573
▁span	-8574
▁upgr	-8575
author	-8576
versal	-8577
▁(1.05	-8578
▁Light	-8579
▁citiz	-8580
▁expon	-8581
▁trade	-8582
Element	-8583
▁Eiffel	-8584
▁cancer	-8585
▁vehicle	-8586
▁encourage	-8587
▁masterpie	-8588
▁operators	-8589
▁residents	-8590
▁subatomic	-8591
▁simplicity	-8592
▁32	-8593
▁Us	-8594
enny	-8595
rder	-8596
rium	-8597
▁Sea	-8598
▁rul	-8599
▁san	-8600
https	-8601
osaur	-8602
range	-8603
utive	-8604
▁Draw	-8605
▁aims	-8606
▁ease	-8607
▁laby	-8608
▁laid	-8609
▁pier	-8610
▁wand	-8611
Assume	-8612
button	-8613
▁Mount	-8614
▁faith	-8615
▁trace	-8616
▁Divide	-8617
▁bottle	-8618
▁lifest	-8619
▁decades	-8620
▁artistic	-8621
▁charming	-8622
▁demeanor	-8623
▁referred	-8624
▁societal	-8625
▁labyrinth	-8626
▁attractive	-8627
▁implements	-8628
▁unwavering	-8629
▁imagination	-8630
ffe	-8631
ova	-8632
gent	-8633
bling	-8634
usive	-8635
▁Jeff	-8636
▁bind	-8637
▁kiss	-8638
▁tower	-8639
▁victory	-8640
HandleFunc	-8641
▁Similarly	-8642
▁spiritual	-8643
▁businesses	-8644
▁determines	-8645
▁positively	-8646
▁charismatic	-8647
GP	-8648
ki	-8649
oto	-8650
tex	-8651
▁37	-8652
▁az	-8653
▁{}	-8654
lymp	-8655
▁$1,	-8656
▁Mem	-8657
▁cro	-8658
▁fif	-8659
heses	-8660
▁1/(-	-8661
▁sail	-8662
Object	-8663
onacci	-8664
▁metic	-8665
▁spoke	-8666
stances	-8667
▁Joseph	-8668
▁topics	-8669
▁Imagine	-8670
▁beloved	-8671
▁candies	-8672
▁statist	-8673
▁diseases	-8674
▁celebrate	-8675
▁releasing	-8676
▁psychology	-8677
▁underground	-8678
.]	-8679
15)	-8680
amm	-8681
lli	-8682
oqu	-8683
oup	-8684
▁23	-8685
rors	-8686
▁Atl	-8687
▁Wil	-8688
▁fet	-8689
▁mer	-8690
▁pil	-8691
▁vow	-8692
Bloch	-8693
while	-8694
▁Face	-8695
▁Oper	-8696
▁Sign	-8697
▁fest	-8698
▁rust	-8699
culiar	-8700
mptoms	-8701
▁India	-8702
▁defin	-8703
▁grant	-8704
▁shake	-8705
▁desert	-8706
▁nights	-8707
▁relief	-8708
▁reward	-8709
▁roller	-8710
▁storyt	-8711
▁evolved	-8712
▁reposit	-8713
▁texture	-8714
▁campaign	-8715
▁economic	-8716
▁fighting	-8717
▁precious	-8718
▁shopping	-8719
▁supposed	-8720
▁invisible	-8721
▁shielding	-8722
▁physically	-8723
ka	-8724
fly	-8725
pert	-8726
radi	-8727
rone	-8728
▁-10	-8729
▁Mat	-8730
rible	-8731
ugust	-8732
▁Mike	-8733
▁Test	-8734
▁bits	-8735
▁iter	-8736
▁opin	-8737
▁yard	-8738
▁Scott	-8739
▁posts	-8740
▁rocks	-8741
▁souls	-8742
Employee	-8743
▁Spanish	-8744
▁decimal	-8745
▁grating	-8746
▁imagine	-8747
▁newNode	-8748
▁captured	-8749
▁theorems	-8750
▁chromatic	-8751
▁featuring	-8752
▁Furthermore	-8753
▁consistency	-8754
WS	-8755
aled	-8756
▁Due	-8757
▁Jay	-8758
▁Rec	-8759
Usage	-8760
ordon	-8761
tasks	-8762
▁resc	-8763
▁tiss	-8764
script	-8765
▁Press	-8766
▁blast	-8767
▁holog	-8768
▁spell	-8769
▁spont	-8770
▁Thanks	-8771
▁exotic	-8772
▁chamber	-8773
▁contemp	-8774
▁relates	-8775
▁grateful	-8776
▁transfor	-8777
▁deviation	-8778
▁equivalent	-8779
▁responsibility	-8780
63	-8781
OK	-8782
PE	-8783
▁η	-8784
((1	-8785
4).	-8786
700	-8787
[0]	-8788
osh	-8789
iden	-8790
▁Idl	-8791
REATE	-8792
gamma	-8793
ourse	-8794
▁(0.6	-8795
▁2023	-8796
▁User	-8797
▁gate	-8798
router	-8799
second	-8800
▁Brown	-8801
▁flick	-8802
▁honor	-8803
▁north	-8804
▁socks	-8805
aborate	-8806
▁castle	-8807
▁ending	-8808
▁losing	-8809
▁metaph	-8810
▁destroy	-8811
▁helpful	-8812
▁Material	-8813
▁decaying	-8814
▁displays	-8815
▁entrance	-8816
▁introduction	-8817
▁International	-8818
+1)	-8819
riet	-8820
▁10,	-8821
▁Age	-8822
▁Mac	-8823
▁ear	-8824
eness	-8825
▁boat	-8826
▁plus	-8827
▁8.314	-8828
▁Boyle	-8829
▁burst	-8830
▁roles	-8831
atitude	-8832
session	-8833
▁Street	-8834
aturally	-8835
▁Stephen	-8836
ictionary	-8837
inkedList	-8838
▁cleaning	-8839
▁everyday	-8840
▁gathered	-8841
▁kindness	-8842
enaissance	-8843
▁Friedmann	-8844
▁certainly	-8845
▁fictional	-8846
▁highlight	-8847
▁continuing	-8848
ami	-8849
Body	-8850
olic	-8851
▁See	-8852
▁Tok	-8853
▁mad	-8854
▁Long	-8855
▁exit	-8856
Result	-8857
amount	-8858
antity	-8859
ascade	-8860
ilight	-8861
raphic	-8862
▁Olymp	-8863
▁Smith	-8864
▁cache	-8865
▁doubt	-8866
▁grown	-8867
▁homes	-8868
▁queen	-8869
▁spots	-8870
▁horror	-8871
▁tongue	-8872
▁imaging	-8873
▁wedding	-8874
▁contents	-8875
▁frequent	-8876
▁managing	-8877
▁resource	-8878
▁survival	-8879
▁coherence	-8880
▁fractions	-8881
▁promising	-8882
yo	-8883
▁Σ	-8884
:",	-8885
▁2/	-8886
▁[(	-8887
abil	-8888
ains	-8889
elia	-8890
elly	-8891
ench	-8892
hema	-8893
rama	-8894
▁Put	-8895
▁Win	-8896
▁fed	-8897
Build	-8898
▁3.14	-8899
▁Sudd	-8900
▁sees	-8901
^(1/2)	-8902
▁evolve	-8903
▁module	-8904
▁python	-8905
▁revers	-8906
▁Richard	-8907
▁replied	-8908
▁incoming	-8909
▁September	-8910
▁Production	-8911
▁accurately	-8912
▁dimensionless	-8913
sv	-8914
▁∮	-8915
457	-8916
KEY	-8917
Sub	-8918
flu	-8919
▁GM	-8920
▁ol	-8921
ader	-8922
icit	-8923
thur	-8924
uary	-8925
▁Dog	-8926
▁Ele	-8927
▁yog	-8928
ipart	-8929
plane	-8930
▁cash	-8931
▁eleg	-8932
▁thro	-8933
object	-8934
▁Gibbs	-8935
▁acres	-8936
icients	-8937
▁marine	-8938
▁pocket	-8939
ographic	-8940
requency	-8941
▁threads	-8942
▁unravel	-8943
▁10^(-31)	-8944
▁Mountain	-8945
▁pointing	-8946
▁favorable	-8947
▁responses	-8948
${	-8949
GET	-8950
Time	-8951
coin	-8952
iors	-8953
isco	-8954
roph	-8955
stud	-8956
▁$30	-8957
▁Ast	-8958
▁Pal	-8959
inger	-8960
notes	-8961
▁pill	-8962
▁wake	-8963
commit	-8964
ending	-8965
ersity	-8966
ibrium	-8967
isters	-8968
ressed	-8969
▁6.674	-8970
▁Chrom	-8971
▁broke	-8972
elihood	-8973
▁Nature	-8974
▁insect	-8975
▁rented	-8976
▁subtle	-8977
▁Germany	-8978
▁collide	-8979
▁traffic	-8980
▁unicorn	-8981
▁willing	-8982
▁Universe	-8983
▁consumer	-8984
▁harmonic	-8985
▁approached	-8986
▁difficulty	-8987
▁everywhere	-8988
▁Description	-8989
▁contraction	-8990
▁tranquility	-8991
PD	-8992
Don	-8993
▁['	-8994
▁od	-8995
dest	-8996
hips	-8997
wind	-8998
▁Sat	-8999
izers	-9000
▁(500	-9001
▁conv	-9002
▁mostly	-9003
▁punctu	-9004
▁serene	-9005
▁weapons	-9006
▁explains	-9007
▁invented	-9008
▁efficiently	-9009
("\	-9010
▁(15	-9011
▁Ask	-9012
▁kne	-9013
onium	-9014
phone	-9015
▁1/10	-9016
▁1500	-9017
▁Coul	-9018
▁infl	-9019
▁trig	-9020
▁Dream	-9021
appoint	-9022
▁breaks	-9023
▁forens	-9024
▁margin	-9025
▁neglig	-9026
▁phrase	-9027
▁sqlite	-9028
▁Charlie	-9029
▁elapsed	-9030
▁Suddenly	-9031
▁calories	-9032
▁mystical	-9033
▁repeated	-9034
▁platforms	-9035
▁mathematic	-9036
▁monitoring	-9037
▁assumptions	-9038
▁programming	-9039
▁publication	-9040
▁wavelengths	-9041
▁coefficients	-9042
=3	-9043
▁∆	-9044
ING	-9045
^2.	-9046
bor	-9047
epy	-9048
uis	-9049
▁52	-9050
▁Bo	-9051
▁je	-9052
comm	-9053
▁Mad	-9054
▁bub	-9055
▁tem	-9056
aylor	-9057
flies	-9058
poses	-9059
ville	-9060
▁Dick	-9061
▁batt	-9062
▁sway	-9063
forest	-9064
minute	-9065
▁Claus	-9066
▁Guide	-9067
▁meets	-9068
essions	-9069
▁worlds	-9070
▁African	-9071
▁echoing	-9072
▁expanse	-9073
▁seasons	-9074
▁peculiar	-9075
▁Christmas	-9076
▁artifacts	-9077
▁expanding	-9078
▁shimmering	-9079
▁demonstrates	-9080
}$	-9081
��	-9082
ARY	-9083
^4)	-9084
ett	-9085
olt	-9086
rid	-9087
edia	-9088
type	-9089
▁Del	-9090
▁Pac	-9091
route	-9092
▁Brew	-9093
▁HTML	-9094
▁duck	-9095
▁shed	-9096
erring	-9097
minist	-9098
▁champ	-9099
▁arrang	-9100
▁treats	-9101
dynamics	-9102
▁survive	-9103
▁winning	-9104
directory	-9105
▁Examples	-9106
▁supernova	-9107
▁passionate	-9108
▁references	-9109
▁Renaissance	-9110
▁equilibrium	-9111
▁conductivity	-9112
1/	-9113
2;	-9114
On	-9115
API	-9116
▁0°	-9117
▁AT	-9118
▁Sk	-9119
aron	-9120
▁Att	-9121
▁Emb	-9122
▁Fin	-9123
earth	-9124
eling	-9125
times	-9126
▁1200	-9127
▁arom	-9128
▁blob	-9129
▁desk	-9130
▁oven	-9131
Button	-9132
▁Could	-9133
▁False	-9134
balance	-9135
ongoose	-9136
▁101325	-9137
▁Monday	-9138
▁Zeeman	-9139
▁honest	-9140
▁immers	-9141
▁riddle	-9142
▁uncover	-9143
▁absolute	-9144
▁choosing	-9145
▁consumed	-9146
▁revealed	-9147
▁romantic	-9148
▁gradually	-9149
▁mythology	-9150
▁protection	-9151
▁consequence	-9152
▁established	-9153
)|	-9154
LEx	-9155
how	-9156
nic	-9157
rab	-9158
uch	-9159
▁);	-9160
▁26	-9161
ABLE	-9162
isms	-9163
oper	-9164
uman	-9165
▁Did	-9166
neath	-9167
users	-9168
▁Mott	-9169
▁math	-9170
▁menu	-9171
mother	-9172
parent	-9173
▁fleet	-9174
▁hydro	-9175
▁reign	-9176
▁covers	-9177
▁excite	-9178
▁lyrics	-9179
▁senses	-9180
▁severe	-9181
▁justice	-9182
▁proceed	-9183
▁writers	-9184
▁soothing	-9185
▁paintings	-9186
▁accomplish	-9187
hot	-9188
▁5-	-9189
oise	-9190
true	-9191
viol	-9192
▁$50	-9193
▁190	-9194
▁201	-9195
▁Air	-9196
▁EPR	-9197
▁Fro	-9198
▁jew	-9199
otted	-9200
▁Food	-9201
▁bold	-9202
▁flip	-9203
▁gray	-9204
▁soup	-9205
▁parks	-9206
▁renew	-9207
▁Define	-9208
▁Design	-9209
locality	-9210
▁patience	-9211
▁stunning	-9212
▁defective	-9213
▁endpoints	-9214
▁interests	-9215
▁Efficiency	-9216
▁communicate	-9217
▁exponential	-9218
93	-9219
ACT	-9220
▁AD	-9221
▁CH	-9222
▁om	-9223
QLEx	-9224
ctic	-9225
ilit	-9226
rino	-9227
▁Lin	-9228
▁mig	-9229
▁reb	-9230
▁tur	-9231
arity	-9232
culpt	-9233
▁Conf	-9234
▁Prof	-9235
▁corn	-9236
▁Stone	-9237
▁nutri	-9238
▁offic	-9239
Manager	-9240
▁Annual	-9241
▁Second	-9242
▁hoping	-9243
▁shells	-9244
▁Install	-9245
▁dropped	-9246
▁episode	-9247
▁triumph	-9248
▁independ	-9249
▁purposes	-9250
▁settings	-9251
fortunately	-9252
▁restaurants	-9253
▁annihilation	-9254
▁interpretation	-9255
▁‘	-9256
').	-9257
▁AM	-9258
▁Er	-9259
▁TO	-9260
omer	-9261
▁25%	-9262
▁hal	-9263
rices	-9264
▁Chic	-9265
▁bark	-9266
astern	-9267
father	-9268
greSQL	-9269
▁Darcy	-9270
▁harsh	-9271
process	-9272
▁define	-9273
▁echoes	-9274
▁lonely	-9275
vantages	-9276
▁Kingdom	-9277
▁centrif	-9278
▁neither	-9279
▁promote	-9280
▁findings	-9281
▁manifest	-9282
▁unstable	-9283
▁forgotten	-9284
▁promoting	-9285
▁threshold	-9286
▁Additional	-9287
▁quantization	-9288
▁singularities	-9289
inc	-9290
rec	-9291
Sort	-9292
exit	-9293
▁bab	-9294
▁lau	-9295
▁tab	-9296
stone	-9297
▁Lake	-9298
▁brow	-9299
▁coat	-9300
▁flag	-9301
▁lake	-9302
▁prem	-9303
ussion	-9304
▁faint	-9305
▁knack	-9306
▁Africa	-9307
▁etched	-9308
▁compact	-9309
▁European	-9310
▁memorable	-9311
▁movements	-9312
QLException	-9313
▁likelihood	-9314
2_	-9315
5%	-9316
1))	-9317
^2,	-9318
see	-9319
▁Je	-9320
▁da	-9321
anta	-9322
engu	-9323
▁0),	-9324
▁NMR	-9325
alpha	-9326
▁Fran	-9327
ioxide	-9328
▁10^31	-9329
▁cabin	-9330
▁exclu	-9331
actions	-9332
comfort	-9333
▁(9.109	-9334
▁Arthur	-9335
▁Mexico	-9336
▁Reason	-9337
▁buying	-9338
▁pepper	-9339
▁solved	-9340
▁shaping	-9341
▁spacing	-9342
▁10^(-11)	-9343
▁chickens	-9344
▁infinity	-9345
▁symptoms	-9346
▁PostgreSQL	-9347
▁excitation	-9348
▁originally	-9349
▁constraints	-9350
▁instructions	-9351
▁storytelling	-9352
▁wavefunction	-9353
4]	-9354
++;	-9355
2):	-9356
eor	-9357
win	-9358
▁198	-9359
▁Ens	-9360
▁Ray	-9361
▁gun	-9362
▁nan	-9363
atoes	-9364
gluon	-9365
ratic	-9366
▁(1.4	-9367
▁cave	-9368
▁dess	-9369
▁inqu	-9370
▁Franc	-9371
▁Texas	-9372
▁codes	-9373
▁parse	-9374
▁pitch	-9375
▁south	-9376
▁towns	-9377
Balance	-9378
arriage	-9379
▁Effect	-9380
▁absorb	-9381
▁saving	-9382
........	-9383
▁Coulomb	-9384
▁absence	-9385
▁comment	-9386
▁corners	-9387
▁harness	-9388
▁journal	-9389
▁muscles	-9390
▁reconst	-9391
▁ripples	-9392
▁occasion	-9393
▁detective	-9394
▁gathering	-9395
▁conducting	-9396
▁architectural	-9397
1>	-9398
OL	-9399
-19	-9400
Eng	-9401
▁$25	-9402
erent	-9403
green	-9404
▁Born	-9405
▁asks	-9406
▁mice	-9407
angers	-9408
▁gluon	-9409
▁penet	-9410
berries	-9411
▁Claude	-9412
▁prints	-9413
▁struck	-9414
▁lessons	-9415
▁planned	-9416
▁profile	-9417
▁spatial	-9418
▁transce	-9419
▁packages	-9420
▁retrieve	-9421
▁capacitor	-9422
▁decisions	-9423
▁religious	-9424
0⟩	-9425
Ed	-9426
div	-9427
▁Ir	-9428
anas	-9429
plan	-9430
soft	-9431
yron	-9432
▁2.4	-9433
▁Lit	-9434
▁Way	-9435
storm	-9436
▁leaf	-9437
listen	-9438
taking	-9439
▁Hawai	-9440
▁dwarf	-9441
▁inval	-9442
▁spins	-9443
▁squir	-9444
▁straw	-9445
esearch	-9446
▁August	-9447
▁preser	-9448
▁refres	-9449
▁scheme	-9450
▁territ	-9451
▁MongoDB	-9452
▁accepts	-9453
▁careful	-9454
▁elastic	-9455
▁hearing	-9456
operation	-9457
▁barriers	-9458
▁Alexander	-9459
▁lifestyle	-9460
▁perception	-9461
▁preventing	-9462
▁previously	-9463
={	-9464
Box	-9465
bled	-9466
kind	-9467
page	-9468
▁40.	-9469
▁50°	-9470
▁Cap	-9471
akers	-9472
oulli	-9473
years	-9474
▁Chat	-9475
▁copy	-9476
▁leap	-9477
▁link	-9478
▁Young	-9479
▁emits	-9480
▁guest	-9481
▁lands	-9482
▁revel	-9483
▁purple	-9484
▁scared	-9485
▁scenes	-9486
09/15/17	-9487
argument	-9488
▁Example	-9489
▁October	-9490
▁dioxide	-9491
▁nervous	-9492
▁nestled	-9493
▁outline	-9494
▁putting	-9495
▁Research	-9496
▁visiting	-9497
▁regularly	-9498
▁suggested	-9499
▁advantages	-9500
▁dedication	-9501
▁attractions	-9502
▁oscillation	-9503
▁perturbation	-9504
'])	-9505
▁(7	-9506
▁$0.	-9507
▁Ros	-9508
▁Wat	-9509
▁pod	-9510
Total	-9511
Where	-9512
split	-9513
▁Appe	-9514
▁trib	-9515
cursor	-9516
▁Apply	-9517
▁Place	-9518
▁TABLE	-9519
▁lying	-9520
▁stops	-9521
▁enjoys	-9522
▁sculpt	-9523
▁disturb	-9524
▁immense	-9525
▁nucleon	-9526
▁origins	-9527
▁workout	-9528
▁Advanced	-9529
▁facility	-9530
▁inviting	-9531
▁keywords	-9532
▁medicine	-9533
▁strengths	-9534
ups	-9535
strö	-9536
▁Blo	-9537
▁cop	-9538
▁jet	-9539
▁tum	-9540
▁furn	-9541
▁load	-9542
▁dough	-9543
▁prompt	-9544
▁thinks	-9545
cosystem	-9546
tenuation	-9547
▁collider	-9548
▁dramatic	-9549
▁magneton	-9550
▁maximize	-9551
▁reduction	-9552
▁secondary	-9553
▁Revolution	-9554
▁influences	-9555
▁protagonist	-9556
ura	-9557
Next	-9558
code	-9559
iture	-9560
lowly	-9561
ollow	-9562
▁(2.5	-9563
▁buff	-9564
▁duty	-9565
▁lean	-9566
redict	-9567
rument	-9568
shaped	-9569
tweets	-9570
▁Maria	-9571
▁remem	-9572
apeyron	-9573
verting	-9574
▁Daniel	-9575
▁Empire	-9576
▁beings	-9577
▁peanut	-9578
▁sunset	-9579
▁tender	-9580
▁winner	-9581
iability	-9582
▁Whether	-9583
▁decides	-9584
▁recipes	-9585
Extractor	-9586
▁balanced	-9587
▁deleting	-9588
▁inherent	-9589
▁twilight	-9590
▁Bernoulli	-9591
▁ecosystem	-9592
▁libraries	-9593
▁regarding	-9594
▁superhero	-9595
▁supported	-9596
▁deviations	-9597
▁instrument	-9598
▁celebration	-9599
▁contemporary	-9600
[#	-9601
"))	-9602
src	-9603
▁33	-9604
▁Ca	-9605
▁IN	-9606
grid	-9607
lein	-9608
▁LFV	-9609
▁PRI	-9610
▁dru	-9611
▁ven	-9612
▁1960	-9613
▁Fire	-9614
▁nine	-9615
▁scan	-9616
▁worn	-9617
handed	-9618
▁Build	-9619
▁colon	-9620
▁fairy	-9621
▁gases	-9622
▁append	-9623
▁circul	-9624
▁Physics	-9625
▁empathy	-9626
▁roughly	-9627
▁Facebook	-9628
▁Students	-9629
▁prediction	-9630
▁discussions	-9631
km	-9632
7.5	-9633
Tra	-9634
POST	-9635
Stud	-9636
oral	-9637
▁22.	-9638
▁Eve	-9639
▁hes	-9640
▁unl	-9641
ailed	-9642
▁$500	-9643
▁Disc	-9644
▁pace	-9645
▁rank	-9646
▁synt	-9647
cember	-9648
▁conqu	-9649
▁shine	-9650
▁urban	-9651
▁Center	-9652
▁curves	-9653
▁Uranium	-9654
▁equally	-9655
Clapeyron	-9656
▁Clausius	-9657
▁colorful	-9658
▁duration	-9659
▁sessions	-9660
▁musicians	-9661
▁spectacle	-9662
▁thrilling	-9663
▁consisting	-9664
▁disappoint	-9665
▁profession	-9666
▁Observations	-9667
▁computational	-9668
▁groundbreaking	-9669
One	-9670
▁Ut	-9671
atto	-9672
ifer	-9673
imit	-9674
just	-9675
mpty	-9676
rary	-9677
uity	-9678
▁Non	-9679
agers	-9680
orean	-9681
ström	-9682
▁(0.9	-9683
▁Beat	-9684
▁evil	-9685
▁pray	-9686
▁vert	-9687
issner	-9688
resent	-9689
▁Flask	-9690
▁pasta	-9691
athetic	-9692
▁credit	-9693
▁finger	-9694
▁sorrow	-9695
connected	-9696
▁entering	-9697
▁inertial	-9698
▁massless	-9699
▁validity	-9700
▁couplings	-9701
▁gratitude	-9702
▁subjected	-9703
▁credentials	-9704
▁inhabitants	-9705
▁statistical	-9706
yr	-9707
854	-9708
bot	-9709
gov	-9710
▁6:	-9711
MARY	-9712
Nord	-9713
task	-9714
▁20,	-9715
▁4.0	-9716
▁Bow	-9717
▁Pop	-9718
▁jar	-9719
▁mim	-9720
ppers	-9721
▁Down	-9722
▁Hand	-9723
▁auto	-9724
▁keen	-9725
INSERT	-9726
▁Malus	-9727
▁Satur	-9728
▁cheer	-9729
▁crust	-9730
▁drops	-9731
▁frust	-9732
▁winds	-9733
▁bigger	-9734
▁danced	-9735
▁losses	-9736
▁recall	-9737
▁January	-9738
▁deposit	-9739
▁monitor	-9740
Nordström	-9741
▁intended	-9742
▁ionizing	-9743
▁selected	-9744
▁updating	-9745
▁vehicles	-9746
▁Australia	-9747
▁obstacles	-9748
▁Appearance	-9749
▁compassion	-9750
▁discrepancy	-9751
▁instruments	-9752
▁electrodynamics	-9753
SS	-9754
Su	-9755
li	-9756
eur	-9757
lay	-9758
ped	-9759
(500	-9760
ARCH	-9761
aret	-9762
cold	-9763
▁api	-9764
▁toy	-9765
archy	-9766
axial	-9767
rence	-9768
▁Side	-9769
▁alle	-9770
▁roof	-9771
▁sink	-9772
▁Hours	-9773
▁delay	-9774
▁Forest	-9775
▁Return	-9776
▁paying	-9777
▁calling	-9778
▁enjoyed	-9779
▁anywhere	-9780
▁drinking	-9781
▁lighting	-9782
▁partners	-9783
▁scenarios	-9784
▁seemingly	-9785
▁commercial	-9786
▁compelling	-9787
▁meditation	-9788
▁compression	-9789
▁holographic	-9790
▁photography	-9791
▁organization	-9792
▁circumstances	-9793
▁distributions	-9794
▁Mathematically	-9795
/{	-9796
−1	-9797
'],	-9798
294	-9799
run	-9800
appy	-9801
vely	-9802
▁Ben	-9803
▁Bur	-9804
▁Est	-9805
▁Net	-9806
▁anc	-9807
Table	-9808
alous	-9809
arant	-9810
▁Bank	-9811
▁Call	-9812
▁Cast	-9813
▁Gard	-9814
▁Lisa	-9815
▁Wall	-9816
▁cuis	-9817
▁endl	-9818
porate	-9819
▁Impro	-9820
▁comic	-9821
▁enemy	-9822
▁exert	-9823
▁juice	-9824
▁wheel	-9825
▁beacon	-9826
▁native	-9827
▁unfold	-9828
▁despair	-9829
▁manager	-9830
▁Reissner	-9831
▁landscap	-9832
▁sandwich	-9833
▁siblings	-9834
▁terminal	-9835
▁accidents	-9836
▁tradition	-9837
▁negligible	-9838
▁Observatory	-9839
▁Personality	-9840
Dec	-9841
phe	-9842
▁QA	-9843
^-2)	-9844
arry	-9845
▁10)	-9846
▁Cel	-9847
▁haz	-9848
Using	-9849
▁bone	-9850
▁brid	-9851
▁crim	-9852
▁jobs	-9853
▁recy	-9854
▁thou	-9855
▁Among	-9856
▁Brian	-9857
▁flora	-9858
osition	-9859
▁rivers	-9860
▁$10,000	-9861
▁Chicago	-9862
▁alcohol	-9863
▁operate	-9864
aboration	-9865
▁perceive	-9866
▁breathing	-9867
▁colliding	-9868
▁extension	-9869
▁returning	-9870
▁analytical	-9871
▁comparison	-9872
▁containers	-9873
Br	-9874
bi	-9875
▁Ω	-9876
aper	-9877
city	-9878
inis	-9879
itty	-9880
last	-9881
rous	-9882
▁pit	-9883
build	-9884
white	-9885
▁Lear	-9886
▁lush	-9887
▁mush	-9888
▁stom	-9889
ritium	-9890
▁Jerry	-9891
▁Month	-9892
▁Music	-9893
▁chron	-9894
▁delve	-9895
▁thumb	-9896
Methods	-9897
▁Weight	-9898
▁thanks	-9899
stematic	-9900
▁Convert	-9901
▁elusive	-9902
▁employed	-9903
▁releases	-9904
▁removing	-9905
▁thoughtful	-9906
▁incorporate	-9907
ano	-9908
nzo	-9909
rup	-9910
▁65	-9911
They	-9912
▁Squ	-9913
color	-9914
inson	-9915
▁1.05	-9916
▁HTTP	-9917
▁Temp	-9918
▁Walk	-9919
▁buzz	-9920
▁prey	-9921
orough	-9922
yellow	-9923
▁Found	-9924
▁Never	-9925
▁grows	-9926
▁10^-13	-9927
▁Choose	-9928
▁finite	-9929
▁gaming	-9930
▁robust	-9931
▁acquire	-9932
▁greatly	-9933
▁heavens	-9934
▁portion	-9935
▁December	-9936
▁adjacent	-9937
▁citizens	-9938
▁emitting	-9939
▁Americans	-9940
▁surprised	-9941
▁combustion	-9942
▁dictionary	-9943
▁preferences	-9944
"?	-9945
5]	-9946
Dir	-9947
RED	-9948
ema	-9949
▁29	-9950
1/2)	-9951
Word	-9952
▁mac	-9953
alary	-9954
break	-9955
▁toil	-9956
ARCHAR	-9957
▁Micro	-9958
▁blind	-9959
▁recur	-9960
▁shout	-9961
faction	-9962
▁Friday	-9963
▁arrive	-9964
▁legacy	-9965
▁orbits	-9966
▁unlock	-9967
▁PRIMARY	-9968
▁stepped	-9969
▁attached	-9970
▁launched	-9971
▁properly	-9972
getMessage	-9973
▁companion	-9974
▁simulates	-9975
▁compressed	-9976
▁participate	-9977
▁increasingly	-9978
▁participants	-9979
"{	-9980
bel	-9981
beat	-9982
bsol	-9983
▁GHz	-9984
▁ath	-9985
▁gar	-9986
▁Dear	-9987
▁fulf	-9988
▁purs	-9989
filter	-9990
iences	-9991
▁Begin	-9992
▁fence	-9993
▁showc	-9994
ovember	-9995
▁Barber	-9996
▁Disney	-9997
▁Little	-9998
▁School	-9999
▁fought	-10000
▁guided	-10001
▁hiking	-10002
▁relies	-10003
filename	-10004
▁economy	-10005
▁founded	-10006
▁reduces	-10007
▁homogene	-10008
▁thousand	-10009
▁exercises	-10010
▁forensics	-10011
▁subtraction	-10012
LR	-10013
Per	-10014
__(	-10015
uce	-10016
zes	-10017
▁"\	-10018
▁fi	-10019
▁Bit	-10020
▁bst	-10021
asted	-10022
cakes	-10023
itage	-10024
ports	-10025
▁Lucy	-10026
▁Only	-10027
▁moss	-10028
double	-10029
▁(0.00	-10030
▁token	-10031
▁vital	-10032
Quantum	-10033
▁10^-18	-10034
▁facing	-10035
▁killed	-10036
▁safely	-10037
▁thirst	-10038
▁transl	-10039
▁clearly	-10040
▁holiday	-10041
▁squared	-10042
▁tokamak	-10043
▁Particle	-10044
▁expanded	-10045
▁promises	-10046
▁proposal	-10047
▁collapses	-10048
▁conserved	-10049
▁sophisticated	-10050
Be	-10051
MA	-10052
}:	-10053
ASA	-10054
awa	-10055
yon	-10056
▁-2	-10057
▁EX	-10058
(200	-10059
JSON	-10060
illy	-10061
▁dad	-10062
▁dol	-10063
cknow	-10064
erves	-10065
▁Bene	-10066
▁East	-10067
▁Resp	-10068
▁puts	-10069
DELETE	-10070
Encode	-10071
▁Inside	-10072
▁Mother	-10073
▁agreed	-10074
▁comedy	-10075
▁dining	-10076
▁freely	-10077
▁strain	-10078
▁strike	-10079
▁Account	-10080
▁VARCHAR	-10081
▁suppose	-10082
ventional	-10083
▁Everyone	-10084
▁checking	-10085
▁discrete	-10086
ifications	-10087
▁contained	-10088
▁densities	-10089
▁expertise	-10090
▁recognized	-10091
▁approximate	-10092
▁intelligent	-10093
▁experiencing	-10094
▁supersymmetry	-10095
[1	-10096
cd	-10097
anz	-10098
▁TE	-10099
anch	-10100
azed	-10101
long	-10102
mile	-10103
semb	-10104
▁Ron	-10105
▁Sus	-10106
▁mob	-10107
▁wel	-10108
apple	-10109
asses	-10110
cling	-10111
ishes	-10112
never	-10113
▁0.99	-10114
▁1/30	-10115
▁2019	-10116
▁Dist	-10117
▁Lady	-10118
▁Save	-10119
▁glad	-10120
▁tent	-10121
achers	-10122
height	-10123
▁bears	-10124
▁coach	-10125
▁prove	-10126
▁shore	-10127
▁Ashley	-10128
▁lowest	-10129
▁mesmer	-10130
▁spends	-10131
▁diagram	-10132
▁minimal	-10133
▁thunder	-10134
▁vanilla	-10135
Summarize	-10136
employees	-10137
▁November	-10138
▁Republic	-10139
▁Character	-10140
▁astronomy	-10141
▁enigmatic	-10142
▁absolutely	-10143
▁foundation	-10144
▁attenuation	-10145
▁correlation	-10146
▁implementing	-10147
td	-10148
uda	-10149
▁Sy	-10150
born	-10151
erts	-10152
lend	-10153
▁"))	-10154
▁(25	-10155
▁pic	-10156
▁por	-10157
Event	-10158
black	-10159
separ	-10160
▁Game	-10161
▁Site	-10162
▁Spec	-10163
▁ende	-10164
▁hier	-10165
▁jung	-10166
▁rods	-10167
▁Input	-10168
▁globe	-10169
ionship	-10170
ructive	-10171
▁banana	-10172
▁bubble	-10173
▁weekly	-10174
▁RESTful	-10175
▁assumes	-10176
▁beliefs	-10177
▁propose	-10178
▁vacancy	-10179
▁culinary	-10180
▁interfer	-10181
▁mistakes	-10182
▁legendary	-10183
application	-10184
rastructure	-10185
▁discussion	-10186
(5	-10187
▁Å	-10188
1).	-10189
oor	-10190
}",	-10191
..."	-10192
Task	-10193
mode	-10194
ucky	-10195
▁Clu	-10196
▁Hem	-10197
▁Pul	-10198
▁asp	-10199
▁fee	-10200
45718	-10201
Empty	-10202
arlic	-10203
oning	-10204
otion	-10205
▁Rest	-10206
▁Tell	-10207
▁coal	-10208
▁pine	-10209
▁sigh	-10210
values	-10211
▁Error	-10212
▁Klein	-10213
▁fewer	-10214
▁fuels	-10215
▁joint	-10216
▁likes	-10217
▁Briggs	-10218
▁pursue	-10219
▁Scanner	-10220
▁dealing	-10221
▁outdoor	-10222
defective	-10223
▁climbing	-10224
▁extended	-10225
▁Beautiful	-10226
▁chemistry	-10227
▁purchased	-10228
▁discoveries	-10229
=$	-10230
BC	-10231
sk	-10232
-12	-10233
USY	-10234
▁Sl	-10235
olen	-10236
▁(60	-10237
▁Flu	-10238
▁Hog	-10239
▁Hor	-10240
▁QED	-10241
event	-10242
tally	-10243
▁NASA	-10244
▁Nova	-10245
▁cozy	-10246
▁nuts	-10247
▁pand	-10248
System	-10249
cipher	-10250
orders	-10251
racted	-10252
▁Would	-10253
▁arise	-10254
▁drama	-10255
▁goods	-10256
▁hasht	-10257
package	-10258
quality	-10259
ugation	-10260
▁autumn	-10261
▁invite	-10262
▁phases	-10263
changing	-10264
ologists	-10265
▁Harriet	-10266
▁benefit	-10267
▁venture	-10268
▁09/15/17	-10269
▁Describe	-10270
▁Saturday	-10271
▁baseball	-10272
▁dinosaur	-10273
▁sleeping	-10274
▁combining	-10275
▁lightning	-10276
▁definitely	-10277
▁structural	-10278
relativistic	-10279
▁centimeters	-10280
▁expectation	-10281
▁appreciation	-10282
▁thoughtfully	-10283
----------------	-10284
49	-10285
BF	-10286
QA	-10287
isy	-10288
mem	-10289
vol	-10290
▁CN	-10291
Open	-10292
olis	-10293
▁125	-10294
▁Wid	-10295
▁que	-10296
clear	-10297
▁Fuel	-10298
▁Mean	-10299
▁Rose	-10300
▁bars	-10301
states	-10302
▁Myers	-10303
▁dates	-10304
▁eloqu	-10305
▁verse	-10306
atching	-10307
pending	-10308
▁Newton	-10309
▁divine	-10310
▁printf	-10311
▁pushed	-10312
▁exposed	-10313
▁elephant	-10314
▁childhood	-10315
▁naturally	-10316
▁repulsive	-10317
▁sustained	-10318
▁variations	-10319
▁Simplifying	-10320
91	-10321
cp	-10322
fe	-10323
("%	-10324
len	-10325
6.67	-10326
Good	-10327
TEXT	-10328
cerr	-10329
otta	-10330
▁-1.	-10331
▁2.7	-10332
▁24.	-10333
▁450	-10334
▁Wik	-10335
actic	-10336
agnet	-10337
ushes	-10338
▁2012	-10339
▁Date	-10340
▁bulb	-10341
▁hate	-10342
▁rice	-10343
▁5,000	-10344
▁Array	-10345
▁chase	-10346
▁invar	-10347
▁nodes	-10348
▁tries	-10349
through	-10350
▁Taylor	-10351
▁antiqu	-10352
▁border	-10353
▁videos	-10354
▁Measure	-10355
▁Western	-10356
▁biology	-10357
▁dollars	-10358
▁dressed	-10359
▁pushing	-10360
▁singing	-10361
▁Leonardo	-10362
▁attempts	-10363
▁enjoying	-10364
▁filename	-10365
▁reflects	-10366
antimatter	-10367
▁therefore	-10368
▁classified	-10369
▁contributes	-10370
▁masterpiece	-10371
▁transformed	-10372
▁gyromagnetic	-10373
▁perspectives	-10374
▁incorporating	-10375
'_	-10376
83	-10377
CF	-10378
CMB	-10379
gia	-10380
isp	-10381
ums	-10382
ylv	-10383
ovie	-10384
quit	-10385
than	-10386
▁Top	-10387
▁plt	-10388
asant	-10389
files	-10390
▁Jour	-10391
▁foil	-10392
▁wash	-10393
istant	-10394
phones	-10395
▁Ident	-10396
▁Steve	-10397
▁Vinci	-10398
▁eaves	-10399
▁scary	-10400
▁theat	-10401
Encoder	-10402
Service	-10403
▁Spring	-10404
▁Vector	-10405
▁trends	-10406
▁turtle	-10407
▁vessel	-10408
▁Compton	-10409
▁Lorenzo	-10410
▁disrupt	-10411
▁eternal	-10412
▁intertw	-10413
▁jsonify	-10414
▁persist	-10415
▁hundreds	-10416
▁restrict	-10417
▁abandoned	-10418
▁inventory	-10419
▁universal	-10420
▁Initialize	-10421
▁beneficial	-10422
55	-10423
BA	-10424
Hf	-10425
lib	-10426
▁-(	-10427
Come	-10428
ertz	-10429
iers	-10430
rise	-10431
turn	-10432
▁(16	-10433
▁(19	-10434
▁Met	-10435
▁eru	-10436
BEGIN	-10437
lived	-10438
▁Deep	-10439
▁enab	-10440
▁pour	-10441
▁puls	-10442
public	-10443
terday	-10444
upload	-10445
▁(0.01	-10446
▁alike	-10447
▁lemon	-10448
▁salad	-10449
CONTEXT	-10450
looking	-10451
ocument	-10452
vention	-10453
▁luxury	-10454
▁miscon	-10455
▁consume	-10456
▁deliver	-10457
▁forests	-10458
▁healing	-10459
▁sending	-10460
▁staying	-10461
▁varying	-10462
▁ENDINPUT	-10463
▁concrete	-10464
▁marriage	-10465
BEGININPUT	-10466
▁sparkling	-10467
temperature	-10468
▁Literature	-10469
▁extraction	-10470
▁philosophy	-10471
▁parentheses	-10472
▁ENDINSTRUCTION	-10473
.*;	-10474
0:]	-10475
2^2	-10476
ipe	-10477
rat	-10478
prev	-10479
▁aid	-10480
▁dir	-10481
▁tip	-10482
▁Come	-10483
▁Flow	-10484
▁Page	-10485
▁guys	-10486
▁hits	-10487
▁wolf	-10488
laimed	-10489
remove	-10490
▁Virgo	-10491
▁lumin	-10492
▁sends	-10493
▁steep	-10494
▁wound	-10495
ryption	-10496
▁Batman	-10497
▁acknow	-10498
▁shower	-10499
▁widget	-10500
▁blanket	-10501
▁briefly	-10502
▁feather	-10503
▁mischie	-10504
▁playful	-10505
▁backdrop	-10506
▁recorded	-10507
▁supplies	-10508
NewEncoder	-10509
▁molecular	-10510
▁collective	-10511
▁demonstrate	-10512
▁breathtaking	-10513
▁inequalities	-10514
▁Unfortunately	-10515
dE	-10516
mar	-10517
▁$4	-10518
info	-10519
utor	-10520
zzle	-10521
▁6.0	-10522
▁Doe	-10523
▁Fut	-10524
▁ske	-10525
Given	-10526
maker	-10527
▁dare	-10528
▁diss	-10529
▁About	-10530
▁chess	-10531
▁radii	-10532
▁swing	-10533
▁woven	-10534
ificent	-10535
perture	-10536
▁Golden	-10537
▁joined	-10538
▁loving	-10539
olarized	-10540
▁invited	-10541
▁mirrors	-10542
▁believes	-10543
▁football	-10544
▁tomatoes	-10545
▁Victorian	-10546
asticsearch	-10547
▁accelerate	-10548
▁simplified	-10549
▁subsequent	-10550
▁grandmother	-10551
ioluminescent	-10552
▁manufacturing	-10553
<>	-10554
img	-10555
rol	-10556
ysc	-10557
▁Kn	-10558
▁Mo	-10559
▁dt	-10560
▁ha	-10561
▁1/3	-10562
▁4.5	-10563
▁Cir	-10564
▁Unt	-10565
Model	-10566
ennis	-10567
▁(3.0	-10568
▁Prin	-10569
▁Prom	-10570
▁debt	-10571
▁unpa	-10572
▁(1.67	-10573
▁(4/3)	-10574
▁Again	-10575
▁chart	-10576
▁exped	-10577
▁gramm	-10578
▁setup	-10579
▁Holmes	-10580
▁Yellow	-10581
▁barely	-10582
▁blocks	-10583
▁debate	-10584
▁lesson	-10585
▁prison	-10586
▁strive	-10587
idential	-10588
▁Science	-10589
▁Storage	-10590
▁arrival	-10591
▁circles	-10592
▁matches	-10593
▁10^(-12)	-10594
▁adversity	-10595
▁timestamp	-10596
▁observable	-10597
▁popularity	-10598
▁underwater	-10599
▁spherically	-10600
▁descriptions	-10601
!!	-10602
(0	-10603
(9	-10604
74	-10605
=2	-10606
IL	-10607
0.5	-10608
3.5	-10609
cin	-10610
Step	-10611
also	-10612
foot	-10613
mend	-10614
rely	-10615
▁Des	-10616
▁Equ	-10617
▁Feb	-10618
▁arc	-10619
▁csv	-10620
cking	-10621
dberg	-10622
essor	-10623
gebra	-10624
gener	-10625
pense	-10626
▁4.18	-10627
▁adop	-10628
▁hbar	-10629
(404).	-10630
Gordon	-10631
▁Those	-10632
▁Tokyo	-10633
▁moons	-10634
▁pengu	-10635
protons	-10636
ropical	-10637
▁Canada	-10638
▁intent	-10639
▁lovely	-10640
▁Rydberg	-10641
▁grammar	-10642
▁warning	-10643
▁Electron	-10644
▁dominant	-10645
▁hadronic	-10646
▁mongoose	-10647
▁broadcast	-10648
▁attraction	-10649
▁meaningful	-10650
▁containment	-10651
▁chromodynamics	-10652
▁infrastructure	-10653
EO	-10654
Ps	-10655
dro	-10656
▁Vi	-10657
cery	-10658
tery	-10659
yard	-10660
▁10-	-10661
▁ate	-10662
▁fox	-10663
▁twe	-10664
olean	-10665
▁$200	-10666
▁1980	-10667
▁Card	-10668
▁Gand	-10669
▁appl	-10670
▁bees	-10671
▁cott	-10672
▁fare	-10673
adding	-10674
▁actor	-10675
▁aside	-10676
▁moist	-10677
▁shirt	-10678
▁tatto	-10679
▁Commun	-10680
▁diverg	-10681
▁equals	-10682
▁gender	-10683
▁mainly	-10684
▁sodium	-10685
▁sonnet	-10686
▁stolen	-10687
▁strict	-10688
▁tomato	-10689
▁tricks	-10690
elescope	-10691
▁ceiling	-10692
▁guiding	-10693
▁heading	-10694
▁neglect	-10695
▁trained	-10696
utherford	-10697
▁communic	-10698
▁sections	-10699
▁upcoming	-10700
▁wildlife	-10701
▁correctly	-10702
▁organisms	-10703
▁geological	-10704
▁ingredient	-10705
▁laboratory	-10706
▁struggling	-10707
▁accommodate	-10708
▁spontaneous	-10709
▁capabilities	-10710
▁improvements	-10711
▁performances	-10712
▁collaboration	-10713
71	-10714
72	-10715
/4)	-10716
▁DE	-10717
▁fm	-10718
itan	-10719
pled	-10720
stic	-10721
▁DNA	-10722
▁Dev	-10723
▁aer	-10724
▁aqu	-10725
▁tro	-10726
itual	-10727
pling	-10728
▁Jenn	-10729
▁Marg	-10730
▁club	-10731
▁intr	-10732
▁neat	-10733
▁sale	-10734
▁toys	-10735
Thread	-10736
▁barns	-10737
▁embra	-10738
▁gonna	-10739
▁hopes	-10740
▁intro	-10741
▁pride	-10742
▁sched	-10743
Welcome	-10744
▁murder	-10745
▁singer	-10746
restrial	-10747
▁anymore	-10748
▁bending	-10749
▁shelter	-10750
▁stomach	-10751
ufficient	-10752
▁academic	-10753
▁Telescope	-10754
▁confident	-10755
▁correlated	-10756
▁minimizing	-10757
▁proportion	-10758
▁rainforest	-10759
▁systematic	-10760
▁eigenstates	-10761
▁punctuation	-10762
▁Understanding	-10763
▁Chromodynamics	-10764
Ur	-10765
").	-10766
333	-10767
Det	-10768
]);	-10769
aid	-10770
▁(∂	-10771
▁CD	-10772
▁UK	-10773
Note	-10774
fits	-10775
gers	-10776
irts	-10777
plot	-10778
▁Dem	-10779
▁Lat	-10780
▁img	-10781
▁las	-10782
bound	-10783
erick	-10784
essed	-10785
gment	-10786
isher	-10787
ruary	-10788
speed	-10789
▁anom	-10790
▁nutr	-10791
▁pens	-10792
▁toss	-10793
person	-10794
upancy	-10795
upiter	-10796
weight	-10797
▁Apple	-10798
▁Miles	-10799
▁chose	-10800
▁Multip	-10801
▁cooked	-10802
▁echoed	-10803
▁frozen	-10804
▁varies	-10805
Generate	-10806
▁Pacific	-10807
▁beaches	-10808
▁ethanol	-10809
▁insects	-10810
▁landing	-10811
▁rolling	-10812
▁treated	-10813
▁antipart	-10814
▁controls	-10815
▁criteria	-10816
▁evaluate	-10817
▁grandeur	-10818
▁literary	-10819
▁astrology	-10820
▁emissions	-10821
▁prominent	-10822
▁Rutherford	-10823
▁encountered	-10824
CR	-10825
Ph	-10826
^{	-10827
web	-10828
▁Bz	-10829
▁ze	-10830
emed	-10831
made	-10832
▁1))	-10833
▁Bas	-10834
▁Nor	-10835
ented	-10836
iches	-10837
▁dism	-10838
▁susp	-10839
REDACT	-10840
stract	-10841
▁101.3	-10842
▁Close	-10843
▁alert	-10844
▁eaten	-10845
▁liked	-10846
▁mouse	-10847
▁shade	-10848
▁subsc	-10849
▁Amelia	-10850
▁Remove	-10851
▁consec	-10852
▁convey	-10853
▁depart	-10854
▁desper	-10855
▁milest	-10856
▁throat	-10857
▁vertex	-10858
2)^(3/2)	-10859
parallel	-10860
▁Perhaps	-10861
▁blurred	-10862
▁chapter	-10863
▁focuses	-10864
▁impacts	-10865
▁organic	-10866
▁terrain	-10867
▁wrapped	-10868
Newtonian	-10869
▁feedback	-10870
▁stations	-10871
▁unpaired	-10872
▁insurance	-10873
▁permeates	-10874
▁candidates	-10875
▁complement	-10876
▁coordinate	-10877
▁depression	-10878
▁downstream	-10879
▁accidentally	-10880
(4	-10881
/4	-10882
Sp	-10883
TER	-10884
bal	-10885
eps	-10886
hem	-10887
ulf	-10888
▁6)	-10889
▁Ly	-10890
▁∫[	-10891
▁(-1	-10892
▁25.	-10893
▁npm	-10894
▁pap	-10895
inner	-10896
itors	-10897
train	-10898
▁1/2)	-10899
▁Fact	-10900
▁Sund	-10901
Intern	-10902
mative	-10903
orical	-10904
orious	-10905
▁advoc	-10906
▁innoc	-10907
▁marks	-10908
▁pivot	-10909
certain	-10910
natural	-10911
request	-10912
▁Princi	-10913
▁exceed	-10914
▁meteor	-10915
▁speaks	-10916
REDACTED	-10917
positron	-10918
▁Density	-10919
▁February	-10920
▁accompan	-10921
▁administ	-10922
▁aperture	-10923
▁delivery	-10924
▁propeller	-10925
▁converging	-10926
▁highlights	-10927
▁insightful	-10928
▁remembered	-10929
▁association	-10930
▁communities	-10931
sg	-10932
(25	-10933
cpp	-10934
eks	-10935
amel	-10936
iner	-10937
uten	-10938
▁1/4	-10939
▁cyn	-10940
▁eer	-10941
▁mux	-10942
abits	-10943
ikely	-10944
ottom	-10945
▁1970	-10946
▁Asia	-10947
▁Drag	-10948
▁chef	-10949
▁clut	-10950
▁folk	-10951
▁unch	-10952
ansion	-10953
charge	-10954
ctuary	-10955
▁Child	-10956
▁Organ	-10957
▁refer	-10958
▁sorts	-10959
▁tiger	-10960
▁unfor	-10961
▁worse	-10962
ummings	-10963
▁params	-10964
▁riders	-10965
▁solute	-10966
▁voices	-10967
▁Ancient	-10968
▁facilit	-10969
▁heavily	-10970
▁inspect	-10971
▁leather	-10972
▁suspect	-10973
▁Fraction	-10974
▁Triangle	-10975
▁disorder	-10976
▁occupied	-10977
▁thorough	-10978
▁Knowledge	-10979
▁audiences	-10980
▁isolation	-10981
▁celebrated	-10982
▁discipline	-10983
▁responding	-10984
▁exceptional	-10985
▁operational	-10986
bn	-10987
hi	-10988
°.	-10989
26.	-10990
LRW	-10991
ffy	-10992
law	-10993
▁64	-10994
agen	-10995
cers	-10996
loat	-10997
mony	-10998
▁(27	-10999
▁5.0	-11000
▁Cab	-11001
▁QGP	-11002
▁dot	-11003
▁1990	-11004
▁allu	-11005
▁clay	-11006
▁fart	-11007
▁repl	-11008
▁scar	-11009
▁whom	-11010
player	-11011
atories	-11012
▁Greece	-11013
▁appeal	-11014
▁entity	-11015
▁powder	-11016
▁regime	-11017
▁specul	-11018
atherine	-11019
▁Bitcoin	-11020
▁bedroom	-11021
▁breathe	-11022
▁enlight	-11023
▁hanging	-11024
▁joining	-11025
▁nearest	-11026
▁referen	-11027
bsolutely	-11028
▁diagrams	-11029
▁director	-11030
▁spinning	-11031
▁touching	-11032
LinkedList	-11033
▁awareness	-11034
▁recognize	-11035
▁turbulence	-11036
)^	-11037
GB	-11038
Rs	-11039
▁AS	-11040
▁Ty	-11041
▁ox	-11042
Anal	-11043
Form	-11044
curl	-11045
pane	-11046
▁1.3	-11047
▁365	-11048
▁Mel	-11049
▁bon	-11050
▁pra	-11051
▁sex	-11052
ighed	-11053
urous	-11054
ynman	-11055
▁(1/2	-11056
▁Camp	-11057
▁Ferm	-11058
▁Prot	-11059
▁Tony	-11060
▁Tues	-11061
▁intu	-11062
Engine	-11063
irling	-11064
▁10^-3	-11065
▁Train	-11066
▁conce	-11067
▁depos	-11068
▁fifth	-11069
▁hesit	-11070
▁silly	-11071
channel	-11072
utonium	-11073
▁Method	-11074
▁drives	-11075
▁missed	-11076
▁rescue	-11077
Consider	-11078
Describe	-11079
▁Conduct	-11080
▁Nothing	-11081
▁anthrop	-11082
▁bubbles	-11083
▁cuisine	-11084
▁engaged	-11085
▁foreign	-11086
▁logical	-11087
▁touched	-11088
▁Increase	-11089
▁announce	-11090
▁diagonal	-11091
▁reliable	-11092
▁teaching	-11093
▁Meanwhile	-11094
▁household	-11095
▁incorrect	-11096
▁landscapes	-11097
▁destruction	-11098
▁improvement	-11099
▁topological	-11100
ho	-11101
/5)	-11102
30)	-11103
300	-11104
[2]	-11105
gie	-11106
nut	-11107
vet	-11108
you	-11109
▁RO	-11110
▁dI	-11111
beta	-11112
irac	-11113
array	-11114
reens	-11115
tains	-11116
▁pale	-11117
▁yoga	-11118
▁zone	-11119
uality	-11120
▁10^-5	-11121
▁appar	-11122
▁bonds	-11123
▁fancy	-11124
▁fault	-11125
▁sizes	-11126
▁smoke	-11127
▁sweat	-11128
Scraper	-11129
▁SQLite	-11130
▁ballet	-11131
▁garlic	-11132
▁infect	-11133
▁rising	-11134
▁stones	-11135
▁Feynman	-11136
▁Neutron	-11137
▁absorbs	-11138
▁contest	-11139
▁melting	-11140
▁parking	-11141
▁brothers	-11142
▁fountain	-11143
▁orbiting	-11144
▁designing	-11145
▁furniture	-11146
▁inspiring	-11147
▁nutrients	-11148
▁empathetic	-11149
▁suggesting	-11150
▁distinctive	-11151
▁misconception	-11152
/5	-11153
pg	-11154
cal	-11155
lys	-11156
▁72	-11157
▁Cp	-11158
Expl	-11159
link	-11160
orce	-11161
stop	-11162
▁1);	-11163
▁90%	-11164
▁Joe	-11165
▁Rog	-11166
▁Ver	-11167
▁cin	-11168
▁ink	-11169
▁nth	-11170
▁zoo	-11171
Analy	-11172
Price	-11173
idate	-11174
kstra	-11175
uning	-11176
▁Math	-11177
▁Real	-11178
▁Requ	-11179
▁Tree	-11180
▁guit	-11181
▁remn	-11182
ivered	-11183
riting	-11184
▁alarm	-11185
▁argue	-11186
▁aster	-11187
▁royal	-11188
▁sheep	-11189
▁Associ	-11190
▁Insert	-11191
▁buried	-11192
▁hiding	-11193
▁tokens	-11194
▁appoint	-11195
▁attacks	-11196
▁dessert	-11197
▁islands	-11198
container	-11199
▁Available	-11200
▁abundance	-11201
▁refreshing	-11202
▁magnificent	-11203
▁mesmerizing	-11204
▁orientation	-11205
▁astrophysical	-11206
PS	-11207
VL	-11208
End	-11209
Top	-11210
oku	-11211
pow	-11212
uge	-11213
▁9,	-11214
airy	-11215
hash	-11216
iral	-11217
mble	-11218
mond	-11219
▁(1,	-11220
▁AWS	-11221
▁Bal	-11222
▁Wed	-11223
▁sir	-11224
dated	-11225
grade	-11226
sized	-11227
▁1.66	-11228
▁Sher	-11229
▁Wood	-11230
▁hadn	-11231
▁pose	-11232
▁seas	-11233
riends	-11234
ructor	-11235
struct	-11236
▁Anton	-11237
▁Chris	-11238
▁Mario	-11239
▁chirp	-11240
▁datas	-11241
▁legal	-11242
▁pause	-11243
▁wires	-11244
related	-11245
▁10^-15	-11246
▁Calcul	-11247
▁Ensure	-11248
▁evapor	-11249
▁toilet	-11250
▁Respond	-11251
▁boolean	-11252
▁diamond	-11253
▁samples	-11254
▁volumes	-11255
▁10^(-13)	-11256
▁analyzed	-11257
▁majestic	-11258
▁discourse	-11259
▁moonlight	-11260
▁selecting	-11261
▁astronauts	-11262
▁derivative	-11263
▁transverse	-11264
▁arrangement	-11265
▁contributed	-11266
▁introducing	-11267
▁transformer	-11268
▁achievements	-11269
68	-11270
69	-11271
BH	-11272
▁Λ	-11273
▁5%	-11274
/100	-11275
:");	-11276
Case	-11277
sten	-11278
▁Row	-11279
▁Saf	-11280
oston	-11281
reats	-11282
shine	-11283
▁disk	-11284
iments	-11285
▁Stars	-11286
▁herbs	-11287
▁rides	-11288
▁Coriol	-11289
▁heroes	-11290
▁neural	-11291
▁stabil	-11292
▁titles	-11293
▁wizard	-11294
▁experts	-11295
▁extends	-11296
▁quarter	-11297
▁ranging	-11298
separated	-11299
▁Hamilton	-11300
▁eavesdro	-11301
▁enduring	-11302
▁timeless	-11303
▁affection	-11304
▁identical	-11305
▁preparing	-11306
▁categories	-11307
▁encryption	-11308
▁originated	-11309
▁pollutants	-11310
▁relaxation	-11311
▁surprising	-11312
▁circumference	-11313
▁]	-11314
AME	-11315
Ent	-11316
She	-11317
▁$\	-11318
▁++	-11319
▁np	-11320
▁7.5	-11321
▁Edu	-11322
▁Hig	-11323
▁PET	-11324
▁QAM	-11325
▁Ven	-11326
▁oak	-11327
▁oun	-11328
empty	-11329
front	-11330
▁Emma	-11331
▁Rain	-11332
▁Year	-11333
▁aged	-11334
▁conj	-11335
▁gest	-11336
▁ling	-11337
▁rush	-11338
▁seam	-11339
ithium	-11340
mitted	-11341
reated	-11342
▁Image	-11343
▁Until	-11344
▁chuck	-11345
▁deals	-11346
▁logar	-11347
▁seren	-11348
jection	-11349
tically	-11350
▁Retrie	-11351
▁behold	-11352
▁cherry	-11353
▁minima	-11354
▁slower	-11355
▁towers	-11356
▁trials	-11357
ashioned	-11358
children	-11359
ployment	-11360
romagnet	-11361
▁Analyze	-11362
▁Dickens	-11363
▁Jupiter	-11364
▁QAModel	-11365
▁Tuesday	-11366
▁authors	-11367
▁compute	-11368
▁opinion	-11369
▁reminis	-11370
▁shining	-11371
▁visitor	-11372
▁Coriolis	-11373
▁bulleted	-11374
▁majority	-11375
department	-11376
▁plutonium	-11377
▁struggles	-11378
▁narratives	-11379
▁stretching	-11380
▁validation	-11381
▁BufferedReader	-11382
)?	-11383
?,	-11384
Am	-11385
▁≤	-11386
Boh	-11387
Spe	-11388
agu	-11389
sum	-11390
Args	-11391
Year	-11392
bird	-11393
isen	-11394
▁Alf	-11395
group	-11396
leans	-11397
▁4000	-11398
▁Cook	-11399
▁Plus	-11400
▁Prim	-11401
▁cows	-11402
▁dece	-11403
(500).	-11404
Schema	-11405
aphael	-11406
entric	-11407
urable	-11408
▁Color	-11409
▁chips	-11410
▁clues	-11411
▁flame	-11412
▁reput	-11413
▁sword	-11414
▁trips	-11415
▁virus	-11416
Weather	-11417
▁Boston	-11418
▁Follow	-11419
▁Franck	-11420
▁Jaynes	-11421
▁retire	-11422
▁spider	-11423
Cummings	-11424
ibonacci	-11425
▁Company	-11426
▁algebra	-11427
▁artwork	-11428
▁deepest	-11429
▁genetic	-11430
▁horizons	-11431
▁scholars	-11432
▁shifting	-11433
▁confusion	-11434
▁invariant	-11435
▁numerator	-11436
▁pronounced	-11437
▁contributing	-11438
▁satisfaction	-11439
▁Elasticsearch	-11440
""	-11441
any	-11442
ugg	-11443
ugh	-11444
▁Na	-11445
coln	-11446
irds	-11447
vous	-11448
▁Bay	-11449
▁Rub	-11450
▁Vit	-11451
▁bun	-11452
▁fra	-11453
▁vul	-11454
alker	-11455
lower	-11456
▁argv	-11457
▁beds	-11458
▁neon	-11459
▁sits	-11460
▁soda	-11461
▁Allow	-11462
▁Dirac	-11463
▁Hyper	-11464
▁Three	-11465
▁Union	-11466
▁lingu	-11467
▁minor	-11468
▁mysql	-11469
▁opens	-11470
▁yours	-11471
▁Format	-11472
▁Social	-11473
▁dipole	-11474
▁earned	-11475
▁inputs	-11476
▁policy	-11477
▁proven	-11478
▁signed	-11479
▁slices	-11480
▁sprink	-11481
▁terror	-11482
roducing	-11483
▁bottles	-11484
▁defines	-11485
▁ejected	-11486
▁letting	-11487
▁ordered	-11488
▁Discount	-11489
▁confused	-11490
▁tranquil	-11491
▁youngest	-11492
ailability	-11493
▁Instagram	-11494
▁standards	-11495
▁polarizing	-11496
▁supernovae	-11497
▁fascination	-11498
▁recommended	-11499
mn	-11500
ods	-11501
oub	-11502
▁$6	-11503
▁Da	-11504
CRET	-11505
fire	-11506
irls	-11507
neut	-11508
pass	-11509
▁Aut	-11510
▁Ice	-11511
▁Pet	-11512
▁Ref	-11513
▁SET	-11514
▁THE	-11515
▁gig	-11516
▁tag	-11517
▁tub	-11518
▁voy	-11519
erals	-11520
eties	-11521
links	-11522
tweet	-11523
▁2017	-11524
▁Ford	-11525
▁Stay	-11526
▁aest	-11527
▁chip	-11528
▁dies	-11529
▁dirt	-11530
▁fier	-11531
▁gram	-11532
▁tune	-11533
change	-11534
▁angry	-11535
▁bench	-11536
▁jewel	-11537
▁prize	-11538
forward	-11539
▁298.15	-11540
▁Austen	-11541
▁Compar	-11542
▁Matter	-11543
▁Supers	-11544
▁extend	-11545
▁fallen	-11546
▁gallon	-11547
▁hungry	-11548
▁listed	-11549
▁studio	-11550
▁viewed	-11551
▁heights	-11552
▁tallest	-11553
▁unified	-11554
▁updates	-11555
sentiment	-11556
▁airplane	-11557
▁covering	-11558
▁decipher	-11559
▁isolated	-11560
▁presented	-11561
romagnetism	-11562
▁encourages	-11563
▁strengthen	-11564
sl	-11565
1:]	-11566
dig	-11567
▁7:	-11568
▁AC	-11569
abul	-11570
ownt	-11571
roid	-11572
▁$1.	-11573
▁$12	-11574
▁160	-11575
▁mos	-11576
PDATE	-11577
ashes	-11578
crypt	-11579
ctive	-11580
ittee	-11581
ograp	-11582
warts	-11583
▁Cand	-11584
▁east	-11585
Double	-11586
matrix	-11587
strong	-11588
▁0.007	-11589
▁10^24	-11590
▁Labor	-11591
▁baked	-11592
▁lists	-11593
▁pyram	-11594
romatic	-11595
usually	-11596
▁pirate	-11597
▁weaker	-11598
▁antique	-11599
▁assumed	-11600
▁denoted	-11601
▁puzzles	-11602
▁abundant	-11603
▁humidity	-11604
▁teachers	-11605
▁unlikely	-11606
▁installed	-11607
([	-11608
FA	-11609
(0,	-11610
15.	-11611
▁1]	-11612
▁2(	-11613
▁IF	-11614
▁MW	-11615
▁[:	-11616
/2))	-11617
CESS	-11618
Once	-11619
call	-11620
cule	-11621
eror	-11622
glie	-11623
star	-11624
▁26.	-11625
▁30-	-11626
▁suc	-11627
arium	-11628
aware	-11629
gence	-11630
graph	-11631
react	-11632
uffer	-11633
▁Cong	-11634
▁Sand	-11635
▁Wind	-11636
▁gods	-11637
▁woke	-11638
cached	-11639
intage	-11640
▁Jones	-11641
▁Kaden	-11642
▁amuse	-11643
▁slang	-11644
Builder	-11645
▁anisot	-11646
▁extens	-11647
▁resort	-11648
▁spoken	-11649
▁subtly	-11650
▁thrive	-11651
ittivity	-11652
▁Broglie	-11653
▁bananas	-11654
▁cryptic	-11655
structure	-11656
▁Hogwarts	-11657
▁comments	-11658
▁historic	-11659
▁strongly	-11660
▁Professor	-11661
▁namespace	-11662
▁sanctuary	-11663
▁Developing	-11664
▁maintained	-11665
▁palindrome	-11666
▁discovering	-11667
▁identifying	-11668
▁importantly	-11669
▁permittivity	-11670
01	-11671
92	-11672
UC	-11673
(2,	-11674
Now	-11675
agg	-11676
▁$8	-11677
▁(|	-11678
▁Cy	-11679
conv	-11680
▁80%	-11681
▁Def	-11682
▁oct	-11683
▁tie	-11684
Found	-11685
glass	-11686
ythag	-11687
▁army	-11688
▁beef	-11689
▁nurt	-11690
▁pist	-11691
▁swit	-11692
Stokes	-11693
update	-11694
▁Civil	-11695
▁Group	-11696
▁adopt	-11697
▁aroma	-11698
▁newsp	-11699
▁slice	-11700
▁unity	-11701
▁weird	-11702
▁weren	-11703
Context	-11704
▁Indian	-11705
▁Navier	-11706
▁Object	-11707
▁Public	-11708
▁Simple	-11709
▁Turner	-11710
▁jungle	-11711
▁ritual	-11712
Listener	-11713
▁Display	-11714
▁matters	-11715
▁shortly	-11716
▁theater	-11717
▁Response	-11718
▁asteroid	-11719
▁bathroom	-11720
▁fleeting	-11721
▁melodies	-11722
▁networks	-11723
▁stepping	-11724
▁Microsoft	-11725
▁announced	-11726
▁organized	-11727
▁ValueError	-11728
▁engagement	-11729
▁impressive	-11730
▁indicating	-11731
▁undergoing	-11732
▁astronomers	-11733
▁reconstruct	-11734
▁overwhelming	-11735
▁observational	-11736
▁psychological	-11737
NF	-11738
Ne	-11739
TH	-11740
=['	-11741
App	-11742
Dis	-11743
pur	-11744
Bohm	-11745
Soup	-11746
cked	-11747
ilia	-11748
ovan	-11749
ride	-11750
vity	-11751
▁29.	-11752
▁Sav	-11753
^2)^2	-11754
begin	-11755
enger	-11756
score	-11757
▁Word	-11758
▁flew	-11759
▁inev	-11760
▁laug	-11761
▁seed	-11762
▁west	-11763
abella	-11764
making	-11765
▁dwell	-11766
▁lined	-11767
▁muons	-11768
▁promp	-11769
▁rival	-11770
abulary	-11771
taining	-11772
▁(9.274	-11773
▁Unlike	-11774
▁analog	-11775
▁convex	-11776
▁sheets	-11777
▁whales	-11778
Classify	-11779
▁Collect	-11780
▁Overall	-11781
▁applies	-11782
▁battles	-11783
▁consult	-11784
▁destiny	-11785
▁execute	-11786
▁romance	-11787
▁schools	-11788
▁Customer	-11789
▁ceremony	-11790
▁modified	-11791
▁receives	-11792
▁shoulder	-11793
▁terrible	-11794
▁Chocolate	-11795
▁displayed	-11796
▁instantly	-11797
▁occupancy	-11798
▁Background	-11799
▁acceptance	-11800
▁gracefully	-11801
▁navigating	-11802
▁whispering	-11803
▁adventurous	-11804
▁interactive	-11805
DO	-11806
ZE	-11807
Che	-11808
oop	-11809
▁'$	-11810
▁'{	-11811
3.33	-11812
Cont	-11813
Make	-11814
arte	-11815
eger	-11816
rape	-11817
uced	-11818
▁Maj	-11819
▁pup	-11820
Email	-11821
^-2),	-11822
ester	-11823
▁damp	-11824
▁fame	-11825
▁genu	-11826
▁hill	-11827
▁perf	-11828
elines	-11829
▁Stern	-11830
▁loses	-11831
mptotic	-11832
▁Hawaii	-11833
▁decade	-11834
▁landed	-11835
▁novels	-11836
▁perpet	-11837
________	-11838
▁Special	-11839
▁coaster	-11840
▁guarant	-11841
▁laughed	-11842
▁lightly	-11843
▁phrases	-11844
▁portray	-11845
▁sisters	-11846
▁winding	-11847
forcement	-11848
▁Jennifer	-11849
▁somewhat	-11850
▁neighbors	-11851
▁spreading	-11852
▁steadfast	-11853
▁assumption	-11854
▁formations	-11855
▁traditions	-11856
53	-11857
2:]	-11858
Cur	-11859
Ger	-11860
Red	-11861
fol	-11862
tml	-11863
▁2-	-11864
▁42	-11865
▁Bq	-11866
▁Pu	-11867
8080	-11868
auss	-11869
esar	-11870
west	-11871
▁1.8	-11872
▁30°	-11873
▁CPU	-11874
▁Fam	-11875
▁Lib	-11876
▁hun	-11877
▁sci	-11878
Hertz	-11879
arter	-11880
chron	-11881
eping	-11882
▁1.33	-11883
▁10^5	-11884
▁Does	-11885
▁Yeah	-11886
▁dash	-11887
▁dive	-11888
▁larg	-11889
▁mask	-11890
alysis	-11891
aronov	-11892
roduce	-11893
rowing	-11894
▁10^15	-11895
▁Galax	-11896
▁stark	-11897
▁trash	-11898
▁trial	-11899
▁Church	-11900
▁Double	-11901
▁Indeed	-11902
▁Marvin	-11903
▁Pythag	-11904
▁barber	-11905
▁clever	-11906
▁mutual	-11907
▁paints	-11908
▁transf	-11909
quantity	-11910
▁Actions	-11911
▁amongst	-11912
▁arrives	-11913
▁exerted	-11914
▁haircut	-11915
▁Aharonov	-11916
▁constell	-11917
▁explored	-11918
▁inferred	-11919
▁laughing	-11920
▁potatoes	-11921
▁authentic	-11922
▁generator	-11923
▁expressing	-11924
▁infectious	-11925
▁advertising	-11926
▁mathematics	-11927
▁productivity	-11928
gi	-11929
3.4	-11930
Bot	-11931
Pre	-11932
Url	-11933
eys	-11934
yer	-11935
▁vs	-11936
Blob	-11937
lach	-11938
quis	-11939
unks	-11940
▁-20	-11941
▁Ber	-11942
▁Dep	-11943
▁Gen	-11944
▁Rom	-11945
Alice	-11946
Could	-11947
agues	-11948
check	-11949
etric	-11950
frame	-11951
ikola	-11952
itely	-11953
plete	-11954
usage	-11955
▁Educ	-11956
▁Eval	-11957
▁Herm	-11958
▁drew	-11959
▁hike	-11960
▁pupp	-11961
▁wins	-11962
Bridge	-11963
SECRET	-11964
bility	-11965
slowly	-11966
stance	-11967
▁Games	-11968
▁cliff	-11969
▁couch	-11970
▁draft	-11971
▁dread	-11972
▁eerie	-11973
▁grasp	-11974
▁hobby	-11975
▁pulse	-11976
cluding	-11977
▁0.0821	-11978
▁Virgin	-11979
▁realms	-11980
▁refine	-11981
▁splend	-11982
consumer	-11983
plicated	-11984
▁bridges	-11985
▁fairies	-11986
▁isolate	-11987
▁viewers	-11988
▁Atlantic	-11989
▁Southern	-11990
paralleled	-11991
▁Different	-11992
▁affecting	-11993
▁antiquark	-11994
▁gentlemen	-11995
▁immediate	-11996
▁temporary	-11997
▁yesterday	-11998
▁explanations	-11999
▁unparalleled	-12000
▁observatories	-12001
▁participating	-12002
FC	-12003
GE	-12004
rog	-12005
sey	-12006
▁RT	-12007
▁Ra	-12008
▁_,	-12009
▁gn	-12010
(400	-12011
ISTS	-12012
erer	-12013
pson	-12014
▁Ell	-12015
▁obl	-12016
▁ped	-12017
betes	-12018
oming	-12019
▁10^4	-12020
▁13.6	-12021
▁Cass	-12022
▁Fall	-12023
▁Four	-12024
▁Fred	-12025
▁Pass	-12026
▁Phot	-12027
▁bell	-12028
▁extr	-12029
▁fuse	-12030
▁qual	-12031
▁till	-12032
Listen	-12033
etimes	-12034
▁(0.08	-12035
▁Title	-12036
▁blade	-12037
▁essay	-12038
▁moral	-12039
▁newly	-12040
▁swift	-12041
▁toast	-12042
clusion	-12043
▁CREATE	-12044
▁Theore	-12045
▁recoil	-12046
▁shares	-12047
▁victim	-12048
▁vulner	-12049
gettable	-12050
▁Mexican	-12051
▁contrad	-12052
▁earthqu	-12053
▁grocery	-12054
▁largely	-12055
▁priorit	-12056
▁Brewster	-12057
▁Margaret	-12058
▁diabetes	-12059
▁encoding	-12060
▁suspense	-12061
▁Christian	-12062
▁integrity	-12063
▁societies	-12064
▁influential	-12065
▁referencing	-12066
▁BeautifulSoup	-12067
DA	-12068
(50	-12069
-14	-12070
-238	-12071
Help	-12072
insp	-12073
plet	-12074
▁12,	-12075
▁194	-12076
▁360	-12077
▁Leo	-12078
▁shy	-12079
Right	-12080
diers	-12081
orses	-12082
▁(300	-12083
▁Cult	-12084
▁Ross	-12085
▁amen	-12086
▁cute	-12087
▁nick	-12088
asters	-12089
▁10^23	-12090
▁Edgar	-12091
▁Query	-12092
▁kinds	-12093
▁EXISTS	-12094
▁Landau	-12095
▁Modern	-12096
▁Olivia	-12097
▁Prince	-12098
▁Taking	-12099
▁carved	-12100
▁invers	-12101
▁poison	-12102
▁sender	-12103
▁Raphael	-12104
▁chances	-12105
▁mistake	-12106
▁payment	-12107
▁rainbow	-12108
▁sparked	-12109
▁sustain	-12110
dependent	-12111
▁criminal	-12112
▁limerick	-12113
▁soldiers	-12114
▁spectrom	-12115
▁stumbled	-12116
▁behaviors	-12117
▁constrain	-12118
▁fostering	-12119
▁streaming	-12120
▁Department	-12121
▁harmonious	-12122
▁educational	-12123
▁unpolarized	-12124
▁expectations	-12125
▁bioluminescent	-12126
▁representation	-12127
-8	-12128
3_	-12129
:00	-12130
Age	-12131
gon	-12132
itz	-12133
ota	-12134
▁5/	-12135
▁Py	-12136
▁pm	-12137
gram	-12138
▁Opt	-12139
▁Rab	-12140
▁Seg	-12141
▁Wal	-12142
Order	-12143
adium	-12144
parts	-12145
▁2018	-12146
▁Budd	-12147
▁Cour	-12148
▁Home	-12149
▁Kent	-12150
▁Matt	-12151
▁Musk	-12152
▁Rank	-12153
▁TEXT	-12154
▁Thor	-12155
▁foss	-12156
▁semi	-12157
▁thee	-12158
▁warn	-12159
uating	-12160
▁Astro	-12161
▁Break	-12162
▁Later	-12163
▁Whisk	-12164
▁caffe	-12165
▁drift	-12166
▁indul	-12167
▁perse	-12168
▁relie	-12169
▁skept	-12170
▁weave	-12171
emitted	-12172
▁$5,000	-12173
▁Within	-12174
▁evenly	-12175
▁habits	-12176
download	-12177
▁Convers	-12178
▁cameras	-12179
▁equator	-12180
▁haunted	-12181
▁mansion	-12182
▁officer	-12183
▁pressed	-12184
▁quietly	-12185
▁squares	-12186
▁10^(-3))	-12187
▁brighter	-12188
▁overhead	-12189
▁ventured	-12190
▁pollution	-12191
▁retrieves	-12192
▁shoulders	-12193
▁generating	-12194
▁accelerator	-12195
▁integrating	-12196
▁preparation	-12197
▁recognition	-12198
▁demonstrated	-12199
▁effectiveness	-12200
SA	-12201
UR	-12202
:")	-12203
det	-12204
inf	-12205
mix	-12206
uit	-12207
urd	-12208
▁66	-12209
Info	-12210
greg	-12211
inch	-12212
that	-12213
▁Ext	-12214
▁Tor	-12215
erate	-12216
onder	-12217
vious	-12218
▁Elys	-12219
▁Prop	-12220
▁Rate	-12221
▁bore	-12222
▁fert	-12223
▁html	-12224
antern	-12225
irical	-12226
▁chlor	-12227
▁enorm	-12228
▁flies	-12229
▁gover	-12230
▁knife	-12231
▁mimic	-12232
▁sunny	-12233
▁teasp	-12234
▁upset	-12235
ydrogen	-12236
▁Future	-12237
▁Master	-12238
▁borrow	-12239
▁canopy	-12240
▁microm	-12241
▁tweepy	-12242
▁vowels	-12243
▁100,000	-12244
▁closing	-12245
▁deleted	-12246
▁grabbed	-12247
▁shouldn	-12248
▁utilize	-12249
▁Princess	-12250
^2)^(3/2))	-12251
▁inelastic	-12252
▁observers	-12253
▁processed	-12254
▁satisfied	-12255
▁healthcare	-12256
▁specialized	-12257
[2	-12258
vy	-12259
▁Ψ	-12260
-20	-12261
oof	-12262
rep	-12263
▁kW	-12264
adow	-12265
anna	-12266
▁Cam	-12267
▁Enc	-12268
▁Fed	-12269
▁Jew	-12270
▁agg	-12271
▁rum	-12272
▁sne	-12273
allow	-12274
idesp	-12275
uille	-12276
▁2016	-12277
▁Elon	-12278
▁Form	-12279
▁Goth	-12280
▁Pict	-12281
▁Subt	-12282
▁feas	-12283
▁mini	-12284
▁rede	-12285
▁rend	-12286
Update	-12287
random	-12288
▁beard	-12289
▁pione	-12290
▁recon	-12291
▁rolls	-12292
▁sheer	-12293
▁strip	-12294
▁warri	-12295
atiable	-12296
ulously	-12297
▁Father	-12298
▁allure	-12299
▁attire	-12300
▁church	-12301
▁glance	-12302
▁ignore	-12303
▁locked	-12304
▁rolled	-12305
▁router	-12306
▁violin	-12307
employee	-12308
idescent	-12309
odynamic	-12310
▁coolant	-12311
▁crafted	-12312
▁doubles	-12313
▁momenta	-12314
▁satisfy	-12315
▁tourist	-12316
▁victims	-12317
fashioned	-12318
idespread	-12319
▁Isabella	-12320
▁vertices	-12321
▁weakness	-12322
▁Inflation	-12323
▁committed	-12324
▁destroyed	-12325
▁activation	-12326
▁convection	-12327
▁industrial	-12328
▁vocabulary	-12329
▁Christopher	-12330
▁conductance	-12331
▁disappeared	-12332
▁Specifically	-12333
78	-12334
Ap	-12335
px	-12336
OUR	-12337
des	-12338
▁IS	-12339
▁ec	-12340
save	-12341
▁$60	-12342
▁900	-12343
▁Arc	-12344
▁Exp	-12345
▁Hey	-12346
▁III	-12347
▁Pic	-12348
▁bid	-12349
▁meg	-12350
▁sen	-12351
anean	-12352
rency	-12353
▁Care	-12354
▁Harr	-12355
▁Heat	-12356
▁Mind	-12357
▁mart	-12358
▁wore	-12359
onents	-12360
▁2,000	-12361
▁Cross	-12362
▁Store	-12363
▁beast	-12364
▁cried	-12365
▁downt	-12366
▁feast	-12367
▁octop	-12368
▁saves	-12369
▁shelf	-12370
▁stanz	-12371
▁Higher	-12372
▁Sunday	-12373
▁derive	-12374
▁survey	-12375
▁Johnson	-12376
▁harvest	-12377
▁silicon	-12378
▁centered	-12379
▁diamonds	-12380
▁inserted	-12381
▁interior	-12382
▁midpoint	-12383
▁whenever	-12384
advantages	-12385
▁Materials	-12386
▁logarithm	-12387
▁protocols	-12388
▁illuminated	-12389
▁continuously	-12390
▁functionality	-12391
Bl	-12392
ef	-12393
204	-12394
371	-12395
9))	-12396
del	-12397
▁('	-12398
▁93	-12399
▁{"	-12400
(100	-12401
Just	-12402
irth	-12403
math	-12404
ummy	-12405
▁23.	-12406
▁Cra	-12407
▁Ren	-12408
▁Sky	-12409
▁USA	-12410
▁Var	-12411
▁owl	-12412
athan	-12413
ilize	-12414
otype	-12415
▁40.7	-12416
▁Info	-12417
▁bake	-12418
▁cert	-12419
▁Axion	-12420
▁Davis	-12421
▁epoch	-12422
▁frost	-12423
▁halls	-12424
▁lifes	-12425
Reposit	-12426
aussian	-12427
▁Columb	-12428
▁coloss	-12429
▁convin	-12430
▁makeup	-12431
▁monkey	-12432
▁slight	-12433
▁Compare	-12434
▁Lincoln	-12435
▁Segment	-12436
▁escapes	-12437
▁monster	-12438
▁recover	-12439
▁somehow	-12440
▁coverage	-12441
▁engineer	-12442
▁initiate	-12443
▁presents	-12444
osynthesis	-12445
▁'09/15/17	-12446
▁Uncertain	-12447
▁quadratic	-12448
▁resultSet	-12449
▁Eventually	-12450
▁insatiable	-12451
▁flexibility	-12452
▁grandfather	-12453
,'	-12454
MM	-12455
2)2	-12456
QHE	-12457
doc	-12458
ria	-12459
▁Ta	-12460
▁Vc	-12461
▁nu	-12462
aved	-12463
iano	-12464
isie	-12465
oves	-12466
▁-(1	-12467
▁-1;	-12468
▁Cro	-12469
▁Cup	-12470
▁Gro	-12471
▁Jac	-12472
▁orn	-12473
andel	-12474
athon	-12475
icken	-12476
ifier	-12477
label	-12478
olver	-12479
▁1.50	-12480
▁Hope	-12481
▁Mill	-12482
▁Puls	-12483
▁apps	-12484
▁ferm	-12485
▁grie	-12486
▁horn	-12487
▁murd	-12488
Direct	-12489
ascals	-12490
thread	-12491
▁Death	-12492
▁Hagen	-12493
▁neuro	-12494
▁pilot	-12495
Gerlach	-12496
idation	-12497
urities	-12498
▁50,000	-12499
▁Having	-12500
▁Russia	-12501
▁bitter	-12502
▁cookie	-12503
▁cycles	-12504
▁rabbit	-12505
▁racing	-12506
▁smiled	-12507
▁writes	-12508
▁History	-12509
▁constit	-12510
▁degener	-12511
▁podcast	-12512
▁queries	-12513
▁reveals	-12514
▁settled	-12515
▁vintage	-12516
▁Egyptian	-12517
▁exhibits	-12518
▁isotopic	-12519
▁minerals	-12520
▁southern	-12521
▁amusement	-12522
▁eliminate	-12523
▁infinites	-12524
▁realistic	-12525
▁waterfall	-12526
▁affordable	-12527
▁attributed	-12528
▁infinitely	-12529
▁motivation	-12530
▁widespread	-12531
▁Integrating	-12532
▁'09/15/17'],	-12533
▁astrophysics	-12534
▁consistently	-12535
LS	-12536
}.	-12537
10^	-12538
joy	-12539
ker	-12540
▁JO	-12541
Scan	-12542
aton	-12543
kins	-12544
lets	-12545
▁$2,	-12546
▁350	-12547
▁gor	-12548
Poise	-12549
model	-12550
▁(-0.	-12551
▁Comp	-12552
▁Head	-12553
▁Pers	-12554
▁Soon	-12555
▁Weak	-12556
▁bent	-12557
▁cous	-12558
▁omin	-12559
▁rein	-12560
canvas	-12561
imming	-12562
ourage	-12563
▁Small	-12564
▁admit	-12565
▁anger	-12566
▁crisp	-12567
▁elder	-12568
▁fiery	-12569
Explain	-12570
Scanner	-12571
correct	-12572
escopes	-12573
▁Butter	-12574
▁Edison	-12575
▁Plasma	-12576
▁Valley	-12577
▁apolog	-12578
▁burned	-12579
▁guitar	-12580
▁median	-12581
▁ranges	-12582
▁stared	-12583
▁tragic	-12584
Internal	-12585
ithmetic	-12586
particle	-12587
▁Central	-12588
▁Donovan	-12589
▁Russian	-12590
▁annihil	-12591
▁dataset	-12592
▁fishing	-12593
▁loyalty	-12594
▁outputs	-12595
▁placing	-12596
▁sibling	-12597
▁storing	-12598
▁sunrise	-12599
▁transit	-12600
▁turtles	-12601
▁Employee	-12602
▁Identify	-12603
▁Northern	-12604
▁consumes	-12605
▁illusion	-12606
▁opponent	-12607
▁positron	-12608
Poiseuille	-12609
▁compounds	-12610
▁delimited	-12611
▁twinkling	-12612
▁attempting	-12613
▁brainstorm	-12614
▁transactions	-12615
▁consideration	-12616
dB	-12617
ali	-12618
jud	-12619
lic	-12620
lif	-12621
ris	-12622
▁Op	-12623
▁tu	-12624
From	-12625
IGHT	-12626
ahoo	-12627
oard	-12628
▁(40	-12629
▁Dad	-12630
▁Fre	-12631
▁QFT	-12632
▁Rat	-12633
▁Vin	-12634
▁asy	-12635
▁cob	-12636
▁mal	-12637
▁obs	-12638
▁sip	-12639
Tesla	-12640
aline	-12641
isely	-12642
scape	-12643
udoku	-12644
▁1.5.	-12645
▁Base	-12646
▁Hash	-12647
▁Magn	-12648
▁Ring	-12649
▁trap	-12650
Helper	-12651
Output	-12652
▁cargo	-12653
▁folks	-12654
▁ingen	-12655
▁liber	-12656
▁lunar	-12657
▁olive	-12658
▁wears	-12659
fluidic	-12660
ishment	-12661
ritical	-12662
▁(1.989	-12663
▁Academ	-12664
▁Martin	-12665
▁aliens	-12666
▁assemb	-12667
▁dating	-12668
▁labels	-12669
▁mighty	-12670
▁perman	-12671
▁retail	-12672
▁shines	-12673
▁climbed	-12674
▁darkest	-12675
▁raising	-12676
▁10^(-24)	-12677
▁comprehe	-12678
▁heritage	-12679
▁magician	-12680
▁missions	-12681
▁striking	-12682
▁Jefferson	-12683
▁capturing	-12684
▁concerned	-12685
▁engineers	-12686
▁encounters	-12687
▁leadership	-12688
▁statements	-12689
▁organizations	-12690
▁unforgettable	-12691
Me	-12692
Or	-12693
}\	-12694
27.	-12695
99,	-12696
COP	-12697
^-2	-12698
▁Jr	-12699
osis	-12700
rist	-12701
▁Foc	-12702
▁Los	-12703
▁fer	-12704
▁sed	-12705
Outro	-12706
Serve	-12707
about	-12708
marks	-12709
▁Heav	-12710
▁Rand	-12711
▁Toby	-12712
▁canc	-12713
▁grin	-12714
▁sock	-12715
around	-12716
itters	-12717
▁Colle	-12718
▁Force	-12719
▁Heart	-12720
▁Latin	-12721
▁Sally	-12722
▁Thurs	-12723
▁alter	-12724
▁award	-12725
▁imper	-12726
▁infer	-12727
▁norms	-12728
▁orche	-12729
▁spine	-12730
▁League	-12731
▁polite	-12732
▁wishes	-12733
poration	-12734
▁Angeles	-12735
▁Antonio	-12736
▁Everest	-12737
▁enemies	-12738
▁hunting	-12739
▁screens	-12740
▁skilled	-12741
▁Interfer	-12742
▁earliest	-12743
▁discovers	-12744
▁elephants	-12745
▁lifetimes	-12746
▁reactants	-12747
▁assistance	-12748
▁converting	-12749
▁uniformity	-12750
▁corrections	-12751
▁Introduction	-12752
▁Relativistic	-12753
-9	-12754
=%	-12755
FF	-12756
OP	-12757
ji	-12758
mo	-12759
ya	-12760
(3)	-12761
(60	-12762
10,	-12763
LAS	-12764
Str	-12765
ele	-12766
zil	-12767
Exit	-12768
Jane	-12769
anes	-12770
look	-12771
▁1),	-12772
▁Dra	-12773
▁Far	-12774
▁Gas	-12775
▁Tur	-12776
▁Vel	-12777
▁bot	-12778
▁gal	-12779
▁rag	-12780
▁Emer	-12781
▁Fast	-12782
▁PORT	-12783
▁SUSY	-12784
▁Tool	-12785
▁Vega	-12786
▁craw	-12787
▁dice	-12788
▁fool	-12789
▁sore	-12790
▁tort	-12791
ndrome	-12792
nesday	-12793
ometry	-12794
spring	-12795
▁0.025	-12796
▁Sleep	-12797
▁Stack	-12798
▁Therm	-12799
▁crown	-12800
▁explo	-12801
▁groom	-12802
▁hills	-12803
▁owned	-12804
▁packs	-12805
ategory	-12806
century	-12807
▁Friend	-12808
▁Gentle	-12809
▁Native	-12810
▁digest	-12811
▁econom	-12812
▁fright	-12813
▁genius	-12814
▁interf	-12815
▁thrown	-12816
▁timing	-12817
▁Embrace	-12818
▁encoded	-12819
▁privacy	-12820
▁spotted	-12821
▁suspend	-12822
▁Original	-12823
▁collabor	-12824
▁filtered	-12825
▁register	-12826
▁resonant	-12827
▁rustling	-12828
▁tropical	-12829
getElement	-12830
▁apparatus	-12831
▁mushrooms	-12832
▁manipulate	-12833
▁telescopes	-12834
▁accordingly	-12835
▁microfluidic	-12836
getElementById	-12837
▁straightforward	-12838
1(	-12839
><	-12840
Sv	-12841
aus	-12842
avg	-12843
imb	-12844
▁*,	-12845
▁Du	-12846
^-1)	-12847
easy	-12848
half	-12849
onym	-12850
ulus	-12851
▁21.	-12852
▁Fil	-12853
▁Mir	-12854
▁Pan	-12855
▁Was	-12856
▁caf	-12857
ieval	-12858
mates	-12859
phins	-12860
theta	-12861
▁10−5	-12862
▁axes	-12863
▁bulk	-12864
▁loan	-12865
▁toes	-12866
▁vote	-12867
Length	-12868
▁3,000	-12869
▁3000;	-12870
▁crash	-12871
▁gifts	-12872
▁glimp	-12873
ivation	-12874
ouncing	-12875
strings	-12876
uristic	-12877
▁Binary	-12878
▁Willow	-12879
▁cosine	-12880
▁emails	-12881
▁nobody	-12882
▁sector	-12883
▁shakes	-12884
▁versat	-12885
▁calming	-12886
▁decline	-12887
▁mankind	-12888
▁pointed	-12889
pressible	-12890
▁crystall	-12891
▁district	-12892
▁enabling	-12893
▁enormous	-12894
▁lifespan	-12895
▁parseInt	-12896
▁printing	-12897
▁uploaded	-12898
▁violence	-12899
▁butterfly	-12900
▁delivered	-12901
▁objective	-12902
▁possesses	-12903
▁predators	-12904
▁procedure	-12905
▁receiving	-12906
▁wondering	-12907
▁Throughout	-12908
▁Experiments	-12909
▁Pythagorean	-12910
▁circulation	-12911
▁destructive	-12912
▁Supersymmetry	-12913
▁independently	-12914
▁incompressible	-12915
03	-12916
07	-12917
RA	-12918
**:	-12919
blo	-12920
dog	-12921
egu	-12922
ias	-12923
oly	-12924
tre	-12925
uto	-12926
▁ON	-12927
))^2	-12928
aple	-12929
unge	-12930
vals	-12931
▁15%	-12932
▁188	-12933
▁5.5	-12934
▁Bus	-12935
▁Cub	-12936
▁ENF	-12937
▁Hot	-12938
▁Ins	-12939
▁Mid	-12940
▁lur	-12941
names	-12942
vable	-12943
▁$150	-12944
▁$300	-12945
▁Baby	-12946
▁Carl	-12947
▁dict	-12948
▁disp	-12949
▁impr	-12950
▁vine	-12951
Author	-12952
ephone	-12953
▁Along	-12954
▁Award	-12955
▁Field	-12956
▁Known	-12957
▁Marco	-12958
▁Yahoo	-12959
▁blues	-12960
▁cheap	-12961
▁crazy	-12962
▁diary	-12963
▁flask	-12964
▁metab	-12965
▁prete	-12966
▁quote	-12967
▁reven	-12968
ropolis	-12969
solving	-12970
▁Author	-12971
▁Import	-12972
▁buffer	-12973
▁kitten	-12974
▁stroke	-12975
▁tissue	-12976
▁comprom	-12977
▁confine	-12978
▁defense	-12979
▁glimpse	-12980
▁greeted	-12981
▁pottery	-12982
▁radiant	-12983
▁vitamin	-12984
▁worried	-12985
▁Physical	-12986
▁Simplify	-12987
▁colossal	-12988
▁cupcakes	-12989
▁defeated	-12990
▁feathers	-12991
▁intrigue	-12992
▁matrices	-12993
▁mythical	-12994
▁salaries	-12995
▁solitude	-12996
Repository	-12997
ographical	-12998
▁Francisco	-12999
▁dinosaurs	-13000
▁vibration	-13001
▁otherworld	-13002
▁approximated	-13003
▁repositories	-13004
LO	-13005
Tw	-13006
fi	-13007
QED	-13008
Rem	-13009
VER	-13010
afe	-13011
irk	-13012
mys	-13013
▁Az	-13014
▁Bi	-13015
(2))	-13016
arer	-13017
imed	-13018
lace	-13019
mers	-13020
tics	-13021
wall	-13022
▁41.	-13023
▁CMS	-13024
▁Pay	-13025
<>();	-13026
Files	-13027
ceeds	-13028
chers	-13029
▁Okay	-13030
▁fade	-13031
▁fond	-13032
▁inch	-13033
▁odds	-13034
▁soap	-13035
▁subs	-13036
▁tied	-13037
▁verd	-13038
Delete	-13039
effect	-13040
iating	-13041
ittens	-13042
▁Jimmy	-13043
▁dried	-13044
▁loops	-13045
▁renov	-13046
▁ruins	-13047
prepare	-13048
▁Alfred	-13049
▁Scient	-13050
▁enable	-13051
▁exquis	-13052
▁horses	-13053
▁indoor	-13054
▁lasers	-13055
▁repeat	-13056
▁symmet	-13057
▁battery	-13058
▁brewing	-13059
▁expands	-13060
▁foliage	-13061
▁grounds	-13062
▁labeled	-13063
▁lithium	-13064
▁resting	-13065
▁surreal	-13066
▁(6.67430	-13067
▁calculus	-13068
▁carriers	-13069
▁counting	-13070
▁mitigate	-13071
▁stranger	-13072
▁elaborate	-13073
ServerError	-13074
▁contradict	-13075
▁meticulous	-13076
▁consecutive	-13077
▁convenience	-13078
▁conventional	-13079
StatusInternal	-13080
IA	-13081
SF	-13082
'))	-13083
2)(	-13084
dot	-13085
mut	-13086
php	-13087
▁DB	-13088
core	-13089
erek	-13090
▁28.	-13091
▁Aqu	-13092
▁gap	-13093
fetch	-13094
plate	-13095
▁1/2.	-13096
▁Half	-13097
▁Joan	-13098
▁Wild	-13099
▁athl	-13100
▁drug	-13101
▁encl	-13102
▁torn	-13103
ipedia	-13104
pauses	-13105
ppings	-13106
ropies	-13107
▁1.660	-13108
▁9.109	-13109
▁Robin	-13110
▁Susan	-13111
▁chees	-13112
▁chill	-13113
▁curse	-13114
▁fails	-13115
▁lover	-13116
▁proof	-13117
▁texts	-13118
▁twins	-13119
▁vegan	-13120
Student	-13121
covered	-13122
ormally	-13123
umbling	-13124
▁Caesar	-13125
▁Indust	-13126
▁Pulsar	-13127
▁Travel	-13128
▁beside	-13129
▁combat	-13130
▁harder	-13131
▁scroll	-13132
▁shades	-13133
▁spices	-13134
▁stated	-13135
▁stayed	-13136
▁throne	-13137
▁traits	-13138
atically	-13139
ervation	-13140
filePath	-13141
▁Process	-13142
▁coaxial	-13143
▁feeding	-13144
▁strikes	-13145
▁threats	-13146
▁upright	-13147
▁Extracts	-13148
▁arranged	-13149
▁inventor	-13150
▁validate	-13151
▁Potential	-13152
▁classroom	-13153
▁Experiment	-13154
▁enthusiasm	-13155
▁hypothesis	-13156
▁iridescent	-13157
▁procedures	-13158
▁purchasing	-13159
▁hydrostatic	-13160
▁mindfulness	-13161
▁momentarily	-13162
▁highlighting	-13163
▁transforming	-13164
./	-13165
73	-13166
_3	-13167
}"	-13168
▁79	-13169
▁MA	-13170
Over	-13171
ania	-13172
eyed	-13173
hire	-13174
imer	-13175
▁1).	-13176
▁15,	-13177
▁Dig	-13178
▁Low	-13179
▁gym	-13180
ambda	-13181
amins	-13182
backs	-13183
▁Cars	-13184
▁Line	-13185
▁Stat	-13186
▁acid	-13187
▁aura	-13188
▁shoe	-13189
▁succ	-13190
▁tide	-13191
(400).	-13192
ieties	-13193
▁0.005	-13194
▁Rober	-13195
▁Tools	-13196
▁cater	-13197
▁loose	-13198
▁pregn	-13199
▁stays	-13200
▁suits	-13201
▁threw	-13202
▁tones	-13203
hearted	-13204
verance	-13205
▁Advent	-13206
▁Battle	-13207
▁Nikola	-13208
▁actors	-13209
▁arrays	-13210
▁asleep	-13211
▁courts	-13212
▁genres	-13213
▁lovers	-13214
▁poetry	-13215
▁snacks	-13216
▁colored	-13217
▁invalid	-13218
▁sadness	-13219
▁Pressure	-13220
▁escaping	-13221
▁festival	-13222
▁globally	-13223
▁molecule	-13224
▁politics	-13225
▁subjects	-13226
▁throwing	-13227
▁disappear	-13228
▁lowercase	-13229
▁unpredict	-13230
▁arithmetic	-13231
▁photograph	-13232
▁accompanied	-13233
▁cooperation	-13234
▁otherworldly	-13235
)⟩	-13236
.2	-13237
Acc	-13238
jpg	-13239
▁55	-13240
▁?,	-13241
▁BB	-13242
▁Δφ	-13243
diff	-13244
loop	-13245
omed	-13246
spin	-13247
ulas	-13248
▁|11	-13249
andra	-13250
ceans	-13251
enery	-13252
hered	-13253
oured	-13254
▁Bolt	-13255
▁Dave	-13256
▁Help	-13257
▁Mont	-13258
▁Prec	-13259
▁Trie	-13260
▁prin	-13261
▁trav	-13262
avored	-13263
filled	-13264
▁10^10	-13265
▁ATLAS	-13266
▁Belle	-13267
▁Books	-13268
▁Pract	-13269
▁Roger	-13270
▁bands	-13271
▁panel	-13272
▁rings	-13273
▁spraw	-13274
▁tense	-13275
▁toxic	-13276
isEmpty	-13277
service	-13278
▁Adding	-13279
▁assass	-13280
▁breeds	-13281
▁emerge	-13282
▁inquir	-13283
▁packed	-13284
▁resemb	-13285
▁tested	-13286
▁Academy	-13287
▁chasing	-13288
▁fantast	-13289
▁goodbye	-13290
▁keyword	-13291
▁mileage	-13292
▁reports	-13293
▁thrives	-13294
▁violate	-13295
▁10^(-15)	-13296
▁abstract	-13297
▁explores	-13298
▁flexible	-13299
▁listened	-13300
▁reversed	-13301
▁Summarize	-13302
▁addresses	-13303
▁intervals	-13304
▁sensation	-13305
▁suffering	-13306
▁amplitudes	-13307
▁comforting	-13308
▁volumetric	-13309
▁constructed	-13310
▁availability	-13311
'(	-13312
AP	-13313
VE	-13314
_,	-13315
(3,	-13316
(90	-13317
15,	-13318
64)	-13319
▁8-	-13320
▁dE	-13321
Load	-13322
Okay	-13323
▁Men	-13324
▁dri	-13325
Color	-13326
akery	-13327
esium	-13328
month	-13329
rific	-13330
▁0.06	-13331
▁Club	-13332
▁bike	-13333
▁frog	-13334
▁hire	-13335
acious	-13336
writer	-13337
▁0.002	-13338
▁Beach	-13339
▁React	-13340
▁Yours	-13341
▁azure	-13342
▁rises	-13343
▁steal	-13344
▁Engine	-13345
▁Govern	-13346
▁Graham	-13347
▁Summer	-13348
▁Watson	-13349
▁lively	-13350
▁stroll	-13351
▁twenty	-13352
▁Support	-13353
▁Tritium	-13354
▁Widgets	-13355
▁chatbot	-13356
▁expense	-13357
▁succeed	-13358
▁twisted	-13359
▁Activity	-13360
▁Interest	-13361
▁balloons	-13362
▁election	-13363
▁equipped	-13364
▁featured	-13365
▁outgoing	-13366
▁thrilled	-13367
▁Sincerely	-13368
▁Wednesday	-13369
▁energetic	-13370
▁geometric	-13371
▁intrigued	-13372
▁seriously	-13373
▁preserving	-13374
▁vibrations	-13375
▁instability	-13376
▁philosophical	-13377
▁recommendations	-13378
02	-13379
CP	-13380
SW	-13381
3:]	-13382
BHs	-13383
Mpc	-13384
ogg	-13385
/2)2	-13386
aska	-13387
bris	-13388
maze	-13389
plex	-13390
rels	-13391
show	-13392
▁1):	-13393
▁11,	-13394
▁480	-13395
▁CEO	-13396
▁Veg	-13397
▁amp	-13398
▁fmt	-13399
▁gri	-13400
▁lic	-13401
:8080	-13402
Every	-13403
agger	-13404
chemy	-13405
zmann	-13406
▁((0.	-13407
▁(1/√	-13408
▁Luke	-13409
▁Narr	-13410
▁carb	-13411
▁epic	-13412
▁nost	-13413
▁peek	-13414
▁tact	-13415
UPDATE	-13416
arding	-13417
riched	-13418
screen	-13419
▁Holly	-13420
▁Think	-13421
▁annoy	-13422
▁bacon	-13423
▁baker	-13424
▁bills	-13425
▁fires	-13426
▁magaz	-13427
▁omega	-13428
▁polic	-13429
▁scrap	-13430
▁shook	-13431
▁witty	-13432
ielding	-13433
▁3.1415	-13434
▁Axions	-13435
▁Client	-13436
▁Marvel	-13437
▁Matrix	-13438
▁Saturn	-13439
▁Silver	-13440
▁applic	-13441
▁daring	-13442
▁empire	-13443
▁render	-13444
▁settle	-13445
▁taller	-13446
sequence	-13447
▁claimed	-13448
▁dismiss	-13449
▁humming	-13450
▁illness	-13451
▁resized	-13452
amination	-13453
placement	-13454
▁articles	-13455
▁caffeine	-13456
▁declared	-13457
▁locality	-13458
▁seasoned	-13459
▁teaspoon	-13460
▁Starlight	-13461
▁accounted	-13462
▁fantastic	-13463
▁precisely	-13464
transmitted	-13465
▁separately	-13466
SQLException	-13467
▁controlling	-13468
▁fantastical	-13469
61	-13470
Ad	-13471
MD	-13472
OS	-13473
{1	-13474
2);	-13475
3),	-13476
odb	-13477
squ	-13478
uts	-13479
▁-3	-13480
▁49	-13481
▁Li	-13482
▁Sa	-13483
MENT	-13484
NAME	-13485
ashi	-13486
esty	-13487
evin	-13488
hole	-13489
oebe	-13490
▁Amp	-13491
▁Bru	-13492
▁GET	-13493
▁Gre	-13494
▁Lee	-13495
▁TeV	-13496
▁ain	-13497
▁hub	-13498
▁jav	-13499
▁rid	-13500
adows	-13501
lined	-13502
outil	-13503
▁100.	-13504
▁Ages	-13505
▁Benn	-13506
▁Bull	-13507
▁Dead	-13508
▁Fort	-13509
▁Jake	-13510
▁Road	-13511
▁Task	-13512
▁bean	-13513
▁kick	-13514
▁teem	-13515
Column	-13516
^(1/3)	-13517
pleted	-13518
▁10^17	-13519
▁Court	-13520
▁Human	-13521
▁dusty	-13522
▁dying	-13523
▁noble	-13524
▁persu	-13525
▁pipes	-13526
▁tasty	-13527
▁tends	-13528
▁veins	-13529
▁witch	-13530
Collect	-13531
▁0.0025	-13532
▁Edward	-13533
▁Maggie	-13534
▁chairs	-13535
▁clocks	-13536
▁crisis	-13537
▁giants	-13538
▁guides	-13539
▁lately	-13540
▁quaint	-13541
▁scored	-13542
▁trucks	-13543
Function	-13544
Solution	-13545
electric	-13546
▁Georgia	-13547
▁buttons	-13548
▁fortune	-13549
▁museums	-13550
▁staring	-13551
▁warming	-13552
Directory	-13553
▁Hermione	-13554
▁Thursday	-13555
▁assigned	-13556
▁exponent	-13557
▁injuries	-13558
▁modeling	-13559
▁reminded	-13560
▁toroidal	-13561
▁volcanic	-13562
▁Architect	-13563
▁Initially	-13564
▁corporate	-13565
▁enhancing	-13566
▁propagate	-13567
▁reminding	-13568
▁counteract	-13569
▁expedition	-13570
▁functional	-13571
▁overcoming	-13572
▁reputation	-13573
aterrestrial	-13574
▁distinguish	-13575
▁meticulously	-13576
▁presentation	-13577
▁substitution	-13578
▁revolutionized	-13579
=0	-13580
ua	-13581
ws	-13582
}'	-13583
▁∇	-13584
2.8	-13585
Did	-13586
aac	-13587
rah	-13588
uon	-13589
usk	-13590
▁96	-13591
▁TH	-13592
bula	-13593
burg	-13594
comb	-13595
know	-13596
mult	-13597
rait	-13598
riad	-13599
tson	-13600
wing	-13601
▁30.	-13602
▁56.	-13603
▁70%	-13604
▁Ion	-13605
▁awa	-13606
▁cer	-13607
▁hex	-13608
Trace	-13609
addle	-13610
inach	-13611
oween	-13612
▁0.10	-13613
▁Adam	-13614
▁Door	-13615
▁Snow	-13616
▁Whis	-13617
▁beer	-13618
▁bend	-13619
▁pigs	-13620
Americ	-13621
issile	-13622
ouched	-13623
usions	-13624
▁2.294	-13625
▁6.626	-13626
▁Chand	-13627
▁Derek	-13628
▁Learn	-13629
▁Santa	-13630
▁Spect	-13631
▁etern	-13632
▁invas	-13633
▁lucky	-13634
▁remov	-13635
▁tires	-13636
▁unpre	-13637
▁Height	-13638
▁cooled	-13639
▁debris	-13640
▁fluffy	-13641
▁loaves	-13642
▁rarely	-13643
▁safegu	-13644
▁untold	-13645
▁viable	-13646
Assuming	-13647
Password	-13648
readLine	-13649
▁Lattice	-13650
▁Welcome	-13651
▁captain	-13652
▁clarity	-13653
▁existed	-13654
▁finance	-13655
▁jewelry	-13656
▁listens	-13657
▁longing	-13658
▁rabbits	-13659
▁webpage	-13660
alculator	-13661
▁Learning	-13662
▁breeding	-13663
▁informed	-13664
▁outdoors	-13665
▁producer	-13666
▁sunshine	-13667
▁Catherine	-13668
▁dependent	-13669
▁evaluated	-13670
▁newspaper	-13671
▁qualities	-13672
▁requiring	-13673
▁adaptation	-13674
▁illuminating	-13675
▁Interferometer	-13676
6]	-13677
tx	-13678
exp	-13679
mid	-13680
tag	-13681
zip	-13682
▁Cv	-13683
(1);	-13684
^2).	-13685
amon	-13686
ideo	-13687
neys	-13688
oyal	-13689
ught	-13690
▁140	-13691
▁Beh	-13692
▁Dyn	-13693
▁Osc	-13694
▁Pur	-13695
▁ecc	-13696
▁nap	-13697
▁vot	-13698
Bytes	-13699
rowth	-13700
▁4.00	-13701
▁Hist	-13702
▁Jean	-13703
▁Sure	-13704
▁Talk	-13705
▁buys	-13706
▁deer	-13707
▁obsc	-13708
▁pork	-13709
▁surg	-13710
▁Hence	-13711
▁Still	-13712
▁begun	-13713
▁bless	-13714
▁click	-13715
▁gates	-13716
▁parch	-13717
▁shrou	-13718
▁slide	-13719
bitious	-13720
indices	-13721
storage	-13722
▁Brazil	-13723
▁Castle	-13724
▁County	-13725
▁absurd	-13726
▁bathed	-13727
▁folder	-13728
▁immune	-13729
▁storms	-13730
▁talked	-13731
▁violet	-13732
aughters	-13733
▁(1/2)^(	-13734
▁enables	-13735
▁streams	-13736
▁totally	-13737
▁twinkle	-13738
▁uncanny	-13739
vironment	-13740
▁10^(-9))	-13741
▁Studying	-13742
▁answered	-13743
▁beverage	-13744
▁matching	-13745
▁squirrel	-13746
▁amenities	-13747
▁detailing	-13748
▁dominated	-13749
▁healthier	-13750
▁investing	-13751
▁rewarding	-13752
▁treasures	-13753
iverManager	-13754
▁repository	-13755
▁butterflies	-13756
paredStatement	-13757
▁infinitesimal	-13758
58	-13759
El	-13760
⟩,	-13761
boy	-13762
dat	-13763
ita	-13764
ros	-13765
sed	-13766
▁$$	-13767
▁$9	-13768
▁Hi	-13769
bies	-13770
days	-13771
emic	-13772
enic	-13773
ials	-13774
mail	-13775
null	-13776
umes	-13777
▁(18	-13778
▁Bon	-13779
▁Leg	-13780
▁VBF	-13781
▁2500	-13782
▁Berm	-13783
▁Bird	-13784
▁Feel	-13785
▁Flat	-13786
▁Phil	-13787
▁Stan	-13788
▁eyeb	-13789
▁knot	-13790
▁snap	-13791
▁sons	-13792
▁unve	-13793
▁0.511	-13794
▁Angel	-13795
▁Enjoy	-13796
▁Enter	-13797
▁Isaac	-13798
▁Laser	-13799
▁fired	-13800
▁irony	-13801
▁overs	-13802
▁talks	-13803
▁wider	-13804
▁Safety	-13805
▁colony	-13806
▁deadly	-13807
▁gotten	-13808
▁mobile	-13809
▁oceans	-13810
▁picnic	-13811
▁potato	-13812
▁rating	-13813
▁sticks	-13814
▁voyage	-13815
AndServe	-13816
▁Bermuda	-13817
▁Student	-13818
▁airline	-13819
▁seating	-13820
▁shelves	-13821
▁Virginia	-13822
▁clearing	-13823
▁elegance	-13824
▁enhanced	-13825
▁extracts	-13826
▁tracking	-13827
▁Fibonacci	-13828
▁Halloween	-13829
▁Marketing	-13830
▁Perimeter	-13831
▁referring	-13832
currentNode	-13833
▁collapsing	-13834
▁comprehend	-13835
▁introduces	-13836
▁luminescent	-13837
▁transported	-13838
ListenAndServe	-13839
▁revolutionary	-13840
▁interconnected	-13841
:3	-13842
LT	-13843
NI	-13844
OM	-13845
°(	-13846
'),	-13847
/(2	-13848
cap	-13849
dev	-13850
▁Kh	-13851
▁SU	-13852
▁["	-13853
Edge	-13854
asso	-13855
ibbo	-13856
isor	-13857
lers	-13858
mind	-13859
▁(1)	-13860
▁550	-13861
▁650	-13862
▁75%	-13863
▁gad	-13864
▁vet	-13865
block	-13866
falls	-13867
heres	-13868
lands	-13869
ocity	-13870
watch	-13871
▁Fest	-13872
▁hast	-13873
▁mund	-13874
▁nail	-13875
▁pell	-13876
ecilia	-13877
intend	-13878
orient	-13879
rangle	-13880
▁Antar	-13881
▁Charm	-13882
▁Heavy	-13883
▁aimed	-13884
▁glory	-13885
▁inspe	-13886
▁tiles	-13887
▁tubes	-13888
▁whims	-13889
History	-13890
amation	-13891
isphere	-13892
nextInt	-13893
▁10^-14	-13894
▁10^-23	-13895
▁Comput	-13896
▁Galaxy	-13897
▁Juliet	-13898
▁Living	-13899
▁SELECT	-13900
▁digits	-13901
▁embody	-13902
▁estate	-13903
▁myriad	-13904
▁petals	-13905
▁regret	-13906
▁scores	-13907
▁statue	-13908
▁toothp	-13909
▁tracks	-13910
▁visits	-13911
▁volunt	-13912
▁worker	-13913
artender	-13914
isenberg	-13915
students	-13916
▁10^(-8)	-13917
▁Chapter	-13918
▁Discuss	-13919
▁Friends	-13920
▁Jackson	-13921
▁MariaDB	-13922
▁Utilize	-13923
▁Vincent	-13924
▁bravery	-13925
▁centers	-13926
▁dresses	-13927
▁hashtag	-13928
▁lantern	-13929
▁lasting	-13930
▁martial	-13931
▁peppers	-13932
▁propane	-13933
▁pulling	-13934
▁schedul	-13935
▁strokes	-13936
▁tissues	-13937
▁abortion	-13938
▁blooming	-13939
▁confront	-13940
▁impacted	-13941
▁instinct	-13942
▁northern	-13943
▁relaxing	-13944
▁Newtonian	-13945
▁absorbing	-13946
▁authority	-13947
▁exquisite	-13948
▁gentleman	-13949
▁interrupt	-13950
▁nutrition	-13951
▁visualize	-13952
▁Everything	-13953
▁inspection	-13954
▁protecting	-13955
▁showcasing	-13956
▁Theoretical	-13957
▁approaching	-13958
▁complicated	-13959
▁necessarily	-13960
▁reliability	-13961
Mr	-13962
OD	-13963
Tc	-13964
_+	-13965
Big	-13966
sys	-13967
▁dp	-13968
.');	-13969
Exec	-13970
dess	-13971
ombs	-13972
ruit	-13973
week	-13974
▁"""	-13975
▁-1,	-13976
▁Kat	-13977
▁Log	-13978
▁MPa	-13979
▁Pig	-13980
▁Ric	-13981
▁gem	-13982
(255)	-13983
Trans	-13984
erved	-13985
mysql	-13986
▁(199	-13987
▁Anna	-13988
▁Gogh	-13989
▁Kenn	-13990
▁cycl	-13991
▁fake	-13992
▁maps	-13993
▁prow	-13994
▁tape	-13995
▁wrap	-13996
acular	-13997
covery	-13998
istine	-13999
ricult	-14000
themed	-14001
▁Ethan	-14002
▁Right	-14003
▁alley	-14004
▁jelly	-14005
▁punch	-14006
▁tread	-14007
▁whale	-14008
cession	-14009
igation	-14010
▁Altern	-14011
▁Change	-14012
▁Phoebe	-14013
▁Samuel	-14014
▁Strong	-14015
▁aboard	-14016
▁ancest	-14017
▁diesel	-14018
▁duplic	-14019
▁fossil	-14020
▁intake	-14021
▁learns	-14022
▁repair	-14023
▁riding	-14024
▁valley	-14025
activity	-14026
incident	-14027
leveland	-14028
▁behaves	-14029
▁coating	-14030
▁federal	-14031
▁gardens	-14032
▁verdant	-14033
▁argparse	-14034
▁constitu	-14035
▁humorous	-14036
▁medieval	-14037
▁pleasant	-14038
▁quarters	-14039
▁resistor	-14040
▁transmit	-14041
▁treacher	-14042
liferation	-14043
▁Something	-14044
▁intercept	-14045
▁maintains	-14046
▁professor	-14047
▁suspended	-14048
▁Substitute	-14049
▁Underneath	-14050
▁addressing	-14051
▁colleagues	-14052
▁descending	-14053
▁reasonable	-14054
▁revelation	-14055
▁crystalline	-14056
▁enforcement	-14057
▁reminiscent	-14058
▁territories	-14059
▁breakthrough	-14060
'?	-14061
"])	-14062
1.6	-14063
chy	-14064
far	-14065
▁"$	-14066
▁'/	-14067
▁34	-14068
▁39	-14069
agan	-14070
away	-14071
cose	-14072
teen	-14073
▁9.8	-14074
▁Ton	-14075
▁Wix	-14076
▁[];	-14077
▁laz	-14078
▁rib	-14079
acket	-14080
brush	-14081
panic	-14082
store	-14083
▁AIQA	-14084
▁Item	-14085
▁Such	-14086
▁YouT	-14087
▁belt	-14088
▁leak	-14089
▁lion	-14090
▁lull	-14091
▁memo	-14092
▁mour	-14093
▁pars	-14094
ocking	-14095
ongodb	-14096
radius	-14097
rences	-14098
select	-14099
violet	-14100
vision	-14101
▁Guard	-14102
▁Spain	-14103
▁adequ	-14104
▁evoke	-14105
▁rigor	-14106
▁trunk	-14107
▁Common	-14108
▁Gather	-14109
▁Market	-14110
▁Orange	-14111
▁Should	-14112
▁climbs	-14113
▁fierce	-14114
▁floors	-14115
▁hunger	-14116
▁league	-14117
▁sights	-14118
▁smiles	-14119
▁unless	-14120
▁weakly	-14121
ependent	-14122
▁Journal	-14123
▁Service	-14124
▁fissile	-14125
▁illicit	-14126
▁mundane	-14127
▁theatre	-14128
connector	-14129
▁Neutrino	-14130
▁backpack	-14131
▁backyard	-14132
▁crystals	-14133
▁formulas	-14134
▁policies	-14135
▁toppings	-14136
▁weighted	-14137
ochromatic	-14138
▁Education	-14139
▁bartender	-14140
▁clockwise	-14141
▁composite	-14142
▁eccentric	-14143
▁ingenuity	-14144
▁penetrate	-14145
▁utilizing	-14146
▁vegetable	-14147
▁impurities	-14148
▁smartphone	-14149
▁transforms	-14150
▁Information	-14151
▁competitive	-14152
▁eigenvalues	-14153
▁enthusiasts	-14154
▁entertaining	-14155
1'	-14156
Fl	-14157
1.4	-14158
6))	-14159
667	-14160
cus	-14161
oma	-14162
▁"/	-14163
▁Ok	-14164
▁WW	-14165
▁[2	-14166
Vars	-14167
area	-14168
drag	-14169
rell	-14170
umps	-14171
unes	-14172
▁(2,	-14173
▁14,	-14174
▁16,	-14175
▁166	-14176
▁30,	-14177
▁700	-14178
▁HVL	-14179
False	-14180
ivial	-14181
tress	-14182
▁0.95	-14183
▁2.95	-14184
▁5.29	-14185
▁Greg	-14186
▁Kill	-14187
▁Tina	-14188
▁bary	-14189
▁drum	-14190
▁femt	-14191
▁flut	-14192
▁mold	-14193
▁proc	-14194
▁stup	-14195
▁tuck	-14196
umbers	-14197
▁Medit	-14198
▁accum	-14199
▁cruel	-14200
▁heats	-14201
▁taxes	-14202
Nuclear	-14203
▁bakery	-14204
▁creamy	-14205
▁export	-14206
▁frames	-14207
▁insist	-14208
▁killer	-14209
▁sacred	-14210
▁shrimp	-14211
▁tastes	-14212
Analyzer	-14213
critical	-14214
▁Beneath	-14215
▁Looking	-14216
▁Reactor	-14217
▁Winston	-14218
▁balloon	-14219
▁genuine	-14220
▁renting	-14221
▁teeming	-14222
component	-14223
▁diagnost	-14224
▁heaviest	-14225
▁musician	-14226
▁oriented	-14227
▁princess	-14228
▁recovery	-14229
▁shooting	-14230
▁syndrome	-14231
▁timeline	-14232
▁traverse	-14233
▁Boltzmann	-14234
▁Microwave	-14235
▁fragments	-14236
▁literally	-14237
▁preferred	-14238
▁traversal	-14239
▁Heisenberg	-14240
▁Technology	-14241
▁convective	-14242
▁flickering	-14243
▁practicing	-14244
▁encouraging	-14245
▁subtracting	-14246
▁astronomical	-14247
▁manifestation	-14248
▁thermodynamic	-14249
CV	-14250
dI	-14251
▁÷	-14252
/10	-14253
:**	-14254
Sum	-14255
aku	-14256
gal	-14257
gra	-14258
osc	-14259
sea	-14260
▁4-	-14261
▁BY	-14262
Cred	-14263
^2),	-14264
base	-14265
▁Ari	-14266
▁Mur	-14267
▁Rol	-14268
▁Seb	-14269
▁awk	-14270
▁sax	-14271
Frame	-14272
acies	-14273
after	-14274
armor	-14275
▁Blob	-14276
▁LHCb	-14277
▁Scot	-14278
▁Wars	-14279
▁fles	-14280
▁marg	-14281
ACCESS	-14282
Finder	-14283
nament	-14284
ophone	-14285
▁Fermi	-14286
▁Hello	-14287
▁agent	-14288
▁bases	-14289
▁boots	-14290
▁chord	-14291
▁crops	-14292
▁freel	-14293
▁melod	-14294
command	-14295
▁Coffee	-14296
▁Larmor	-14297
▁boring	-14298
▁lifted	-14299
▁maxima	-14300
▁ounces	-14301
▁Elysium	-14302
▁Mercury	-14303
▁Prepare	-14304
▁adopted	-14305
▁arrange	-14306
▁breaths	-14307
avelength	-14308
▁ambiance	-14309
▁commands	-14310
▁flatness	-14311
▁gleaming	-14312
▁intermed	-14313
▁midnight	-14314
▁resonate	-14315
▁silently	-14316
▁tangible	-14317
▁chemicals	-14318
▁telephone	-14319
▁antimatter	-14320
▁companions	-14321
▁convenient	-14322
▁occasional	-14323
▁Environment	-14324
▁authorities	-14325
▁developments	-14326
(∂	-14327
.\	-14328
==	-14329
CA	-14330
IP	-14331
Sm	-14332
/20	-14333
4.4	-14334
750	-14335
967	-14336
Mat	-14337
ari	-14338
isl	-14339
ona	-14340
▁8)	-14341
▁ka	-14342
bows	-14343
rots	-14344
▁193	-14345
▁20)	-14346
▁25,	-14347
▁Enh	-14348
▁Ger	-14349
▁Son	-14350
▁Tol	-14351
▁esp	-14352
Field	-14353
Parse	-14354
anned	-14355
exist	-14356
iking	-14357
shape	-14358
▁Jess	-14359
▁Room	-14360
▁anch	-14361
▁caut	-14362
▁clin	-14363
▁eras	-14364
▁este	-14365
▁fits	-14366
▁info	-14367
▁lapt	-14368
▁peas	-14369
▁stmt	-14370
▁vice	-14371
izards	-14372
▁Quill	-14373
▁Reson	-14374
▁Swift	-14375
▁audio	-14376
▁bloss	-14377
▁hards	-14378
▁knees	-14379
▁sleek	-14380
context	-14381
default	-14382
▁Berlin	-14383
▁Series	-14384
▁babies	-14385
▁bother	-14386
▁candle	-14387
▁cardio	-14388
▁chains	-14389
▁dances	-14390
▁mortal	-14391
▁quotes	-14392
▁regist	-14393
▁replic	-14394
▁temple	-14395
▁tennis	-14396
▁varied	-14397
cedented	-14398
▁anagram	-14399
▁defects	-14400
▁duality	-14401
▁happily	-14402
▁hitting	-14403
▁octopus	-14404
▁printed	-14405
▁travers	-14406
▁entities	-14407
▁imagined	-14408
▁pathways	-14409
▁prospect	-14410
▁showcase	-14411
▁visually	-14412
▁waveform	-14413
▁ArrayList	-14414
▁Wikipedia	-14415
▁acknowled	-14416
▁depicting	-14417
▁exchanged	-14418
▁followers	-14419
▁gardening	-14420
▁displaying	-14421
▁fascinated	-14422
▁simulation	-14423
▁triangular	-14424
▁backgrounds	-14425
▁differently	-14426
▁gravitation	-14427
▁implemented	-14428
▁destinations	-14429
▁incorporates	-14430
▁intersection	-14431
!(	-14432
+,	-14433
ASE	-14434
Rob	-14435
abs	-14436
she	-14437
two	-14438
▁SM	-14439
▁ST	-14440
Tree	-14441
adro	-14442
elve	-14443
ixed	-14444
oric	-14445
▁Arm	-14446
▁McC	-14447
▁Sov	-14448
▁Tea	-14449
▁src	-14450
▁|1⟩	-14451
/2)^2	-14452
Lower	-14453
alend	-14454
amous	-14455
lobal	-14456
strip	-14457
tesla	-14458
▁0.5)	-14459
▁Ball	-14460
▁Cham	-14461
▁Cool	-14462
▁Neil	-14463
▁Wait	-14464
▁oils	-14465
▁quit	-14466
(200).	-14467
ayashi	-14468
escope	-14469
lected	-14470
memory	-14471
ogadro	-14472
▁2.998	-14473
▁Stock	-14474
▁armor	-14475
▁jeans	-14476
▁shiny	-14477
emplate	-14478
intendo	-14479
randint	-14480
▁Gandhi	-14481
▁Office	-14482
▁Review	-14483
▁SpaceX	-14484
▁Target	-14485
▁admire	-14486
▁behave	-14487
▁devast	-14488
▁domain	-14489
▁encaps	-14490
▁firmly	-14491
▁intens	-14492
▁layout	-14493
▁rushed	-14494
▁stairs	-14495
▁wished	-14496
assuming	-14497
▁Cecilia	-14498
▁engines	-14499
▁fastest	-14500
▁granted	-14501
▁mediate	-14502
▁reviews	-14503
▁tablesp	-14504
▁Internet	-14505
▁versions	-14506
▁WebSocket	-14507
▁attempted	-14508
▁consumers	-14509
▁exhausted	-14510
▁illusions	-14511
▁packaging	-14512
▁telescope	-14513
▁collecting	-14514
▁deposition	-14515
▁futuristic	-14516
▁lighthouse	-14517
▁luminosity	-14518
▁rotational	-14519
▁threatened	-14520
▁instruction	-14521
▁occasionally	-14522
BufferedReader	-14523
▁establishment	-14524
(*	-14525
UE	-14526
---	-14527
14.	-14528
May	-14529
▁1-	-14530
▁56	-14531
▁Im	-14532
▁df	-14533
(90)	-14534
Post	-14535
flag	-14536
grad	-14537
heap	-14538
move	-14539
reek	-14540
zona	-14541
▁-1)	-14542
▁Joy	-14543
▁eco	-14544
-235,	-14545
ailey	-14546
blest	-14547
esome	-14548
urora	-14549
▁0.30	-14550
▁Anth	-14551
▁Cher	-14552
▁FLRW	-14553
▁Sort	-14554
▁goat	-14555
▁grey	-14556
▁impe	-14557
▁mira	-14558
▁sole	-14559
rought	-14560
▁Girls	-14561
▁Prime	-14562
▁batch	-14563
▁bytes	-14564
▁hello	-14565
▁negot	-14566
▁seeks	-14567
▁snake	-14568
▁surge	-14569
eliness	-14570
ivities	-14571
▁Thread	-14572
▁claims	-14573
▁titled	-14574
▁Eastern	-14575
▁Ranking	-14576
▁Reading	-14577
▁concert	-14578
▁exhilar	-14579
▁mosquit	-14580
▁shaking	-14581
▁unitary	-14582
▁wanting	-14583
▁weights	-14584
According	-14585
▁Electric	-14586
▁Whiskers	-14587
▁callback	-14588
▁catching	-14589
▁fermions	-14590
▁forecast	-14591
▁haunting	-14592
▁realizes	-14593
▁remnants	-14594
▁swirling	-14595
▁vanished	-14596
StackTrace	-14597
▁Hyperlink	-14598
▁Principle	-14599
▁distorted	-14600
▁inversely	-14601
▁migration	-14602
▁optimized	-14603
▁pineapple	-14604
▁untouched	-14605
▁varieties	-14606
Description	-14607
▁admiration	-14608
▁asymptotic	-14609
▁distortion	-14610
▁sandwiches	-14611
▁equivalence	-14612
▁friendships	-14613
▁micrometers	-14614
elasticsearch	-14615
▁counterparts	-14616
▁labyrinthine	-14617
▁instabilities	-14618
▁perturbations	-14619
▁revolutionize	-14620
▁unprecedented	-14621
printStackTrace	-14622
cv	-14623
0.4	-14624
INC	-14625
TOK	-14626
ima	-14627
non	-14628
rus	-14629
yss	-14630
▁-=	-14631
▁Eu	-14632
0.0.	-14633
EGER	-14634
beth	-14635
cake	-14636
dict	-14637
iche	-14638
pent	-14639
shot	-14640
▁105	-14641
▁192	-14642
▁225	-14643
▁Den	-14644
▁Joh	-14645
▁Nap	-14646
▁pix	-14647
▁vic	-14648
Rober	-14649
TOKEN	-14650
ocado	-14651
▁(6.0	-14652
▁10−3	-14653
▁Chem	-14654
▁Isol	-14655
▁atop	-14656
▁dipl	-14657
▁mail	-14658
▁mane	-14659
▁muff	-14660
▁penn	-14661
▁roar	-14662
Walker	-14663
inberg	-14664
sively	-14665
▁Bella	-14666
▁Champ	-14667
▁Kevin	-14668
▁Trail	-14669
▁Visit	-14670
▁Years	-14671
▁dared	-14672
▁fades	-14673
▁liver	-14674
▁maker	-14675
▁panic	-14676
▁thief	-14677
▁utter	-14678
▁yards	-14679
display	-14680
flowers	-14681
ocation	-14682
seconds	-14683
▁Entang	-14684
▁Maisie	-14685
▁arrest	-14686
▁boxing	-14687
▁franch	-14688
▁overhe	-14689
▁sighed	-14690
▁weighs	-14691
ribution	-14692
▁Machine	-14693
▁Message	-14694
▁Weather	-14695
▁farther	-14696
▁habitat	-14697
▁hazards	-14698
▁nowhere	-14699
▁passive	-14700
▁renewed	-14701
▁smiling	-14702
▁soldier	-14703
▁tattoos	-14704
conscious	-14705
websocket	-14706
▁Festival	-14707
▁disaster	-14708
▁embarked	-14709
▁enriched	-14710
▁normally	-14711
▁probable	-14712
▁rhythmic	-14713
▁serenity	-14714
converting	-14715
▁Cleveland	-14716
▁instances	-14717
▁parchment	-14718
▁recording	-14719
▁territory	-14720
▁Conversely	-14721
▁conference	-14722
▁delivering	-14723
▁numerology	-14724
▁protective	-14725
▁Temperature	-14726
▁comprehension	-14727
▁sustainability	-14728
ui	-14729
{"	-14730
12)	-14731
Fil	-14732
Sql	-14733
rim	-14734
▁99	-14735
▁Ow	-14736
▁dA	-14737
▁mL	-14738
▁ok	-14739
Http	-14740
Look	-14741
None	-14742
Wave	-14743
bage	-14744
emon	-14745
ften	-14746
ooky	-14747
ptic	-14748
runt	-14749
tuce	-14750
{1}{	-14751
▁'__	-14752
▁24,	-14753
▁28,	-14754
▁Hum	-14755
▁Toy	-14756
▁[1,	-14757
▁ppm	-14758
ilant	-14759
imary	-14760
ouses	-14761
ustle	-14762
vings	-14763
▁Ella	-14764
▁Fill	-14765
▁Lost	-14766
▁Need	-14767
▁Vera	-14768
▁ants	-14769
▁hasn	-14770
▁ming	-14771
▁pant	-14772
▁pion	-14773
▁rope	-14774
▁tear	-14775
▁wars	-14776
Insert	-14777
arcsin	-14778
arming	-14779
center	-14780
judice	-14781
salary	-14782
▁Incor	-14783
▁aging	-14784
▁burns	-14785
▁cakes	-14786
▁digit	-14787
▁drove	-14788
▁lever	-14789
▁onset	-14790
▁relig	-14791
500,000	-14792
innamon	-14793
regular	-14794
▁(1.054	-14795
▁20,000	-14796
▁Galile	-14797
▁agency	-14798
▁biting	-14799
▁crying	-14800
▁hardly	-14801
▁headed	-14802
▁hollow	-14803
▁parall	-14804
▁phones	-14805
▁planes	-14806
▁velvet	-14807
Distance	-14808
articles	-14809
nextLine	-14810
▁Firstly	-14811
▁Roberts	-14812
▁adapted	-14813
▁courses	-14814
▁dangers	-14815
▁descend	-14816
▁refined	-14817
▁smoking	-14818
Robertson	-14819
▁ambition	-14820
▁animated	-14821
▁eloquent	-14822
▁misunder	-14823
▁promotes	-14824
▁Detecting	-14825
▁historian	-14826
▁WebScraper	-14827
▁ecosystems	-14828
▁fractional	-14829
▁polarizers	-14830
▁displacement	-14831
▁supernatural	-14832
dz	-14833
jo	-14834
rr	-14835
-1]	-14836
Use	-14837
har	-14838
lar	-14839
yll	-14840
▁31	-14841
▁Ju	-14842
Turn	-14843
__':	-14844
anda	-14845
answ	-14846
ario	-14847
game	-14848
ollo	-14849
olly	-14850
phin	-14851
rust	-14852
walk	-14853
▁$80	-14854
▁Bul	-14855
▁Dut	-14856
▁Jon	-14857
▁ctx	-14858
ahren	-14859
chain	-14860
erian	-14861
inton	-14862
metal	-14863
▁2021	-14864
▁Iron	-14865
▁News	-14866
▁Prov	-14867
▁Viol	-14868
▁Wolf	-14869
▁Zeph	-14870
▁fees	-14871
▁hash	-14872
▁horm	-14873
▁shar	-14874
Action	-14875
Person	-14876
called	-14877
common	-14878
etings	-14879
sqlite	-14880
▁Athen	-14881
▁Debye	-14882
▁Flore	-14883
▁Order	-14884
▁coinc	-14885
▁consp	-14886
▁faded	-14887
▁inher	-14888
▁redis	-14889
▁roads	-14890
▁spray	-14891
▁stake	-14892
▁surre	-14893
▁tremb	-14894
▁yearn	-14895
Subject	-14896
▁0.0000	-14897
▁Radius	-14898
▁surviv	-14899
▁waited	-14900
obayashi	-14901
renaline	-14902
▁Arizona	-14903
▁Combine	-14904
▁INTEGER	-14905
▁Library	-14906
▁counted	-14907
▁debates	-14908
▁elegant	-14909
▁evolves	-14910
▁females	-14911
▁gaining	-14912
▁halfway	-14913
▁microsc	-14914
▁retired	-14915
▁stadium	-14916
Container	-14917
▁Harrison	-14918
▁blankets	-14919
▁emphasis	-14920
▁shipping	-14921
▁sinister	-14922
▁vitamins	-14923
▁addressed	-14924
▁ambitious	-14925
▁officials	-14926
▁overnight	-14927
▁protected	-14928
▁replacing	-14929
▁responded	-14930
▁stretches	-14931
▁uncomfort	-14932
▁controvers	-14933
▁discomfort	-14934
▁optimizing	-14935
▁terrifying	-14936
▁achievement	-14937
▁beautifully	-14938
▁mischievous	-14939
▁occurrences	-14940
▁oscillating	-14941
▁SQLException	-14942
▁intermediate	-14943
▁constellations	-14944
04	-14945
2}	-14946
πε	-14947
⟩)	-14948
III	-14949
Sal	-14950
aki	-14951
typ	-14952
vey	-14953
▁-5	-14954
▁IO	-14955
▁hi	-14956
▁ya	-14957
"));	-14958
Lema	-14959
Play	-14960
bell	-14961
conf	-14962
food	-14963
heit	-14964
imag	-14965
lyph	-14966
road	-14967
ître	-14968
▁10°	-14969
▁3.2	-14970
▁Cry	-14971
▁Ern	-14972
▁bay	-14973
▁hue	-14974
(90°)	-14975
Earth	-14976
antal	-14977
float	-14978
ivate	-14979
steps	-14980
▁1/13	-14981
▁Alan	-14982
▁Trad	-14983
▁boil	-14984
▁gear	-14985
▁gira	-14986
▁heal	-14987
▁kale	-14988
▁murm	-14989
Loader	-14990
ancers	-14991
anding	-14992
arrass	-14993
erning	-14994
erries	-14995
rupole	-14996
▁10^-4	-14997
▁10^11	-14998
▁Decay	-14999
▁Email	-15000
▁Happy	-15001
▁Limit	-15002
▁Orion	-15003
▁Watch	-15004
▁beats	-15005
▁coils	-15006
▁dimin	-15007
▁flesh	-15008
▁pstmt	-15009
▁resid	-15010
▁scans	-15011
Provide	-15012
^(-1/2)	-15013
herical	-15014
mongodb	-15015
neutral	-15016
▁(10^(-	-15017
▁OpenCV	-15018
▁Soviet	-15019
▁assets	-15020
▁assure	-15021
▁defeat	-15022
▁grades	-15023
▁injury	-15024
▁jumped	-15025
▁knight	-15026
▁melted	-15027
▁outlet	-15028
Document	-15029
Lemaître	-15030
atabases	-15031
encoding	-15032
erranean	-15033
▁Britain	-15034
▁Integer	-15035
▁Martian	-15036
▁Monthly	-15037
▁Project	-15038
▁bearing	-15039
▁cunning	-15040
▁deserve	-15041
▁elderly	-15042
▁evident	-15043
▁fitting	-15044
▁inserts	-15045
▁kittens	-15046
▁tickets	-15047
▁weaving	-15048
ahrenheit	-15049
▁Avogadro	-15050
▁Thompson	-15051
▁agricult	-15052
▁attended	-15053
▁blending	-15054
▁dreaming	-15055
▁evolving	-15056
▁overview	-15057
▁shrouded	-15058
bodyParser	-15059
▁Exception	-15060
▁Hollywood	-15061
▁boyfriend	-15062
▁motivated	-15063
▁resonates	-15064
▁villagers	-15065
▁definition	-15066
▁industries	-15067
▁infinities	-15068
▁reservoirs	-15069
▁seamlessly	-15070
▁manufacture	-15071
▁Mediterranean	-15072
▁antiparticles	-15073
▁demonstrating	-15074
▁professionals	-15075
▁sophistication	-15076
*(	-15077
._	-15078
8%	-15079
AI	-15080
`:	-15081
▁⟨	-15082
11,	-15083
125	-15084
Bob	-15085
ked	-15086
yes	-15087
▁##	-15088
acks	-15089
aren	-15090
brid	-15091
cile	-15092
cium	-15093
lore	-15094
oker	-15095
utic	-15096
yles	-15097
▁$40	-15098
▁(7.	-15099
▁Ear	-15100
▁NBA	-15101
[...]
