{
  "version": "1.0",
  "truncation": null,
  "padding": null,
  "added_tokens": [
    {
      "id": 0,
      "content": "[UNK]",
      "single_word": false,
      "lstrip": false,
      "rstrip": false,
      "normalized": false,
      "special": true
    },
    {
      "id": 1,
      "content": "[PAD]",
      "single_word": false,
      "lstrip": false,
      "rstrip": false,
      "normalized": false,
      "special": true
    },
    {
      "id": 2,
      "content": "[BOS]",
      "single_word": false,
      "lstrip": false,
      "rstrip": false,
      "normalized": false,
      "special": true
    },
    {
      "id": 3,
      "content": "[EOS]",
      "single_word": false,
      "lstrip": false,
      "rstrip": false,
      "normalized": false,
      "special": true
    }
  ],
  "normalizer": null,
  "pre_tokenizer": {
    "type": "Whitespace"
  },
  "post_processor": null,
  "decoder": null,
  "model": {
    "type": "BPE",
    "dropout": null,
    "unk_token": "[UNK]",
    "continuing_subword_prefix": null,
    "end_of_word_suffix": null,
    "fuse_unk": false,
    "byte_fallback": false,
    "ignore_merges": false,
    "vocab": {
      "[UNK]": 0,
      "[PAD]": 1,
      "[BOS]": 2,
      "[EOS]": 3,
      "!": 4,
      "\"": 5,
      "#": 6,
      "$": 7,
      "%": 8,
      "&": 9,
      "'": 10,
      "(": 11,
      ")": 12,
      "*": 13,
      "+": 14,
      ",": 15,
      "-": 16,
      ".": 17,
      "/": 18,
      "0": 19,
      "1": 20,
      "2": 21,
      "3": 22,
      "4": 23,
      "5": 24,
      "6": 25,
      "7": 26,
      "8": 27,
      "9": 28,
      ":": 29,
      ";": 30,
      "<": 31,
      "=": 32,
      ">": 33,
      "?": 34,
      "@": 35,
      "A": 36,
      "B": 37,
      "C": 38,
      "D": 39,
      "E": 40,
      "F": 41,
      "G": 42,
      "H": 43,
      "I": 44,
      "J": 45,
      "K": 46,
      "L": 47,
      "M": 48,
      "N": 49,
      "O": 50,
      "P": 51,
      "Q": 52,
      "R": 53,
      "S": 54,
      "T": 55,
      "U": 56,
      "V": 57,
      "W": 58,
      "X": 59,
      "Y": 60,
      "Z": 61,
      "[": 62,
      "\\": 63,
      "]": 64,
      "^": 65,
      "_": 66,
      "`": 67,
      "a": 68,
      "b": 69,
      "c": 70,
      "d": 71,
      "e": 72,
      "f": 73,
      "g": 74,
      "h": 75,
      "i": 76,
      "j": 77,
      "k": 78,
      "l": 79,
      "m": 80,
      "n": 81,
      "o": 82,
      "p": 83,
      "q": 84,
      "r": 85,
      "s": 86,
      "t": 87,
      "u": 88,
      "v": 89,
      "w": 90,
      "x": 91,
      "y": 92,
      "z": 93,
      "|": 94,
      "}": 95,
      "~": 96,
      "": 97,
      "": 98,
      "¡": 99,
      "¢": 100,
      "£": 101,
      "¥": 102,
      "§": 103,
      "°": 104,
      "±": 105,
      "²": 106,
      "³": 107,
      "´": 108,
      "µ": 109,
      "·": 110,
      "º": 111,
      "½": 112,
      "¿": 113,
      "Á": 114,
      "Ä": 115,
      "Å": 116,
      "Æ": 117,
      "Ç": 118,
      "É": 119,
      "Í": 120,
      "Î": 121,
      "Ñ": 122,
      "Ó": 123,
      "Ö": 124,
      "×": 125,
      "Ø": 126,
      "Ú": 127,
      "Ü": 128,
      "Þ": 129,
      "ß": 130,
      "à": 131,
      "á": 132,
      "â": 133,
      "ã": 134,
      "ä": 135,
      "å": 136,
      "æ": 137,
      "ç": 138,
      "è": 139,
      "é": 140,
      "ê": 141,
      "ë": 142,
      "ì": 143,
      "í": 144,
      "î": 145,
      "ï": 146,
      "ð": 147,
      "ñ": 148,
      "ò": 149,
      "ó": 150,
      "ô": 151,
      "ö": 152,
      "ø": 153,
      "ù": 154,
      "ú": 155,
      "û": 156,
      "ü": 157,
      "ý": 158,
      "þ": 159,
      "Ā": 160,
      "ā": 161,
      "ă": 162,
      "ą": 163,
      "ć": 164,
      "Č": 165,
      "č": 166,
      "Đ": 167,
      "đ": 168,
      "Ē": 169,
      "ē": 170,
      "Ĕ": 171,
      "ĕ": 172,
      "ė": 173,
      "ę": 174,
      "ğ": 175,
      "ħ": 176,
      "ī": 177,
      "İ": 178,
      "ı": 179,
      "Ľ": 180,
      "Ł": 181,
      "ł": 182,
      "ń": 183,
      "Ō": 184,
      "ō": 185,
      "œ": 186,
      "ř": 187,
      "Ś": 188,
      "ś": 189,
      "Ş": 190,
      "ş": 191,
      "Š": 192,
      "š": 193,
      "ţ": 194,
      "ũ": 195,
      "ū": 196,
      "ů": 197,
      "ų": 198,
      "ź": 199,
      "Ż": 200,
      "ż": 201,
      "Ž": 202,
      "ž": 203,
      "ơ": 204,
      "ư": 205,
      "ǎ": 206,
      "ǔ": 207,
      "Ș": 208,
      "ș": 209,
      "ț": 210,
      "ȯ": 211,
      "ɐ": 212,
      "ɑ": 213,
      "ɒ": 214,
      "ɔ": 215,
      "ə": 216,
      "ɛ": 217,
      "ɜ": 218,
      "ɡ": 219,
      "ɢ": 220,
      "ɪ": 221,
      "ɫ": 222,
      "ɳ": 223,
      "ɽ": 224,
      "ɾ": 225,
      "ʁ": 226,
      "ʃ": 227,
      "ʊ": 228,
      "ʋ": 229,
      "ʒ": 230,
      "ʔ": 231,
      "ʕ": 232,
      "ʲ": 233,
      "ʻ": 234,
      "ʼ": 235,
      "ʾ": 236,
      "ʿ": 237,
      "ˈ": 238,
      "ˌ": 239,
      "ː": 240,
      "́": 241,
      "̃": 242,
      "̍": 243,
      "̥": 244,
      "̯": 245,
      "͍": 246,
      "Α": 247,
      "Δ": 248,
      "Κ": 249,
      "Ν": 250,
      "Π": 251,
      "Τ": 252,
      "Φ": 253,
      "Χ": 254,
      "Ω": 255,
      "ά": 256,
      "έ": 257,
      "ή": 258,
      "ί": 259,
      "α": 260,
      "β": 261,
      "γ": 262,
      "δ": 263,
      "ε": 264,
      "η": 265,
      "θ": 266,
      "ι": 267,
      "κ": 268,
      "λ": 269,
      "μ": 270,
      "ν": 271,
      "ξ": 272,
      "ο": 273,
      "π": 274,
      "ρ": 275,
      "ς": 276,
      "σ": 277,
      "τ": 278,
      "υ": 279,
      "χ": 280,
      "ψ": 281,
      "ω": 282,
      "ό": 283,
      "ύ": 284,
      "ώ": 285,
      "А": 286,
      "Б": 287,
      "В": 288,
      "Г": 289,
      "К": 290,
      "П": 291,
      "Р": 292,
      "С": 293,
      "У": 294,
      "Х": 295,
      "Я": 296,
      "а": 297,
      "в": 298,
      "г": 299,
      "д": 300,
      "е": 301,
      "ж": 302,
      "з": 303,
      "и": 304,
      "й": 305,
      "к": 306,
      "л": 307,
      "м": 308,
      "н": 309,
      "о": 310,
      "п": 311,
      "р": 312,
      "с": 313,
      "т": 314,
      "у": 315,
      "х": 316,
      "ц": 317,
      "ш": 318,
      "ъ": 319,
      "ы": 320,
      "ь": 321,
      "ю": 322,
      "я": 323,
      "є": 324,
      "ֵ": 325,
      "ֶ": 326,
      "ָ": 327,
      "ֹ": 328,
      "ּ": 329,
      "א": 330,
      "ב": 331,
      "ג": 332,
      "ה": 333,
      "ו": 334,
      "ז": 335,
      "ח": 336,
      "י": 337,
      "ל": 338,
      "ם": 339,
      "מ": 340,
      "ן": 341,
      "נ": 342,
      "ס": 343,
      "ף": 344,
      "פ": 345,
      "צ": 346,
      "ר": 347,
      "ש": 348,
      "ת": 349,
      "ء": 350,
      "أ": 351,
      "إ": 352,
      "ا": 353,
      "ب": 354,
      "ة": 355,
      "ت": 356,
      "ث": 357,
      "ج": 358,
      "ح": 359,
      "خ": 360,
      "د": 361,
      "ذ": 362,
      "ر": 363,
      "س": 364,
      "ش": 365,
      "ص": 366,
      "ع": 367,
      "ف": 368,
      "ق": 369,
      "ك": 370,
      "ل": 371,
      "م": 372,
      "ن": 373,
      "ه": 374,
      "و": 375,
      "ي": 376,
      "ܐ": 377,
      "ܕ": 378,
      "ܗ": 379,
      "ܝ": 380,
      "ܠ": 381,
      "ܢ": 382,
      "ܬ": 383,
      "ܲ": 384,
      "ܵ": 385,
      "ं": 386,
      "अ": 387,
      "ई": 388,
      "क": 389,
      "ग": 390,
      "ण": 391,
      "त": 392,
      "द": 393,
      "न": 394,
      "प": 395,
      "ब": 396,
      "म": 397,
      "य": 398,
      "र": 399,
      "ल": 400,
      "व": 401,
      "स": 402,
      "ह": 403,
      "ा": 404,
      "ि": 405,
      "ु": 406,
      "ू": 407,
      "े": 408,
      "ै": 409,
      "्": 410,
      "আ": 411,
      "ল": 412,
      "হ": 413,
      "া": 414,
      "্": 415,
      "ਅ": 416,
      "ਲ": 417,
      "ਹ": 418,
      "ਾ": 419,
      "ੁ": 420,
      "ੱ": 421,
      "അ": 422,
      "ള": 423,
      "ഹ": 424,
      "ാ": 425,
      "്": 426,
      "ก": 427,
      "ค": 428,
      "ง": 429,
      "ช": 430,
      "ซ": 431,
      "ญ": 432,
      "ฐ": 433,
      "ณ": 434,
      "ด": 435,
      "ต": 436,
      "น": 437,
      "บ": 438,
      "ป": 439,
      "พ": 440,
      "ภ": 441,
      "ม": 442,
      "ย": 443,
      "ร": 444,
      "ล": 445,
      "ว": 446,
      "ศ": 447,
      "ษ": 448,
      "ส": 449,
      "ห": 450,
      "อ": 451,
      "ฮ": 452,
      "ะ": 453,
      "ั": 454,
      "า": 455,
      "ิ": 456,
      "ี": 457,
      "ึ": 458,
      "เ": 459,
      "แ": 460,
      "ไ": 461,
      "็": 462,
      "่": 463,
      "้": 464,
      "๊": 465,
      "์": 466,
      "Ⴀ": 467,
      "Ⴂ": 468,
      "Ⴃ": 469,
      "Ⴈ": 470,
      "Ⴌ": 471,
      "Ⴕ": 472,
      "Ⴟ": 473,
      "ა": 474,
      "ბ": 475,
      "გ": 476,
      "დ": 477,
      "ე": 478,
      "ვ": 479,
      "ზ": 480,
      "თ": 481,
      "ი": 482,
      "კ": 483,
      "ლ": 484,
      "მ": 485,
      "ნ": 486,
      "ო": 487,
      "პ": 488,
      "ჟ": 489,
      "რ": 490,
      "ს": 491,
      "ტ": 492,
      "უ": 493,
      "ფ": 494,
      "ქ": 495,
      "ღ": 496,
      "ყ": 497,
      "შ": 498,
      "ჩ": 499,
      "ც": 500,
      "ძ": 501,
      "წ": 502,
      "ჭ": 503,
      "ხ": 504,
      "ჯ": 505,
      "ჰ": 506,
      "ჱ": 507,
      "ჲ": 508,
      "ჳ": 509,
      "ჴ": 510,
      "ჵ": 511,
      "ჶ": 512,
      "ჷ": 513,
      "ჸ": 514,
      "ჹ": 515,
      "ჺ": 516,
      "჻": 517,
      "ᵻ": 518,
      "ḍ": 519,
      "ḏ": 520,
      "Ḥ": 521,
      "ḥ": 522,
      "ḷ": 523,
      "ṃ": 524,
      "ṅ": 525,
      "ṇ": 526,
      "ṛ": 527,
      "ṣ": 528,
      "ṭ": 529,
      "ṯ": 530,
      "ạ": 531,
      "ả": 532,
      "ấ": 533,
      "ầ": 534,
      "ậ": 535,
      "ắ": 536,
      "ễ": 537,
      "ệ": 538,
      "ị": 539,
      "ọ": 540,
      "ỏ": 541,
      "ỗ": 542,
      "ộ": 543,
      "ớ": 544,
      "ứ": 545,
      "ử": 546,
      "ữ": 547,
      "ỳ": 548,
      "ỹ": 549,
      "ἀ": 550,
      "ἰ": 551,
      "ὀ": 552,
      "ὁ": 553,
      "ὑ": 554,
      "​": 555,
      "‐": 556,
      "‑": 557,
      "–": 558,
      "—": 559,
      "―": 560,
      "‘": 561,
      "’": 562,
      "“": 563,
      "”": 564,
      "„": 565,
      "†": 566,
      "‡": 567,
      "•": 568,
      "…": 569,
      "′": 570,
      "″": 571,
      "⁄": 572,
      "₣": 573,
      "₤": 574,
      "€": 575,
      "₹": 576,
      "⅓": 577,
      "⅔": 578,
      "→": 579,
      "−": 580,
      "≡": 581,
      "≤": 582,
      "①": 583,
      "☉": 584,
      "☫": 585,
      "♀": 586,
      "♭": 587,
      "♯": 588,
      "⚳": 589,
      "〈": 590,
      "〉": 591,
      "〜": 592,
      "あ": 593,
      "い": 594,
      "う": 595,
      "お": 596,
      "か": 597,
      "が": 598,
      "き": 599,
      "ぎ": 600,
      "く": 601,
      "ぐ": 602,
      "け": 603,
      "こ": 604,
      "ご": 605,
      "さ": 606,
      "し": 607,
      "す": 608,
      "ず": 609,
      "ぜ": 610,
      "た": 611,
      "だ": 612,
      "ち": 613,
      "っ": 614,
      "つ": 615,
      "と": 616,
      "な": 617,
      "に": 618,
      "の": 619,
      "は": 620,
      "ば": 621,
      "ひ": 622,
      "ふ": 623,
      "ほ": 624,
      "ま": 625,
      "み": 626,
      "め": 627,
      "も": 628,
      "ゃ": 629,
      "ゆ": 630,
      "ょ": 631,
      "ら": 632,
      "り": 633,
      "る": 634,
      "れ": 635,
      "わ": 636,
      "を": 637,
      "ん": 638,
      "ァ": 639,
      "ア": 640,
      "ィ": 641,
      "イ": 642,
      "ゥ": 643,
      "ェ": 644,
      "エ": 645,
      "ォ": 646,
      "オ": 647,
      "カ": 648,
      "ガ": 649,
      "キ": 650,
      "ク": 651,
      "グ": 652,
      "ゲ": 653,
      "コ": 654,
      "サ": 655,
      "シ": 656,
      "ジ": 657,
      "ス": 658,
      "ズ": 659,
      "セ": 660,
      "タ": 661,
      "ダ": 662,
      "チ": 663,
      "ッ": 664,
      "ツ": 665,
      "テ": 666,
      "デ": 667,
      "ト": 668,
      "ド": 669,
      "ナ": 670,
      "ニ": 671,
      "ネ": 672,
      "ノ": 673,
      "ハ": 674,
      "バ": 675,
      "パ": 676,
      "フ": 677,
      "ブ": 678,
      "プ": 679,
      "ヘ": 680,
      "ベ": 681,
      "マ": 682,
      "ミ": 683,
      "ム": 684,
      "モ": 685,
      "ャ": 686,
      "ュ": 687,
      "ョ": 688,
      "ラ": 689,
      "リ": 690,
      "ル": 691,
      "レ": 692,
      "ロ": 693,
      "ン": 694,
      "ヴ": 695,
      "・": 696,
      "ー": 697,
      "一": 698,
      "七": 699,
      "下": 700,
      "世": 701,
      "丙": 702,
      "中": 703,
      "主": 704,
      "乃": 705,
      "之": 706,
      "乙": 707,
      "九": 708,
      "二": 709,
      "云": 710,
      "人": 711,
      "今": 712,
      "付": 713,
      "作": 714,
      "侗": 715,
      "依": 716,
      "信": 717,
      "傳": 718,
      "儚": 719,
      "充": 720,
      "光": 721,
      "全": 722,
      "兵": 723,
      "其": 724,
      "具": 725,
      "円": 726,
      "再": 727,
      "出": 728,
      "判": 729,
      "前": 730,
      "剛": 731,
      "劇": 732,
      "劉": 733,
      "動": 734,
      "化": 735,
      "北": 736,
      "华": 737,
      "厂": 738,
      "去": 739,
      "古": 740,
      "可": 741,
      "台": 742,
      "史": 743,
      "同": 744,
      "名": 745,
      "君": 746,
      "吳": 747,
      "周": 748,
      "命": 749,
      "和": 750,
      "咲": 751,
      "善": 752,
      "四": 753,
      "國": 754,
      "園": 755,
      "圣": 756,
      "在": 757,
      "坂": 758,
      "堤": 759,
      "場": 760,
      "塘": 761,
      "夕": 762,
      "大": 763,
      "天": 764,
      "夫": 765,
      "女": 766,
      "妙": 767,
      "姚": 768,
      "子": 769,
      "孟": 770,
      "守": 771,
      "安": 772,
      "宋": 773,
      "完": 774,
      "宗": 775,
      "宝": 776,
      "宫": 777,
      "寝": 778,
      "寺": 779,
      "小": 780,
      "少": 781,
      "尾": 782,
      "山": 783,
      "岳": 784,
      "川": 785,
      "州": 786,
      "巳": 787,
      "市": 788,
      "師": 789,
      "平": 790,
      "广": 791,
      "庆": 792,
      "府": 793,
      "座": 794,
      "廬": 795,
      "建": 796,
      "式": 797,
      "張": 798,
      "彌": 799,
      "彩": 800,
      "彼": 801,
      "後": 802,
      "御": 803,
      "德": 804,
      "思": 805,
      "愛": 806,
      "憑": 807,
      "憶": 808,
      "應": 809,
      "懷": 810,
      "战": 811,
      "戦": 812,
      "扈": 813,
      "技": 814,
      "拉": 815,
      "拳": 816,
      "挑": 817,
      "揺": 818,
      "攻": 819,
      "放": 820,
      "政": 821,
      "散": 822,
      "斯": 823,
      "方": 824,
      "日": 825,
      "旦": 826,
      "旭": 827,
      "昌": 828,
      "明": 829,
      "星": 830,
      "春": 831,
      "晋": 832,
      "景": 833,
      "曦": 834,
      "月": 835,
      "望": 836,
      "未": 837,
      "本": 838,
      "李": 839,
      "村": 840,
      "杜": 841,
      "束": 842,
      "来": 843,
      "林": 844,
      "桜": 845,
      "梶": 846,
      "棘": 847,
      "椎": 848,
      "楊": 849,
      "楚": 850,
      "榮": 851,
      "橘": 852,
      "機": 853,
      "正": 854,
      "殻": 855,
      "殿": 856,
      "母": 857,
      "水": 858,
      "汉": 859,
      "沂": 860,
      "沙": 861,
      "河": 862,
      "泗": 863,
      "波": 864,
      "泣": 865,
      "洪": 866,
      "淹": 867,
      "清": 868,
      "湯": 869,
      "漢": 870,
      "澄": 871,
      "澤": 872,
      "火": 873,
      "灯": 874,
      "灵": 875,
      "灼": 876,
      "焼": 877,
      "熱": 878,
      "物": 879,
      "狐": 880,
      "狸": 881,
      "玄": 882,
      "王": 883,
      "玩": 884,
      "珂": 885,
      "珙": 886,
      "球": 887,
      "理": 888,
      "琦": 889,
      "琪": 890,
      "瓊": 891,
      "生": 892,
      "田": 893,
      "畢": 894,
      "番": 895,
      "瘡": 896,
      "白": 897,
      "皮": 898,
      "真": 899,
      "砲": 900,
      "礮": 901,
      "祈": 902,
      "神": 903,
      "祠": 904,
      "秋": 905,
      "空": 906,
      "立": 907,
      "精": 908,
      "約": 909,
      "絵": 910,
      "織": 911,
      "義": 912,
      "翠": 913,
      "者": 914,
      "耕": 915,
      "肖": 916,
      "胡": 917,
      "膀": 918,
      "臂": 919,
      "興": 920,
      "良": 921,
      "花": 922,
      "芳": 923,
      "芽": 924,
      "若": 925,
      "英": 926,
      "藕": 927,
      "藥": 928,
      "蘄": 929,
      "蘇": 930,
      "行": 931,
      "裁": 932,
      "規": 933,
      "覺": 934,
      "观": 935,
      "解": 936,
      "記": 937,
      "誓": 938,
      "誡": 939,
      "誰": 940,
      "謎": 941,
      "许": 942,
      "谭": 943,
      "豪": 944,
      "豫": 945,
      "費": 946,
      "贵": 947,
      "赤": 948,
      "趙": 949,
      "足": 950,
      "跡": 951,
      "転": 952,
      "辛": 953,
      "逆": 954,
      "遇": 955,
      "運": 956,
      "過": 957,
      "遠": 958,
      "選": 959,
      "邦": 960,
      "邱": 961,
      "部": 962,
      "郭": 963,
      "都": 964,
      "酈": 965,
      "里": 966,
      "野": 967,
      "金": 968,
      "銃": 969,
      "鋼": 970,
      "錄": 971,
      "錡": 972,
      "鍵": 973,
      "鐵": 974,
      "钱": 975,
      "铁": 976,
      "關": 977,
      "防": 978,
      "阿": 979,
      "陈": 980,
      "陳": 981,
      "陽": 982,
      "隊": 983,
      "階": 984,
      "集": 985,
      "雪": 986,
      "雲": 987,
      "霖": 988,
      "霹": 989,
      "靂": 990,
      "韓": 991,
      "願": 992,
      "顯": 993,
      "颜": 994,
      "马": 995,
      "高": 996,
      "龍": 997,
      "대": 998,
      "독": 999,
      "라": 1000,
      "립": 1001,
      "병": 1002,
      "보": 1003,
      "부": 1004,
      "알": 1005,
      "연": 1006,
      "제": 1007,
      "ﷲ": 1008,
      "ﻋ": 1009,
      "﻿": 1010,
      "／": 1011,
      "３": 1012,
      "～": 1013,
      "�": 1014,
      "th": 1015,
      "in": 1016,
      "er": 1017,
      "an": 1018,
      "the": 1019,
      "on": 1020,
      "ed": 1021,
      "re": 1022,
      "at": 1023,
      "or": 1024,
      "en": 1025,
      "st": 1026,
      "al": 1027,
      "ar": 1028,
      "and": 1029,
      "of": 1030,
      "as": 1031,
      "es": 1032,
      "is": 1033,
      "ing": 1034,
      "to": 1035,
      "it": 1036,
      "ou": 1037,
      "ic": 1038,
      "ion": 1039,
      "he": 1040,
      "le": 1041,
      "ro": 1042,
      "ac": 1043,
      "il": 1044,
      "ent": 1045,
      "ad": 1046,
      "se": 1047,
      "am": 1048,
      "om": 1049,
      "be": 1050,
      "ly": 1051,
      "ch": 1052,
      "ur": 1053,
      "was": 1054,
      "for": 1055,
      "de": 1056,
      "ve": 1057,
      "The": 1058,
      "ol": 1059,
      "ir": 1060,
      "im": 1061,
      "-@": 1062,
      "@-@": 1063,
      "ig": 1064,
      "ver": 1065,
      "ow": 1066,
      "wh": 1067,
      "un": 1068,
      "ter": 1069,
      "ith": 1070,
      "ay": 1071,
      "ce": 1072,
      "ation": 1073,
      "con": 1074,
      "that": 1075,
      "with": 1076,
      "ag": 1077,
      "ct": 1078,
      "id": 1079,
      "te": 1080,
      "us": 1081,
      "by": 1082,
      "el": 1083,
      "ul": 1084,
      "ri": 1085,
      "ere": 1086,
      "ot": 1087,
      "ap": 1088,
      "res": 1089,
      "et": 1090,
      "19": 1091,
      "op": 1092,
      "ain": 1093,
      "com": 1094,
      "rom": 1095,
      "ers": 1096,
      "pl": 1097,
      "um": 1098,
      "ut": 1099,
      "ab": 1100,
      "oun": 1101,
      "all": 1102,
      "00": 1103,
      "his": 1104,
      "mo": 1105,
      "ist": 1106,
      "su": 1107,
      "are": 1108,
      "from": 1109,
      "pe": 1110,
      "pro": 1111,
      "In": 1112,
      "sh": 1113,
      "ne": 1114,
      "li": 1115,
      "tr": 1116,
      "ate": 1117,
      "cl": 1118,
      "os": 1119,
      "ther": 1120,
      "art": 1121,
      "ies": 1122,
      "em": 1123,
      "were": 1124,
      "od": 1125,
      "ong": 1126,
      "igh": 1127,
      "est": 1128,
      "ex": 1129,
      "ak": 1130,
      "oc": 1131,
      "ill": 1132,
      "ard": 1133,
      "ld": 1134,
      "ich": 1135,
      "ast": 1136,
      "ish": 1137,
      "di": 1138,
      "ber": 1139,
      "ant": 1140,
      "gh": 1141,
      "ort": 1142,
      "ity": 1143,
      "ame": 1144,
      "ated": 1145,
      "per": 1146,
      "man": 1147,
      "ess": 1148,
      "ive": 1149,
      "qu": 1150,
      "ment": 1151,
      "als": 1152,
      "out": 1153,
      "fe": 1154,
      "ack": 1155,
      "end": 1156,
      "vi": 1157,
      "had": 1158,
      "one": 1159,
      "ear": 1160,
      "tw": 1161,
      "over": 1162,
      "ough": 1163,
      "our": 1164,
      "ha": 1165,
      "which": 1166,
      "ord": 1167,
      "ra": 1168,
      "ge": 1169,
      "ound": 1170,
      "not": 1171,
      "ine": 1172,
      "rit": 1173,
      "but": 1174,
      "ally": 1175,
      "ass": 1176,
      "gr": 1177,
      "ud": 1178,
      "if": 1179,
      "ip": 1180,
      "act": 1181,
      "iv": 1182,
      "its": 1183,
      "Ch": 1184,
      "ian": 1185,
      "str": 1186,
      "ight": 1187,
      "ary": 1188,
      "her": 1189,
      "du": 1190,
      "fir": 1191,
      "own": 1192,
      "200": 1193,
      "av": 1194,
      "af": 1195,
      "up": 1196,
      "ous": 1197,
      "po": 1198,
      "20": 1199,
      "bl": 1200,
      "ore": 1201,
      "comp": 1202,
      "port": 1203,
      "St": 1204,
      "land": 1205,
      "ew": 1206,
      "der": 1207,
      "ev": 1208,
      "ach": 1209,
      "si": 1210,
      "their": 1211,
      "ep": 1212,
      "ical": 1213,
      "first": 1214,
      "wor": 1215,
      "ould": 1216,
      "age": 1217,
      "pr": 1218,
      "ia": 1219,
      "ll": 1220,
      "bo": 1221,
      "au": 1222,
      "ition": 1223,
      "also": 1224,
      "tim": 1225,
      "low": 1226,
      "ction": 1227,
      "pt": 1228,
      "lo": 1229,
      "form": 1230,
      "ater": 1231,
      "sc": 1232,
      "ign": 1233,
      "has": 1234,
      "ser": 1235,
      "ure": 1236,
      "ke": 1237,
      "att": 1238,
      "int": 1239,
      "ial": 1240,
      "rec": 1241,
      "play": 1242,
      "have": 1243,
      "other": 1244,
      "He": 1245,
      "18": 1246,
      "who": 1247,
      "ok": 1248,
      "ran": 1249,
      "ome": 1250,
      "part": 1251,
      "ence": 1252,
      "gu": 1253,
      "been": 1254,
      "two": 1255,
      "ree": 1256,
      "cont": 1257,
      ".@": 1258,
      "@.@": 1259,
      "pres": 1260,
      "aw": 1261,
      "uring": 1262,
      "off": 1263,
      "dis": 1264,
      "ile": 1265,
      "ory": 1266,
      "this": 1267,
      "sp": 1268,
      "me": 1269,
      "It": 1270,
      "des": 1271,
      "ade": 1272,
      "ult": 1273,
      "ite": 1274,
      "pos": 1275,
      "year": 1276,
      "they": 1277,
      "comm": 1278,
      "201": 1279,
      "cre": 1280,
      "vel": 1281,
      "An": 1282,
      "Th": 1283,
      "ell": 1284,
      "we": 1285,
      "after": 1286,
      "ans": 1287,
      "fin": 1288,
      "ren": 1289,
      "cent": 1290,
      "og": 1291,
      "ved": 1292,
      "br": 1293,
      "incl": 1294,
      "ations": 1295,
      "ue": 1296,
      "able": 1297,
      ",@": 1298,
      "@,@": 1299,
      "ice": 1300,
      "work": 1301,
      "urn": 1302,
      "ever": 1303,
      "ace": 1304,
      "no": 1305,
      "pre": 1306,
      "ric": 1307,
      "ark": 1308,
      "mer": 1309,
      "iz": 1310,
      "time": 1311,
      "Un": 1312,
      "ff": 1313,
      "ens": 1314,
      "co": 1315,
      "spe": 1316,
      "ance": 1317,
      "into": 1318,
      "ions": 1319,
      "more": 1320,
      "ship": 1321,
      "any": 1322,
      "ount": 1323,
      "ces": 1324,
      "most": 1325,
      "amp": 1326,
      "ath": 1327,
      "ced": 1328,
      "inter": 1329,
      "she": 1330,
      "tem": 1331,
      "red": 1332,
      "ason": 1333,
      "would": 1334,
      "Al": 1335,
      "cond": 1336,
      "him": 1337,
      "old": 1338,
      "ph": 1339,
      "ann": 1340,
      "used": 1341,
      "main": 1342,
      "ang": 1343,
      "ited": 1344,
      "cted": 1345,
      "ire": 1346,
      "ings": 1347,
      "ased": 1348,
      "fl": 1349,
      "ie": 1350,
      "fore": 1351,
      "bec": 1352,
      "mon": 1353,
      "min": 1354,
      "includ": 1355,
      "though": 1356,
      "ates": 1357,
      "ict": 1358,
      "Ar": 1359,
      "air": 1360,
      "way": 1361,
      "Au": 1362,
      "row": 1363,
      "vers": 1364,
      "new": 1365,
      "vis": 1366,
      "ail": 1367,
      "rough": 1368,
      "ood": 1369,
      "ft": 1370,
      "ake": 1371,
      "bu": 1372,
      "ob": 1373,
      "ase": 1374,
      "ry": 1375,
      "ick": 1376,
      "ents": 1377,
      "cess": 1378,
      "song": 1379,
      "ild": 1380,
      "only": 1381,
      "when": 1382,
      "arch": 1383,
      "gan": 1384,
      "under": 1385,
      "ubl": 1386,
      "reg": 1387,
      "ble": 1388,
      "them": 1389,
      "iss": 1390,
      "ors": 1391,
      "les": 1392,
      "col": 1393,
      "ose": 1394,
      "En": 1395,
      "during": 1396,
      "day": 1397,
      "ind": 1398,
      "kn": 1399,
      "ret": 1400,
      "game": 1401,
      "son": 1402,
      "ered": 1403,
      "ilm": 1404,
      "Re": 1405,
      "ward": 1406,
      "een": 1407,
      "gen": 1408,
      "ru": 1409,
      "can": 1410,
      "ollow": 1411,
      "outh": 1412,
      "about": 1413,
      "199": 1414,
      "ide": 1415,
      "ts": 1416,
      "season": 1417,
      "than": 1418,
      "nor": 1419,
      "ten": 1420,
      "lar": 1421,
      "oy": 1422,
      "some": 1423,
      "ern": 1424,
      "writ": 1425,
      "sy": 1426,
      "char": 1427,
      "while": 1428,
      "again": 1429,
      "three": 1430,
      "stru": 1431,
      "ational": 1432,
      "ular": 1433,
      "Com": 1434,
      "ty": 1435,
      "On": 1436,
      "so": 1437,
      "ful": 1438,
      "Wh": 1439,
      "tween": 1440,
      "between": 1441,
      "num": 1442,
      "produ": 1443,
      "record": 1444,
      "ron": 1445,
      "through": 1446,
      "ted": 1447,
      "ating": 1448,
      "where": 1449,
      "As": 1450,
      "ied": 1451,
      "later": 1452,
      "10": 1453,
      "rele": 1454,
      "view": 1455,
      "spec": 1456,
      "ames": 1457,
      "film": 1458,
      "ton": 1459,
      "cons": 1460,
      "ele": 1461,
      "ef": 1462,
      "rel": 1463,
      "ck": 1464,
      "Af": 1465,
      "ust": 1466,
      "ished": 1467,
      "set": 1468,
      "made": 1469,
      "sub": 1470,
      "Le": 1471,
      "ury": 1472,
      "my": 1473,
      "then": 1474,
      "New": 1475,
      "led": 1476,
      "do": 1477,
      "aid": 1478,
      "meric": 1479,
      "Americ": 1480,
      "bum": 1481,
      "ock": 1482,
      "sel": 1483,
      "ins": 1484,
      "ma": 1485,
      "appe": 1486,
      "sing": 1487,
      "000": 1488,
      "Jo": 1489,
      "follow": 1490,
      "go": 1491,
      "ters": 1492,
      "high": 1493,
      "second": 1494,
      "such": 1495,
      "rop": 1496,
      "ving": 1497,
      "four": 1498,
      "cap": 1499,
      "ari": 1500,
      "publ": 1501,
      "je": 1502,
      "ics": 1503,
      "16": 1504,
      "med": 1505,
      "well": 1506,
      "iel": 1507,
      "back": 1508,
      "At": 1509,
      "mus": 1510,
      "De": 1511,
      "ily": 1512,
      "This": 1513,
      "ific": 1514,
      "ual": 1515,
      "call": 1516,
      "..": 1517,
      "ven": 1518,
      "album": 1519,
      "before": 1520,
      "mi": 1521,
      "cri": 1522,
      "cur": 1523,
      "fer": 1524,
      "hel": 1525,
      "urch": 1526,
      "ars": 1527,
      "sup": 1528,
      "found": 1529,
      "12": 1530,
      "being": 1531,
      "Eng": 1532,
      "No": 1533,
      "ub": 1534,
      "there": 1535,
      "years": 1536,
      "ative": 1537,
      "sur": 1538,
      "15": 1539,
      "arri": 1540,
      "inn": 1541,
      "owever": 1542,
      "par": 1543,
      "use": 1544,
      "ale": 1545,
      "17": 1546,
      "ane": 1547,
      "add": 1548,
      "many": 1549,
      "known": 1550,
      "side": 1551,
      "long": 1552,
      "like": 1553,
      "number": 1554,
      "loc": 1555,
      "ave": 1556,
      "Nor": 1557,
      "point": 1558,
      "ird": 1559,
      "ities": 1560,
      "series": 1561,
      "ros": 1562,
      "velop": 1563,
      "olog": 1564,
      "ause": 1565,
      "reat": 1566,
      "mber": 1567,
      "ince": 1568,
      "unt": 1569,
      "orn": 1570,
      "cept": 1571,
      "line": 1572,
      "Con": 1573,
      "ines": 1574,
      "cho": 1575,
      "both": 1576,
      "sever": 1577,
      "eng": 1578,
      "hn": 1579,
      "pop": 1580,
      "dire": 1581,
      "ise": 1582,
      "Brit": 1583,
      "epis": 1584,
      "ments": 1585,
      "including": 1586,
      "atch": 1587,
      "down": 1588,
      "igin": 1589,
      "against": 1590,
      "ode": 1591,
      "became": 1592,
      "uary": 1593,
      "oup": 1594,
      "charac": 1595,
      "Sh": 1596,
      "ress": 1597,
      "II": 1598,
      "feat": 1599,
      "ident": 1600,
      "ci": 1601,
      "198": 1602,
      "cer": 1603,
      "ek": 1604,
      "ond": 1605,
      "tain": 1606,
      "ield": 1607,
      "30": 1608,
      "ped": 1609,
      "Be": 1610,
      "descri": 1611,
      "Ro": 1612,
      "appear": 1613,
      "ost": 1614,
      "United": 1615,
      "ised": 1616,
      "cle": 1617,
      "team": 1618,
      "John": 1619,
      "dec": 1620,
      "ures": 1621,
      "hy": 1622,
      "run": 1623,
      "suc": 1624,
      "bed": 1625,
      "develop": 1626,
      "peri": 1627,
      "century": 1628,
      "show": 1629,
      "After": 1630,
      "hist": 1631,
      "lead": 1632,
      "mem": 1633,
      "contin": 1634,
      "uch": 1635,
      "stor": 1636,
      "trans": 1637,
      "origin": 1638,
      "head": 1639,
      "mill": 1640,
      "pol": 1641,
      "lan": 1642,
      "194": 1643,
      "let": 1644,
      "ste": 1645,
      "oper": 1646,
      "west": 1647,
      "ley": 1648,
      "dam": 1649,
      "ball": 1650,
      "ves": 1651,
      "road": 1652,
      "sign": 1653,
      "sm": 1654,
      "several": 1655,
      "diff": 1656,
      "may": 1657,
      "began": 1658,
      "196": 1659,
      "ually": 1660,
      "She": 1661,
      "eral": 1662,
      "197": 1663,
      "une": 1664,
      "Br": 1665,
      "ject": 1666,
      "remain": 1667,
      "cord": 1668,
      "Se": 1669,
      "near": 1670,
      "early": 1671,
      "present": 1672,
      "war": 1673,
      "crit": 1674,
      "met": 1675,
      "nam": 1676,
      "cover": 1677,
      "ended": 1678,
      "az": 1679,
      "could": 1680,
      "cy": 1681,
      "did": 1682,
      "Mar": 1683,
      "ms": 1684,
      "called": 1685,
      "try": 1686,
      "Wor": 1687,
      "episode": 1688,
      "io": 1689,
      "leg": 1690,
      "por": 1691,
      "dep": 1692,
      "ople": 1693,
      "self": 1694,
      "For": 1695,
      "ib": 1696,
      "rece": 1697,
      "along": 1698,
      "aking": 1699,
      "vid": 1700,
      "large": 1701,
      "ash": 1702,
      "Is": 1703,
      "dist": 1704,
      "gg": 1705,
      "val": 1706,
      "mil": 1707,
      "13": 1708,
      "May": 1709,
      "pass": 1710,
      "said": 1711,
      "American": 1712,
      "ink": 1713,
      "ese": 1714,
      "press": 1715,
      "gust": 1716,
      "success": 1717,
      "erson": 1718,
      "tow": 1719,
      "these": 1720,
      "ized": 1721,
      "now": 1722,
      "open": 1723,
      "grap": 1724,
      "14": 1725,
      "ca": 1726,
      "tri": 1727,
      "Ger": 1728,
      "stem": 1729,
      "fam": 1730,
      "rist": 1731,
      "British": 1732,
      "50": 1733,
      "music": 1734,
      "until": 1735,
      "city": 1736,
      "start": 1737,
      "overn": 1738,
      "comple": 1739,
      "released": 1740,
      "ross": 1741,
      "xt": 1742,
      "Gr": 1743,
      "less": 1744,
      "itt": 1745,
      "same": 1746,
      "thern": 1747,
      "ived": 1748,
      "vol": 1749,
      "ists": 1750,
      "ah": 1751,
      "sim": 1752,
      "jor": 1753,
      "return": 1754,
      "plac": 1755,
      "ious": 1756,
      "km": 1757,
      "They": 1758,
      "state": 1759,
      "area": 1760,
      "design": 1761,
      "ank": 1762,
      "read": 1763,
      "oci": 1764,
      "million": 1765,
      "ouse": 1766,
      "fect": 1767,
      "formed": 1768,
      "men": 1769,
      "because": 1770,
      "oot": 1771,
      "ower": 1772,
      "each": 1773,
      "War": 1774,
      "offic": 1775,
      "Car": 1776,
      "che": 1777,
      "enn": 1778,
      "August": 1779,
      "la": 1780,
      "coun": 1781,
      "vide": 1782,
      "come": 1783,
      "Sep": 1784,
      "serv": 1785,
      "dr": 1786,
      "life": 1787,
      "east": 1788,
      "people": 1789,
      "chool": 1790,
      "ple": 1791,
      "car": 1792,
      "national": 1793,
      "book": 1794,
      "bod": 1795,
      "ris": 1796,
      "rote": 1797,
      "stral": 1798,
      "light": 1799,
      "six": 1800,
      "Eu": 1801,
      "support": 1802,
      "field": 1803,
      "Ju": 1804,
      "Col": 1805,
      "ather": 1806,
      "group": 1807,
      "around": 1808,
      "top": 1809,
      "ured": 1810,
      "Fe": 1811,
      "iver": 1812,
      "ision": 1813,
      "However": 1814,
      "Pl": 1815,
      "vent": 1816,
      "sol": 1817,
      "dom": 1818,
      "mark": 1819,
      "prote": 1820,
      "north": 1821,
      "consid": 1822,
      "character": 1823,
      "attack": 1824,
      "ales": 1825,
      "tember": 1826,
      "September": 1827,
      "will": 1828,
      "continu": 1829,
      "small": 1830,
      "get": 1831,
      "ext": 1832,
      "Bl": 1833,
      "position": 1834,
      "rest": 1835,
      "following": 1836,
      "ground": 1837,
      "World": 1838,
      "oth": 1839,
      "US": 1840,
      "fun": 1841,
      "stud": 1842,
      "contro": 1843,
      "Austral": 1844,
      "very": 1845,
      "ina": 1846,
      "lish": 1847,
      "requ": 1848,
      "Her": 1849,
      "ivers": 1850,
      "ural": 1851,
      "five": 1852,
      "stand": 1853,
      "ional": 1854,
      "result": 1855,
      "aim": 1856,
      "tit": 1857,
      "bers": 1858,
      "atter": 1859,
      "track": 1860,
      "gy": 1861,
      "ague": 1862,
      "ctor": 1863,
      "miss": 1864,
      "pon": 1865,
      "def": 1866,
      "what": 1867,
      "name": 1868,
      "11": 1869,
      "bre": 1870,
      "aged": 1871,
      "cording": 1872,
      "Gu": 1873,
      "North": 1874,
      "Me": 1875,
      "report": 1876,
      "Fran": 1877,
      "gun": 1878,
      "ired": 1879,
      "ism": 1880,
      "Wil": 1881,
      "cr": 1882,
      "cut": 1883,
      "ony": 1884,
      "prom": 1885,
      "played": 1886,
      "June": 1887,
      "allow": 1888,
      "cour": 1889,
      "tal": 1890,
      "week": 1891,
      "govern": 1892,
      "late": 1893,
      "ask": 1894,
      "ages": 1895,
      "oman": 1896,
      "0s": 1897,
      "Oc": 1898,
      "ham": 1899,
      "care": 1900,
      "ys": 1901,
      "vision": 1902,
      "cast": 1903,
      "25": 1904,
      "Man": 1905,
      "Jan": 1906,
      "dra": 1907,
      "final": 1908,
      "public": 1909,
      "ately": 1910,
      "since": 1911,
      "States": 1912,
      "Ac": 1913,
      "ime": 1914,
      "major": 1915,
      "Cl": 1916,
      "ined": 1917,
      "reach": 1918,
      "species": 1919,
      "count": 1920,
      "ling": 1921,
      "ained": 1922,
      "south": 1923,
      "received": 1924,
      "Mon": 1925,
      "South": 1926,
      "child": 1927,
      "app": 1928,
      "even": 1929,
      "build": 1930,
      "list": 1931,
      "last": 1932,
      "took": 1933,
      "appro": 1934,
      "class": 1935,
      "partic": 1936,
      "batt": 1937,
      "won": 1938,
      "ility": 1939,
      "Christ": 1940,
      "just": 1941,
      "star": 1942,
      "system": 1943,
      "King": 1944,
      "gre": 1945,
      "organ": 1946,
      "ork": 1947,
      "wards": 1948,
      "oss": 1949,
      "vari": 1950,
      "ilt": 1951,
      "described": 1952,
      "Par": 1953,
      "inc": 1954,
      "ains": 1955,
      "world": 1956,
      "named": 1957,
      "town": 1958,
      "place": 1959,
      "giv": 1960,
      "ards": 1961,
      "tober": 1962,
      "October": 1963,
      "band": 1964,
      "moved": 1965,
      "pri": 1966,
      "ery": 1967,
      "All": 1968,
      "constru": 1969,
      "liam": 1970,
      "ute": 1971,
      "water": 1972,
      "incre": 1973,
      "ude": 1974,
      "vious": 1975,
      "ropical": 1976,
      "aur": 1977,
      "ants": 1978,
      "ets": 1979,
      "kill": 1980,
      "sequ": 1981,
      "wrote": 1982,
      "York": 1983,
      "July": 1984,
      "camp": 1985,
      "hand": 1986,
      "Can": 1987,
      "ix": 1988,
      "due": 1989,
      "ats": 1990,
      "West": 1991,
      "ored": 1992,
      "ae": 1993,
      "rown": 1994,
      "ium": 1995,
      "During": 1996,
      "much": 1997,
      "fur": 1998,
      "power": 1999,
      "single": 2000,
      "Apr": 2001,
      "April": 2002,
      "ently": 2003,
      "ons": 2004,
      "ature": 2005,
      "tempt": 2006,
      "hum": 2007,
      "ically": 2008,
      "...": 2009,
      "differ": 2010,
      "death": 2011,
      "Euro": 2012,
      "order": 2013,
      "ital": 2014,
      "hal": 2015,
      "ove": 2016,
      "Mc": 2017,
      "tra": 2018,
      "gener": 2019,
      "German": 2020,
      "another": 2021,
      "195": 2022,
      "ships": 2023,
      "short": 2024,
      "included": 2025,
      "Sc": 2026,
      "arm": 2027,
      "ement": 2028,
      "event": 2029,
      "Ste": 2030,
      "person": 2031,
      "right": 2032,
      "January": 2033,
      "estab": 2034,
      "akes": 2035,
      "within": 2036,
      "pect": 2037,
      "ians": 2038,
      "England": 2039,
      "sent": 2040,
      "left": 2041,
      "based": 2042,
      "cas": 2043,
      "built": 2044,
      "fall": 2045,
      "beli": 2046,
      "claim": 2047,
      "although": 2048,
      "attempt": 2049,
      "ified": 2050,
      "family": 2051,
      "Ge": 2052,
      "March": 2053,
      "home": 2054,
      "games": 2055,
      "third": 2056,
      "ense": 2057,
      "que": 2058,
      "jo": 2059,
      "turn": 2060,
      "best": 2061,
      "dest": 2062,
      "Nove": 2063,
      "school": 2064,
      "previous": 2065,
      "ting": 2066,
      "roy": 2067,
      "story": 2068,
      "ulation": 2069,
      "193": 2070,
      "expl": 2071,
      "November": 2072,
      "ax": 2073,
      "review": 2074,
      "ilar": 2075,
      "And": 2076,
      "ially": 2077,
      "issu": 2078,
      "period": 2079,
      "His": 2080,
      "By": 2081,
      "ops": 2082,
      "flu": 2083,
      "government": 2084,
      "Europe": 2085,
      "ster": 2086,
      "Pr": 2087,
      "adv": 2088,
      "chan": 2089,
      "mar": 2090,
      "Sp": 2091,
      "ls": 2092,
      "Dece": 2093,
      "make": 2094,
      "Ad": 2095,
      "mb": 2096,
      "using": 2097,
      "December": 2098,
      "those": 2099,
      "We": 2100,
      "storm": 2101,
      "Pro": 2102,
      "urric": 2103,
      "king": 2104,
      "ral": 2105,
      "ush": 2106,
      "avy": 2107,
      "There": 2108,
      "ref": 2109,
      "ched": 2110,
      "ness": 2111,
      "ston": 2112,
      "ai": 2113,
      "real": 2114,
      "original": 2115,
      "City": 2116,
      "ought": 2117,
      "company": 2118,
      "ler": 2119,
      "bro": 2120,
      "command": 2121,
      "fact": 2122,
      "match": 2123,
      "ences": 2124,
      "fac": 2125,
      "ety": 2126,
      "month": 2127,
      "When": 2128,
      "Or": 2129,
      "itary": 2130,
      "auth": 2131,
      "24": 2132,
      "stit": 2133,
      "trad": 2134,
      "Li": 2135,
      "gram": 2136,
      "aff": 2137,
      "stri": 2138,
      "National": 2139,
      "oung": 2140,
      "Bo": 2141,
      "Ph": 2142,
      "2009": 2143,
      "sk": 2144,
      "club": 2145,
      "video": 2146,
      "ze": 2147,
      "26": 2148,
      "2008": 2149,
      "raft": 2150,
      "2010": 2151,
      "rench": 2152,
      "colle": 2153,
      "21": 2154,
      "church": 2155,
      "tract": 2156,
      "River": 2157,
      "thing": 2158,
      "ides": 2159,
      "ivision": 2160,
      "28": 2161,
      "role": 2162,
      "lim": 2163,
      "mag": 2164,
      "still": 2165,
      "23": 2166,
      "forman": 2167,
      "move": 2168,
      "ends": 2169,
      "iversity": 2170,
      "arn": 2171,
      "player": 2172,
      "possi": 2173,
      "Co": 2174,
      "mp": 2175,
      "ensive": 2176,
      "mid": 2177,
      "local": 2178,
      "Gen": 2179,
      "Pe": 2180,
      "ged": 2181,
      "addition": 2182,
      "Dy": 2183,
      "100": 2184,
      "came": 2185,
      "often": 2186,
      "Indi": 2187,
      "version": 2188,
      "put": 2189,
      "vo": 2190,
      "und": 2191,
      "history": 2192,
      "idge": 2193,
      "aken": 2194,
      "site": 2195,
      "former": 2196,
      "bert": 2197,
      "say": 2198,
      "quar": 2199,
      "half": 2200,
      "draw": 2201,
      "fel": 2202,
      "urricane": 2203,
      "sou": 2204,
      "ggest": 2205,
      "init": 2206,
      "lor": 2207,
      "den": 2208,
      "ending": 2209,
      "continued": 2210,
      "house": 2211,
      "round": 2212,
      "ali": 2213,
      "ution": 2214,
      "body": 2215,
      "considered": 2216,
      "Inter": 2217,
      "inning": 2218,
      "suggest": 2219,
      "next": 2220,
      "2007": 2221,
      "effect": 2222,
      "One": 2223,
      "mand": 2224,
      "ared": 2225,
      "ribut": 2226,
      "refer": 2227,
      "fri": 2228,
      "similar": 2229,
      "placed": 2230,
      "recorded": 2231,
      "published": 2232,
      "English": 2233,
      "import": 2234,
      "few": 2235,
      "career": 2236,
      "French": 2237,
      "wind": 2238,
      "held": 2239,
      "beg": 2240,
      "Batt": 2241,
      "Per": 2242,
      "aster": 2243,
      "Te": 2244,
      "ator": 2245,
      "performan": 2246,
      "take": 2247,
      "chang": 2248,
      "production": 2249,
      "Ear": 2250,
      "ico": 2251,
      "imes": 2252,
      "posed": 2253,
      "graph": 2254,
      "different": 2255,
      "sty": 2256,
      "aining": 2257,
      "commun": 2258,
      "ps": 2259,
      "fort": 2260,
      "bar": 2261,
      "craft": 2262,
      "With": 2263,
      "Bar": 2264,
      "you": 2265,
      "oute": 2266,
      "without": 2267,
      "ampion": 2268,
      "songs": 2269,
      "fr": 2270,
      "written": 2271,
      "27": 2272,
      "action": 2273,
      "polit": 2274,
      "Mus": 2275,
      "force": 2276,
      "eved": 2277,
      "strong": 2278,
      "among": 2279,
      "struct": 2280,
      "wood": 2281,
      "level": 2282,
      "22": 2283,
      "Ser": 2284,
      "gl": 2285,
      "ford": 2286,
      "State": 2287,
      "ik": 2288,
      "seven": 2289,
      "iment": 2290,
      "Tr": 2291,
      "days": 2292,
      "every": 2293,
      "stead": 2294,
      "white": 2295,
      "Char": 2296,
      "ology": 2297,
      "fire": 2298,
      "win": 2299,
      "iter": 2300,
      "itar": 2301,
      "Division": 2302,
      "2011": 2303,
      "larg": 2304,
      "release": 2305,
      "bird": 2306,
      "foot": 2307,
      "tropical": 2308,
      "further": 2309,
      "find": 2310,
      "become": 2311,
      "2006": 2312,
      "According": 2313,
      "Church": 2314,
      "Although": 2315,
      "Canad": 2316,
      "however": 2317,
      "test": 2318,
      "author": 2319,
      "ering": 2320,
      "prof": 2321,
      "cor": 2322,
      "pite": 2323,
      "augh": 2324,
      "respon": 2325,
      "particular": 2326,
      "how": 2327,
      "ox": 2328,
      "wide": 2329,
      "Port": 2330,
      "title": 2331,
      "fan": 2332,
      "tele": 2333,
      "Tw": 2334,
      "hold": 2335,
      "ning": 2336,
      "military": 2337,
      "Mo": 2338,
      "Roman": 2339,
      "members": 2340,
      "League": 2341,
      "popular": 2342,
      "direct": 2343,
      "cial": 2344,
      "cult": 2345,
      "sit": 2346,
      "ives": 2347,
      "ctions": 2348,
      "itch": 2349,
      "omin": 2350,
      "histor": 2351,
      "ittle": 2352,
      "udi": 2353,
      "ided": 2354,
      "ices": 2355,
      "times": 2356,
      "Song": 2357,
      "pen": 2358,
      "bruary": 2359,
      "February": 2360,
      "clear": 2361,
      "Pol": 2362,
      "uc": 2363,
      "indu": 2364,
      "moder": 2365,
      "lost": 2366,
      "scen": 2367,
      "bur": 2368,
      "Geor": 2369,
      "gave": 2370,
      "produced": 2371,
      "successful": 2372,
      "reported": 2373,
      "na": 2374,
      "provid": 2375,
      "Dylan": 2376,
      "Miss": 2377,
      "divid": 2378,
      "served": 2379,
      "Park": 2380,
      "post": 2381,
      "itions": 2382,
      "ama": 2383,
      "night": 2384,
      "total": 2385,
      "Des": 2386,
      "flo": 2387,
      "bas": 2388,
      "search": 2389,
      "sure": 2390,
      "away": 2391,
      "2012": 2392,
      "ively": 2393,
      "common": 2394,
      "Old": 2395,
      "rad": 2396,
      "ney": 2397,
      "Comp": 2398,
      "net": 2399,
      "ister": 2400,
      "decl": 2401,
      "children": 2402,
      "given": 2403,
      "chn": 2404,
      "apan": 2405,
      "seen": 2406,
      "forces": 2407,
      "Ha": 2408,
      "Sim": 2409,
      "fron": 2410,
      "atic": 2411,
      "tour": 2412,
      "ception": 2413,
      "see": 2414,
      "face": 2415,
      "ges": 2416,
      "vict": 2417,
      "stated": 2418,
      "els": 2419,
      "having": 2420,
      "close": 2421,
      "critic": 2422,
      "Japan": 2423,
      "omen": 2424,
      "ably": 2425,
      "ailed": 2426,
      "tro": 2427,
      "stre": 2428,
      "plan": 2429,
      "exp": 2430,
      "include": 2431,
      "29": 2432,
      "To": 2433,
      "invol": 2434,
      "represent": 2435,
      "Count": 2436,
      "making": 2437,
      "influ": 2438,
      "capt": 2439,
      "Ne": 2440,
      "great": 2441,
      "want": 2442,
      "alion": 2443,
      "gar": 2444,
      "eder": 2445,
      "Ma": 2446,
      "Afric": 2447,
      "country": 2448,
      "young": 2449,
      "compet": 2450,
      "ways": 2451,
      "ploy": 2452,
      "cus": 2453,
      "ier": 2454,
      "tell": 2455,
      "manag": 2456,
      "Cent": 2457,
      "look": 2458,
      "signific": 2459,
      "comb": 2460,
      "program": 2461,
      "General": 2462,
      "Har": 2463,
      "ances": 2464,
      "antic": 2465,
      "lands": 2466,
      "novel": 2467,
      "equ": 2468,
      "ours": 2469,
      "2013": 2470,
      "pur": 2471,
      "intro": 2472,
      "control": 2473,
      "40": 2474,
      "fem": 2475,
      "mm": 2476,
      "occur": 2477,
      "scri": 2478,
      "went": 2479,
      "word": 2480,
      "never": 2481,
      "rent": 2482,
      "Vi": 2483,
      "rap": 2484,
      "omet": 2485,
      "project": 2486,
      "compos": 2487,
      "depend": 2488,
      "BC": 2489,
      "construction": 2490,
      "Air": 2491,
      "lished": 2492,
      "should": 2493,
      "board": 2494,
      "change": 2495,
      "raised": 2496,
      "activ": 2497,
      "While": 2498,
      "mix": 2499,
      "law": 2500,
      "writing": 2501,
      "Scot": 2502,
      "Dav": 2503,
      "soci": 2504,
      "xim": 2505,
      "returned": 2506,
      "father": 2507,
      "ope": 2508,
      "works": 2509,
      "University": 2510,
      "Su": 2511,
      "developed": 2512,
      "bor": 2513,
      "chart": 2514,
      "aren": 2515,
      "established": 2516,
      "ks": 2517,
      "sound": 2518,
      "190": 2519,
      "key": 2520,
      "Ed": 2521,
      "dri": 2522,
      "god": 2523,
      "ither": 2524,
      "These": 2525,
      "announ": 2526,
      "America": 2527,
      "room": 2528,
      "population": 2529,
      "Ire": 2530,
      "ner": 2531,
      "ades": 2532,
      "introdu": 2533,
      "Jack": 2534,
      "mit": 2535,
      "coming": 2536,
      "amb": 2537,
      "reached": 2538,
      "Cor": 2539,
      "ient": 2540,
      "earli": 2541,
      "range": 2542,
      "noted": 2543,
      "Ireland": 2544,
      "agre": 2545,
      "Black": 2546,
      "igade": 2547,
      "thought": 2548,
      "ument": 2549,
      "building": 2550,
      "Ke": 2551,
      "across": 2552,
      "typ": 2553,
      "throughout": 2554,
      "ondon": 2555,
      "Mich": 2556,
      "aint": 2557,
      "cell": 2558,
      "human": 2559,
      "London": 2560,
      "hip": 2561,
      "sum": 2562,
      "Ex": 2563,
      "East": 2564,
      "teen": 2565,
      "William": 2566,
      "felt": 2567,
      "good": 2568,
      "ones": 2569,
      "acy": 2570,
      "full": 2571,
      "burn": 2572,
      "ara": 2573,
      "himself": 2574,
      "Reg": 2575,
      "development": 2576,
      "Ber": 2577,
      "black": 2578,
      "medi": 2579,
      "ological": 2580,
      "Wal": 2581,
      "iness": 2582,
      "nd": 2583,
      "performed": 2584,
      "fle": 2585,
      "complete": 2586,
      "suff": 2587,
      "sett": 2588,
      "Australia": 2589,
      "important": 2590,
      "significant": 2591,
      "eight": 2592,
      "lay": 2593,
      "60": 2594,
      "covered": 2595,
      "ivil": 2596,
      "Atl": 2597,
      "miles": 2598,
      "Mag": 2599,
      "ior": 2600,
      "ov": 2601,
      "ung": 2602,
      "live": 2603,
      "Rich": 2604,
      "Sy": 2605,
      "bus": 2606,
      "destroy": 2607,
      "modern": 2608,
      "nu": 2609,
      "ana": 2610,
      "itive": 2611,
      "interest": 2612,
      "television": 2613,
      "Pal": 2614,
      "Roy": 2615,
      "ring": 2616,
      "various": 2617,
      "style": 2618,
      "areas": 2619,
      "prim": 2620,
      "front": 2621,
      "appeared": 2622,
      "died": 2623,
      "aign": 2624,
      "cing": 2625,
      "cil": 2626,
      "rew": 2627,
      "need": 2628,
      "reek": 2629,
      "ogn": 2630,
      "relation": 2631,
      "TV": 2632,
      "ago": 2633,
      "others": 2634,
      "marri": 2635,
      "rock": 2636,
      "events": 2637,
      "does": 2638,
      "ots": 2639,
      "abor": 2640,
      "Road": 2641,
      "aver": 2642,
      "da": 2643,
      "mun": 2644,
      "too": 2645,
      "sex": 2646,
      "techn": 2647,
      "appoint": 2648,
      "started": 2649,
      "idence": 2650,
      "players": 2651,
      "mission": 2652,
      "High": 2653,
      "James": 2654,
      "fig": 2655,
      "omb": 2656,
      "gether": 2657,
      "ison": 2658,
      "icult": 2659,
      "feet": 2660,
      "reen": 2661,
      "stant": 2662,
      "experi": 2663,
      "Po": 2664,
      "ino": 2665,
      "iting": 2666,
      "poem": 2667,
      "ization": 2668,
      "Mont": 2669,
      "Mount": 2670,
      "ible": 2671,
      "nal": 2672,
      "vill": 2673,
      "ination": 2674,
      "performance": 2675,
      "County": 2676,
      "bes": 2677,
      "sl": 2678,
      "caused": 2679,
      "ising": 2680,
      "alth": 2681,
      "pred": 2682,
      "formation": 2683,
      "Ab": 2684,
      "You": 2685,
      "189": 2686,
      "El": 2687,
      "Pa": 2688,
      "ked": 2689,
      "quad": 2690,
      "ife": 2691,
      "mount": 2692,
      "grad": 2693,
      "Ham": 2694,
      "born": 2695,
      "osaur": 2696,
      "coast": 2697,
      "hind": 2698,
      "ality": 2699,
      "created": 2700,
      "Phil": 2701,
      "script": 2702,
      "2004": 2703,
      "ample": 2704,
      "relig": 2705,
      "rul": 2706,
      "entire": 2707,
      "ull": 2708,
      "ability": 2709,
      "2005": 2710,
      "inv": 2711,
      "era": 2712,
      "vert": 2713,
      "political": 2714,
      "So": 2715,
      "far": 2716,
      "van": 2717,
      "mother": 2718,
      "characters": 2719,
      "cir": 2720,
      "theast": 2721,
      "aly": 2722,
      "Sci": 2723,
      "ioned": 2724,
      "lect": 2725,
      "Som": 2726,
      "taken": 2727,
      "fight": 2728,
      "sw": 2729,
      "stone": 2730,
      "battle": 2731,
      "fav": 2732,
      "once": 2733,
      "exist": 2734,
      "Town": 2735,
      "cop": 2736,
      "asing": 2737,
      "uses": 2738,
      "arded": 2739,
      "Care": 2740,
      "Hist": 2741,
      "yard": 2742,
      "anim": 2743,
      "conne": 2744,
      "located": 2745,
      "killed": 2746,
      "ael": 2747,
      "lines": 2748,
      "ues": 2749,
      "ille": 2750,
      "remained": 2751,
      "grow": 2752,
      "uck": 2753,
      "tradition": 2754,
      "rain": 2755,
      "sess": 2756,
      "bet": 2757,
      "debut": 2758,
      "know": 2759,
      "completed": 2760,
      "Music": 2761,
      "Feder": 2762,
      "scored": 2763,
      "ublic": 2764,
      "difficult": 2765,
      "guns": 2766,
      "Kingdom": 2767,
      "har": 2768,
      "tar": 2769,
      "campaign": 2770,
      "announced": 2771,
      "host": 2772,
      "ping": 2773,
      "stars": 2774,
      "ape": 2775,
      "meet": 2776,
      "Grand": 2777,
      "Australian": 2778,
      "stat": 2779,
      "peak": 2780,
      "region": 2781,
      "Cup": 2782,
      "hab": 2783,
      "ories": 2784,
      "names": 2785,
      "bel": 2786,
      "Ang": 2787,
      "Sun": 2788,
      "process": 2789,
      "goal": 2790,
      "Company": 2791,
      "little": 2792,
      "instead": 2793,
      "added": 2794,
      "break": 2795,
      "enced": 2796,
      "member": 2797,
      "elect": 2798,
      "possible": 2799,
      "gin": 2800,
      "studi": 2801,
      "vest": 2802,
      "regular": 2803,
      "pression": 2804,
      "voc": 2805,
      "wife": 2806,
      "island": 2807,
      "least": 2808,
      "followed": 2809,
      "orse": 2810,
      "pair": 2811,
      "together": 2812,
      "aper": 2813,
      "cause": 2814,
      "tre": 2815,
      "originally": 2816,
      "months": 2817,
      "southern": 2818,
      "mot": 2819,
      "mass": 2820,
      "non": 2821,
      "ned": 2822,
      "comment": 2823,
      "Army": 2824,
      "Bra": 2825,
      "Some": 2826,
      "ique": 2827,
      "loss": 2828,
      "wall": 2829,
      "resident": 2830,
      "associ": 2831,
      "study": 2832,
      "Bill": 2833,
      "fif": 2834,
      "ky": 2835,
      "playing": 2836,
      "David": 2837,
      "cru": 2838,
      "hurricane": 2839,
      "sport": 2840,
      "women": 2841,
      "ened": 2842,
      "ota": 2843,
      "Ev": 2844,
      "broad": 2845,
      "got": 2846,
      "reli": 2847,
      "recogn": 2848,
      "consist": 2849,
      "opened": 2850,
      "France": 2851,
      "35": 2852,
      "termin": 2853,
      "eastern": 2854,
      "carri": 2855,
      "critics": 2856,
      "ata": 2857,
      "Champion": 2858,
      "2003": 2859,
      "base": 2860,
      "osp": 2861,
      "Robert": 2862,
      "eventually": 2863,
      "profess": 2864,
      "Love": 2865,
      "ey": 2866,
      "ho": 2867,
      "odes": 2868,
      "estim": 2869,
      "features": 2870,
      "cert": 2871,
      "God": 2872,
      "Min": 2873,
      "don": 2874,
      "mph": 2875,
      "2015": 2876,
      "cret": 2877,
      "SA": 2878,
      "fourth": 2879,
      "Du": 2880,
      "Val": 2881,
      "route": 2882,
      "decided": 2883,
      "birds": 2884,
      "vir": 2885,
      "forced": 2886,
      "clos": 2887,
      "aving": 2888,
      "tempor": 2889,
      "Two": 2890,
      "saw": 2891,
      "accept": 2892,
      "commer": 2893,
      "points": 2894,
      "graphy": 2895,
      "inal": 2896,
      "illa": 2897,
      "lack": 2898,
      "damage": 2899,
      "sold": 2900,
      "ica": 2901,
      "icated": 2902,
      "heavy": 2903,
      "impro": 2904,
      "leading": 2905,
      "azine": 2906,
      "ded": 2907,
      "either": 2908,
      "pat": 2909,
      "current": 2910,
      "Battalion": 2911,
      "Hen": 2912,
      "Mi": 2913,
      "Sw": 2914,
      "separ": 2915,
      "proble": 2916,
      "forms": 2917,
      "rick": 2918,
      "writer": 2919,
      "cup": 2920,
      "nar": 2921,
      "pie": 2922,
      "behind": 2923,
      "finished": 2924,
      "friend": 2925,
      "31": 2926,
      "dou": 2927,
      "ug": 2928,
      "individ": 2929,
      "believed": 2930,
      "Carey": 2931,
      "Mad": 2932,
      "Part": 2933,
      "dle": 2934,
      "special": 2935,
      "liament": 2936,
      "claimed": 2937,
      "vier": 2938,
      "condom": 2939,
      "Red": 2940,
      "mater": 2941,
      "ida": 2942,
      "respect": 2943,
      "appearance": 2944,
      "Royal": 2945,
      "Mor": 2946,
      "igned": 2947,
      "Play": 2948,
      "2nd": 2949,
      "Am": 2950,
      "Med": 2951,
      "sour": 2952,
      "lled": 2953,
      "fantry": 2954,
      "80": 2955,
      "Mex": 2956,
      "sen": 2957,
      "employ": 2958,
      "example": 2959,
      "Stre": 2960,
      "central": 2961,
      "langu": 2962,
      "service": 2963,
      "Day": 2964,
      "yards": 2965,
      "almost": 2966,
      "ington": 2967,
      "aves": 2968,
      "White": 2969,
      "directed": 2970,
      "western": 2971,
      "70": 2972,
      "Game": 2973,
      "case": 2974,
      "lin": 2975,
      "compl": 2976,
      "compan": 2977,
      "via": 2978,
      "European": 2979,
      "ators": 2980,
      "tel": 2981,
      "anti": 2982,
      "mean": 2983,
      "generally": 2984,
      "Federer": 2985,
      "cul": 2986,
      "hon": 2987,
      "towards": 2988,
      "elements": 2989,
      "Act": 2990,
      "heel": 2991,
      "river": 2992,
      "general": 2993,
      "Oli": 2994,
      "cross": 2995,
      "tail": 2996,
      "urb": 2997,
      "term": 2998,
      "concl": 2999,
      "assist": 3000,
      "stry": 3001,
      "lower": 3002,
      "brought": 3003,
      "Brigade": 3004,
      "ready": 3005,
      "weeks": 3006,
      "Wales": 3007,
      "fly": 3008,
      "stage": 3009,
      "ceed": 3010,
      "upon": 3011,
      "spir": 3012,
      "help": 3013,
      "International": 3014,
      "Flor": 3015,
      "San": 3016,
      "inch": 3017,
      "highway": 3018,
      "laun": 3019,
      "free": 3020,
      "ply": 3021,
      "defe": 3022,
      "oted": 3023,
      "director": 3024,
      "featured": 3025,
      "Viet": 3026,
      "Ir": 3027,
      "Other": 3028,
      "Rep": 3029,
      "date": 3030,
      "lam": 3031,
      "aircraft": 3032,
      "survi": 3033,
      "Cr": 3034,
      "nine": 3035,
      "My": 3036,
      "ration": 3037,
      "research": 3038,
      "contract": 3039,
      "ordan": 3040,
      "uk": 3041,
      "rail": 3042,
      "approach": 3043,
      "Str": 3044,
      "sts": 3045,
      "ids": 3046,
      "mode": 3047,
      "ocial": 3048,
      "meas": 3049,
      "iction": 3050,
      "45": 3051,
      "Ap": 3052,
      "gress": 3053,
      "condu": 3054,
      "parts": 3055,
      "George": 3056,
      "provided": 3057,
      "Follow": 3058,
      "Gal": 3059,
      "reve": 3060,
      "redu": 3061,
      "flood": 3062,
      "Jordan": 3063,
      "allowed": 3064,
      "AA": 3065,
      "From": 3066,
      "Rock": 3067,
      "nat": 3068,
      "istic": 3069,
      "audi": 3070,
      "Ho": 3071,
      "Jew": 3072,
      "sea": 3073,
      "sem": 3074,
      "section": 3075,
      "Thom": 3076,
      "cially": 3077,
      "certain": 3078,
      "earlier": 3079,
      "Paul": 3080,
      "House": 3081,
      "atin": 3082,
      "coll": 3083,
      "useum": 3084,
      "Mac": 3085,
      "rid": 3086,
      "reason": 3087,
      "ouri": 3088,
      "rather": 3089,
      "2014": 3090,
      "worked": 3091,
      "subsequ": 3092,
      "female": 3093,
      "Atlantic": 3094,
      "Cap": 3095,
      "Fir": 3096,
      "dy": 3097,
      "ishing": 3098,
      "pract": 3099,
      "love": 3100,
      "opening": 3101,
      "Christian": 3102,
      "Mary": 3103,
      "crew": 3104,
      "working": 3105,
      "III": 3106,
      "operations": 3107,
      "largest": 3108,
      "victory": 3109,
      "Following": 3110,
      "38": 3111,
      "Bay": 3112,
      "rang": 3113,
      "Command": 3114,
      "Island": 3115,
      "Hero": 3116,
      "particularly": 3117,
      "wanted": 3118,
      "manager": 3119,
      "Pri": 3120,
      "ding": 3121,
      "foc": 3122,
      "aries": 3123,
      "19th": 3124,
      "standing": 3125,
      "travel": 3126,
      "joined": 3127,
      "troops": 3128,
      "Don": 3129,
      "pers": 3130,
      "tee": 3131,
      "northern": 3132,
      "court": 3133,
      "Ver": 3134,
      "ault": 3135,
      "leng": 3136,
      "thod": 3137,
      "500": 3138,
      "stren": 3139,
      "hest": 3140,
      "evidence": 3141,
      "gra": 3142,
      "quest": 3143,
      "Florida": 3144,
      "conom": 3145,
      "emy": 3146,
      "engine": 3147,
      "counter": 3148,
      "Street": 3149,
      "past": 3150,
      "ita": 3151,
      "super": 3152,
      "outside": 3153,
      "185": 3154,
      "saying": 3155,
      "Most": 3156,
      "mach": 3157,
      "inj": 3158,
      "account": 3159,
      "ival": 3160,
      "cycl": 3161,
      "Mark": 3162,
      "Ze": 3163,
      "mal": 3164,
      "erous": 3165,
      "issue": 3166,
      "Tech": 3167,
      "hours": 3168,
      "ties": 3169,
      "ential": 3170,
      "whom": 3171,
      "streng": 3172,
      "ald": 3173,
      "sell": 3174,
      "avail": 3175,
      "minist": 3176,
      "Missouri": 3177,
      "tor": 3178,
      "oney": 3179,
      "2001": 3180,
      "188": 3181,
      "length": 3182,
      "FA": 3183,
      "drop": 3184,
      "gold": 3185,
      "hous": 3186,
      "stay": 3187,
      "deal": 3188,
      "territ": 3189,
      "aps": 3190,
      "plann": 3191,
      "quarter": 3192,
      "ming": 3193,
      "think": 3194,
      "station": 3195,
      "prob": 3196,
      "viol": 3197,
      "Qu": 3198,
      "Tor": 3199,
      "ken": 3200,
      "nomin": 3201,
      "acc": 3202,
      "type": 3203,
      "alter": 3204,
      "argu": 3205,
      "learn": 3206,
      "seem": 3207,
      "quick": 3208,
      "poor": 3209,
      "Bel": 3210,
      "Vir": 3211,
      "tic": 3212,
      "ament": 3213,
      "pool": 3214,
      "soon": 3215,
      "designed": 3216,
      "Cam": 3217,
      "Dep": 3218,
      "Gl": 3219,
      "bill": 3220,
      "dol": 3221,
      "hib": 3222,
      "amount": 3223,
      "ify": 3224,
      "ranch": 3225,
      "football": 3226,
      "Cro": 3227,
      "Coun": 3228,
      "pan": 3229,
      "praised": 3230,
      "aland": 3231,
      "Best": 3232,
      "ecut": 3233,
      "mel": 3234,
      "mult": 3235,
      "pain": 3236,
      "spo": 3237,
      "deli": 3238,
      "flight": 3239,
      "goals": 3240,
      "remains": 3241,
      "First": 3242,
      "phas": 3243,
      "uel": 3244,
      "Michael": 3245,
      "36": 3246,
      "Bus": 3247,
      "race": 3248,
      "ples": 3249,
      "pressed": 3250,
      "official": 3251,
      "winds": 3252,
      "appointed": 3253,
      "Dr": 3254,
      "Hel": 3255,
      "civil": 3256,
      "above": 3257,
      "discus": 3258,
      "increased": 3259,
      "Egy": 3260,
      "aut": 3261,
      "bi": 3262,
      "fre": 3263,
      "hom": 3264,
      "ials": 3265,
      "igg": 3266,
      "previously": 3267,
      "Hill": 3268,
      "invest": 3269,
      "replaced": 3270,
      "tolo": 3271,
      "units": 3272,
      "90": 3273,
      "ds": 3274,
      "taking": 3275,
      "stop": 3276,
      "passed": 3277,
      "ributed": 3278,
      "Richard": 3279,
      "75": 3280,
      "Que": 3281,
      "here": 3282,
      "must": 3283,
      "186": 3284,
      "interview": 3285,
      "maintain": 3286,
      "signed": 3287,
      "business": 3288,
      "relationship": 3289,
      "shot": 3290,
      "ize": 3291,
      "going": 3292,
      "structure": 3293,
      "Despite": 3294,
      "Henry": 3295,
      "hig": 3296,
      "pond": 3297,
      "bell": 3298,
      "Canada": 3299,
      "estimated": 3300,
      "Hol": 3301,
      "bow": 3302,
      "bri": 3303,
      "hard": 3304,
      "ti": 3305,
      "vice": 3306,
      "threat": 3307,
      "Carol": 3308,
      "bound": 3309,
      "oto": 3310,
      "treat": 3311,
      "ville": 3312,
      "itz": 3313,
      "aces": 3314,
      "olic": 3315,
      "comes": 3316,
      "quadron": 3317,
      "Brown": 3318,
      "native": 3319,
      "ray": 3320,
      "atory": 3321,
      "oring": 3322,
      "ula": 3323,
      "specific": 3324,
      "situ": 3325,
      "involved": 3326,
      "available": 3327,
      "But": 3328,
      "Em": 3329,
      "sat": 3330,
      "somet": 3331,
      "inst": 3332,
      "told": 3333,
      "Oldham": 3334,
      "Japanese": 3335,
      "highest": 3336,
      "President": 3337,
      "Times": 3338,
      "syn": 3339,
      "establish": 3340,
      "mixed": 3341,
      "Ter": 3342,
      "irth": 3343,
      "unk": 3344,
      "utes": 3345,
      "ption": 3346,
      "suggested": 3347,
      "Res": 3348,
      "cern": 3349,
      "hit": 3350,
      "ses": 3351,
      "thus": 3352,
      "touch": 3353,
      "ication": 3354,
      "cts": 3355,
      "actions": 3356,
      "inner": 3357,
      "turned": 3358,
      "scene": 3359,
      "introduced": 3360,
      "bit": 3361,
      "give": 3362,
      "sch": 3363,
      "watch": 3364,
      "league": 3365,
      "ention": 3366,
      "usually": 3367,
      "sia": 3368,
      "likely": 3369,
      "Indian": 3370,
      "Olivier": 3371,
      "Gold": 3372,
      "Later": 3373,
      "NY": 3374,
      "School": 3375,
      "itself": 3376,
      "ami": 3377,
      "proper": 3378,
      "anna": 3379,
      "Arab": 3380,
      "transport": 3381,
      "India": 3382,
      "Mexico": 3383,
      "Cong": 3384,
      "Pac": 3385,
      "enter": 3386,
      "responsi": 3387,
      "average": 3388,
      "Irish": 3389,
      "Rac": 3390,
      "cal": 3391,
      "rate": 3392,
      "educ": 3393,
      "ume": 3394,
      "lie": 3395,
      "occup": 3396,
      "block": 3397,
      "Super": 3398,
      "Egypt": 3399,
      "Rose": 3400,
      "Sm": 3401,
      "los": 3402,
      "usion": 3403,
      "Star": 3404,
      "ronic": 3405,
      "transfer": 3406,
      "damaged": 3407,
      "limited": 3408,
      "Mos": 3409,
      "hair": 3410,
      "size": 3411,
      "whose": 3412,
      "commiss": 3413,
      "recording": 3414,
      "possib": 3415,
      "village": 3416,
      "pot": 3417,
      "woman": 3418,
      "zz": 3419,
      "forward": 3420,
      "ries": 3421,
      "prepar": 3422,
      "habit": 3423,
      "Thomas": 3424,
      "fru": 3425,
      "hol": 3426,
      "happ": 3427,
      "aring": 3428,
      "respond": 3429,
      "ordered": 3430,
      "approxim": 3431,
      "religious": 3432,
      "Jer": 3433,
      "Pre": 3434,
      "Wheel": 3435,
      "oid": 3436,
      "prec": 3437,
      "text": 3438,
      "arts": 3439,
      "space": 3440,
      "temporary": 3441,
      "Hall": 3442,
      "Mal": 3443,
      "Mid": 3444,
      "chap": 3445,
      "intens": 3446,
      "icted": 3447,
      "object": 3448,
      "Britain": 3449,
      "shows": 3450,
      "marked": 3451,
      "commercial": 3452,
      "Republic": 3453,
      "social": 3454,
      "yer": 3455,
      "independ": 3456,
      "aters": 3457,
      "aled": 3458,
      "arily": 3459,
      "lected": 3460,
      "capital": 3461,
      "increasing": 3462,
      "Cer": 3463,
      "Hurricane": 3464,
      "eding": 3465,
      "Guitar": 3466,
      "Many": 3467,
      "econom": 3468,
      "lot": 3469,
      "ny": 3470,
      "thedr": 3471,
      "ody": 3472,
      "feel": 3473,
      "despite": 3474,
      "archae": 3475,
      "nearly": 3476,
      "listed": 3477,
      "changes": 3478,
      "Mer": 3479,
      "Tom": 3480,
      "nation": 3481,
      "Union": 3482,
      "Peter": 3483,
      "community": 3484,
      "Zealand": 3485,
      "fut": 3486,
      "defin": 3487,
      "agon": 3488,
      "pected": 3489,
      "ateg": 3490,
      "international": 3491,
      "surround": 3492,
      "asked": 3493,
      "Law": 3494,
      "daugh": 3495,
      "might": 3496,
      "states": 3497,
      "immedi": 3498,
      "exc": 3499,
      "box": 3500,
      "score": 3501,
      "cost": 3502,
      "inese": 3503,
      "initially": 3504,
      "Jin": 3505,
      "doc": 3506,
      "winning": 3507,
      "already": 3508,
      "ilities": 3509,
      "ctive": 3510,
      "execut": 3511,
      "commit": 3512,
      "That": 3513,
      "prevent": 3514,
      "related": 3515,
      "particip": 3516,
      "1st": 3517,
      "Card": 3518,
      "Hu": 3519,
      "NA": 3520,
      "aby": 3521,
      "failed": 3522,
      "sal": 3523,
      "enj": 3524,
      "ady": 3525,
      "nest": 3526,
      "Chinese": 3527,
      "Early": 3528,
      "Championship": 3529,
      "Pacific": 3530,
      "48": 3531,
      "Cath": 3532,
      "Sing": 3533,
      "rd": 3534,
      "espe": 3535,
      "according": 3536,
      "lies": 3537,
      "training": 3538,
      "occas": 3539,
      "bridge": 3540,
      "language": 3541,
      "probably": 3542,
      "especially": 3543,
      "food": 3544,
      "ett": 3545,
      "2002": 3546,
      "evol": 3547,
      "spent": 3548,
      "coach": 3549,
      "minor": 3550,
      "visit": 3551,
      "33": 3552,
      "Dan": 3553,
      "Tri": 3554,
      "mic": 3555,
      "nia": 3556,
      "urt": 3557,
      "moving": 3558,
      "phys": 3559,
      "studio": 3560,
      "natural": 3561,
      "Wheeler": 3562,
      "Sch": 3563,
      "ires": 3564,
      "liter": 3565,
      "pay": 3566,
      "inated": 3567,
      "ream": 3568,
      "aker": 3569,
      "includes": 3570,
      "arrived": 3571,
      "priv": 3572,
      "History": 3573,
      "39": 3574,
      "Awards": 3575,
      "Bal": 3576,
      "latter": 3577,
      "nel": 3578,
      "enough": 3579,
      "army": 3580,
      "acqu": 3581,
      "dead": 3582,
      "tons": 3583,
      "stein": 3584,
      "remaining": 3585,
      "quarters": 3586,
      "Canadian": 3587,
      "Angel": 3588,
      "thedral": 3589,
      "47": 3590,
      "Navy": 3591,
      "fail": 3592,
      "jour": 3593,
      "male": 3594,
      "apt": 3595,
      "notes": 3596,
      "active": 3597,
      "print": 3598,
      "ief": 3599,
      "sometimes": 3600,
      "Off": 3601,
      "UK": 3602,
      "bal": 3603,
      "mis": 3604,
      "rup": 3605,
      "ites": 3606,
      "ump": 3607,
      "aven": 3608,
      "187": 3609,
      "Arch": 3610,
      "Associ": 3611,
      "soldi": 3612,
      "required": 3613,
      "reviews": 3614,
      "circ": 3615,
      "approximately": 3616,
      "Film": 3617,
      "Je": 3618,
      "Light": 3619,
      "aj": 3620,
      "bot": 3621,
      "mat": 3622,
      "imp": 3623,
      "uded": 3624,
      "center": 3625,
      "rics": 3626,
      "FI": 3627,
      "ben": 3628,
      "cou": 3629,
      "slow": 3630,
      "entolo": 3631,
      "lymp": 3632,
      "perform": 3633,
      "2000": 3634,
      "decision": 3635,
      "beginning": 3636,
      "Africa": 3637,
      "Olymp": 3638,
      "fully": 3639,
      "ference": 3640,
      "running": 3641,
      "Virgin": 3642,
      "Creek": 3643,
      "Rus": 3644,
      "birth": 3645,
      "ga": 3646,
      "Scientolo": 3647,
      "better": 3648,
      "defeated": 3649,
      "flow": 3650,
      "mor": 3651,
      "whe": 3652,
      "staff": 3653,
      "ander": 3654,
      "additional": 3655,
      "Regiment": 3656,
      "Lo": 3657,
      "Ot": 3658,
      "bs": 3659,
      "asy": 3660,
      "concern": 3661,
      "president": 3662,
      "positive": 3663,
      "Art": 3664,
      "response": 3665,
      "Rachel": 3666,
      "Penn": 3667,
      "bio": 3668,
      "keep": 3669,
      "idea": 3670,
      "students": 3671,
      "constructed": 3672,
      "larger": 3673,
      "fleet": 3674,
      "Award": 3675,
      "hou": 3676,
      "mas": 3677,
      "zy": 3678,
      "conf": 3679,
      "appl": 3680,
      "aval": 3681,
      "poet": 3682,
      "ification": 3683,
      "supported": 3684,
      "Colle": 3685,
      "McC": 3686,
      "magazine": 3687,
      "changed": 3688,
      "Lu": 3689,
      "Sou": 3690,
      "frequ": 3691,
      "ores": 3692,
      "depression": 3693,
      "assigned": 3694,
      "pose": 3695,
      "pressure": 3696,
      "police": 3697,
      "prior": 3698,
      "Charles": 3699,
      "agreed": 3700,
      "uals": 3701,
      "stra": 3702,
      "amed": 3703,
      "cele": 3704,
      "osaurus": 3705,
      "material": 3706,
      "sil": 3707,
      "squ": 3708,
      "ases": 3709,
      "access": 3710,
      "teach": 3711,
      "shown": 3712,
      "screen": 3713,
      "1995": 3714,
      "Billboard": 3715,
      "Fort": 3716,
      "mir": 3717,
      "pet": 3718,
      "roll": 3719,
      "uments": 3720,
      "plays": 3721,
      "discovered": 3722,
      "subject": 3723,
      "selves": 3724,
      "feature": 3725,
      "rison": 3726,
      "fifth": 3727,
      "broadcast": 3728,
      "future": 3729,
      "ius": 3730,
      "contr": 3731,
      "provide": 3732,
      "Under": 3733,
      "Im": 3734,
      "pitch": 3735,
      "rat": 3736,
      "orm": 3737,
      "cean": 3738,
      "exam": 3739,
      "Scott": 3740,
      "37": 3741,
      "Oper": 3742,
      "RA": 3743,
      "Route": 3744,
      "kan": 3745,
      "becoming": 3746,
      "temper": 3747,
      "Bri": 3748,
      "Sam": 3749,
      "Tur": 3750,
      "cm": 3751,
      "fill": 3752,
      "enon": 3753,
      "otion": 3754,
      "ishop": 3755,
      "ifa": 3756,
      "colon": 3757,
      "surface": 3758,
      "Western": 3759,
      "summer": 3760,
      "paren": 3761,
      "edy": 3762,
      "sey": 3763,
      "defeat": 3764,
      "ept": 3765,
      "intended": 3766,
      "Wood": 3767,
      "gal": 3768,
      "uter": 3769,
      "rael": 3770,
      "operation": 3771,
      "smaller": 3772,
      "Frank": 3773,
      "professional": 3774,
      "Great": 3775,
      "fell": 3776,
      "ger": 3777,
      "link": 3778,
      "verse": 3779,
      "idents": 3780,
      "percent": 3781,
      "groups": 3782,
      "favor": 3783,
      "Scientology": 3784,
      "Year": 3785,
      "cred": 3786,
      "ih": 3787,
      "champion": 3788,
      "div": 3789,
      "pole": 3790,
      "mostly": 3791,
      "themselves": 3792,
      "metres": 3793,
      "alifor": 3794,
      "referred": 3795,
      "radio": 3796,
      "Camp": 3797,
      "Spe": 3798,
      "fa": 3799,
      "gent": 3800,
      "makes": 3801,
      "orial": 3802,
      "ili": 3803,
      "secur": 3804,
      "apo": 3805,
      "atest": 3806,
      "office": 3807,
      "2016": 3808,
      "minutes": 3809,
      "media": 3810,
      "stitute": 3811,
      "Haifa": 3812,
      "captured": 3813,
      "Croat": 3814,
      "How": 3815,
      "Since": 3816,
      "Var": 3817,
      "vic": 3818,
      "entered": 3819,
      "demon": 3820,
      "tray": 3821,
      "indic": 3822,
      "largely": 3823,
      "Parliament": 3824,
      "problems": 3825,
      "Association": 3826,
      "49": 3827,
      "Del": 3828,
      "Mil": 3829,
      "coup": 3830,
      "send": 3831,
      "veston": 3832,
      "reser": 3833,
      "artment": 3834,
      "bled": 3835,
      "ranked": 3836,
      "Che": 3837,
      "Lord": 3838,
      "Sur": 3839,
      "gir": 3840,
      "thick": 3841,
      "rein": 3842,
      "ously": 3843,
      "jected": 3844,
      "location": 3845,
      "orning": 3846,
      "Israel": 3847,
      "market": 3848,
      "Earth": 3849,
      "discuss": 3850,
      "Califor": 3851,
      "Gul": 3852,
      "ML": 3853,
      "ror": 3854,
      "ato": 3855,
      "enty": 3856,
      "ership": 3857,
      "iano": 3858,
      "pring": 3859,
      "contains": 3860,
      "rict": 3861,
      "flict": 3862,
      "stories": 3863,
      "closed": 3864,
      "Land": 3865,
      "Over": 3866,
      "money": 3867,
      "1999": 3868,
      "appears": 3869,
      "Bey": 3870,
      "voice": 3871,
      "experience": 3872,
      "Council": 3873,
      "Bro": 3874,
      "Haw": 3875,
      "nature": 3876,
      "yn": 3877,
      "adop": 3878,
      "aging": 3879,
      "guitar": 3880,
      "relative": 3881,
      "musical": 3882,
      "effects": 3883,
      "Galveston": 3884,
      "brief": 3885,
      "Ale": 3886,
      "Not": 3887,
      "hop": 3888,
      "ergy": 3889,
      "reme": 3890,
      "secut": 3891,
      "dev": 3892,
      "1950": 3893,
      "earth": 3894,
      "grant": 3895,
      "Chic": 3896,
      "create": 3897,
      "critical": 3898,
      "majority": 3899,
      "Jewish": 3900,
      "Kh": 3901,
      "ency": 3902,
      "iva": 3903,
      "Record": 3904,
      "culture": 3905,
      "jud": 3906,
      "ugu": 3907,
      "leaving": 3908,
      "election": 3909,
      "ario": 3910,
      "married": 3911,
      "schol": 3912,
      "bon": 3913,
      "rare": 3914,
      "attract": 3915,
      "depart": 3916,
      "vey": 3917,
      "ports": 3918,
      "Station": 3919,
      "load": 3920,
      "Another": 3921,
      "runs": 3922,
      "Brad": 3923,
      "primary": 3924,
      "Ca": 3925,
      "hus": 3926,
      "throw": 3927,
      "always": 3928,
      "lyrics": 3929,
      "lived": 3930,
      "upper": 3931,
      "minute": 3932,
      "writers": 3933,
      "films": 3934,
      "officers": 3935,
      "course": 3936,
      "gods": 3937,
      "iff": 3938,
      "mitted": 3939,
      "settle": 3940,
      "ospital": 3941,
      "launched": 3942,
      "California": 3943,
      "Fore": 3944,
      "La": 3945,
      "wing": 3946,
      "deep": 3947,
      "determin": 3948,
      "traff": 3949,
      "illery": 3950,
      "teams": 3951,
      "onym": 3952,
      "equip": 3953,
      "quickly": 3954,
      "Catholic": 3955,
      "76": 3956,
      "If": 3957,
      "Mr": 3958,
      "Sto": 3959,
      "Sol": 3960,
      "Sha": 3961,
      "fans": 3962,
      "insp": 3963,
      "ulated": 3964,
      "proposed": 3965,
      "neg": 3966,
      "emer": 3967,
      "meant": 3968,
      "episodes": 3969,
      "occurred": 3970,
      "Chicago": 3971,
      "Go": 3972,
      "Saint": 3973,
      "nis": 3974,
      "takes": 3975,
      "ining": 3976,
      "conv": 3977,
      "progress": 3978,
      "exper": 3979,
      "achi": 3980,
      "syl": 3981,
      "increase": 3982,
      "Battle": 3983,
      "fighting": 3984,
      "daughter": 3985,
      "whether": 3986,
      "Bow": 3987,
      "Latin": 3988,
      "Mart": 3989,
      "mur": 3990,
      "onto": 3991,
      "administ": 3992,
      "ellow": 3993,
      "fected": 3994,
      "Ital": 3995,
      "northeast": 3996,
      "cient": 3997,
      "books": 3998,
      "consider": 3999,
      "stream": 4000,
      "destroyed": 4001,
      "meaning": 4002,
      "traffic": 4003,
      "Cal": 4004,
      "Do": 4005,
      "Nix": 4006,
      "Sal": 4007,
      "Tour": 4008,
      "bad": 4009,
      "job": 4010,
      "ns": 4011,
      "andon": 4012,
      "trade": 4013,
      "hero": 4014,
      "bring": 4015,
      "Enter": 4016,
      "longer": 4017,
      "Central": 4018,
      "400": 4019,
      "Lou": 4020,
      "Ross": 4021,
      "Sever": 4022,
      "mom": 4023,
      "path": 4024,
      "sus": 4025,
      "wal": 4026,
      "theme": 4027,
      "umb": 4028,
      "vie": 4029,
      "Alice": 4030,
      "numbers": 4031,
      "Northern": 4032,
      "positions": 4033,
      "undred": 4034,
      "competition": 4035,
      "nucle": 4036,
      "carried": 4037,
      "soldiers": 4038,
      "Dj": 4039,
      "NC": 4040,
      "Tex": 4041,
      "kil": 4042,
      "mig": 4043,
      "leave": 4044,
      "semb": 4045,
      "olk": 4046,
      "awarded": 4047,
      "anger": 4048,
      "newsp": 4049,
      "celebr": 4050,
      "32": 4051,
      "3rd": 4052,
      "Mill": 4053,
      "Pat": 4054,
      "pit": 4055,
      "za": 4056,
      "plot": 4057,
      "boy": 4058,
      "1998": 4059,
      "directly": 4060,
      "piece": 4061,
      "conducted": 4062,
      "private": 4063,
      "Otto": 4064,
      "Dis": 4065,
      "Os": 4066,
      "anal": 4067,
      "iser": 4068,
      "itor": 4069,
      "earned": 4070,
      "overall": 4071,
      "worth": 4072,
      "gue": 4073,
      "Alkan": 4074,
      "records": 4075,
      "Second": 4076,
      "attacks": 4077,
      "request": 4078,
      "subsequently": 4079,
      "Cour": 4080,
      "Tre": 4081,
      "Villa": 4082,
      "tom": 4083,
      "tourn": 4084,
      "itation": 4085,
      "1930": 4086,
      "plans": 4087,
      "20th": 4088,
      "weight": 4089,
      "bodies": 4090,
      "issued": 4091,
      "44": 4092,
      "Liver": 4093,
      "Ty": 4094,
      "atops": 4095,
      "concert": 4096,
      "necess": 4097,
      "whole": 4098,
      "1993": 4099,
      "Polish": 4100,
      "industry": 4101,
      "influence": 4102,
      "commented": 4103,
      "double": 4104,
      "Jam": 4105,
      "Tay": 4106,
      "Tran": 4107,
      "done": 4108,
      "waters": 4109,
      "ón": 4110,
      "iny": 4111,
      "image": 4112,
      "actor": 4113,
      "serious": 4114,
      "finally": 4115,
      "Nixon": 4116,
      "anish": 4117,
      "sets": 4118,
      "beat": 4119,
      "abs": 4120,
      "alled": 4121,
      "compared": 4122,
      "method": 4123,
      "finan": 4124,
      "greater": 4125,
      "personal": 4126,
      "scenes": 4127,
      "Georg": 4128,
      "network": 4129,
      "Somer": 4130,
      "Liverpool": 4131,
      "Back": 4132,
      "Lady": 4133,
      "bomb": 4134,
      "cad": 4135,
      "pow": 4136,
      "purch": 4137,
      "anas": 4138,
      "bey": 4139,
      "unable": 4140,
      "concept": 4141,
      "suit": 4142,
      "prison": 4143,
      "party": 4144,
      "Its": 4145,
      "centre": 4146,
      "speed": 4147,
      "legal": 4148,
      "itting": 4149,
      "Texas": 4150,
      "Fow": 4151,
      "Foot": 4152,
      "Hum": 4153,
      "dig": 4154,
      "health": 4155,
      "deb": 4156,
      "istics": 4157,
      "expected": 4158,
      "discover": 4159,
      "aily": 4160,
      "mium": 4161,
      "standard": 4162,
      "buildings": 4163,
      "brother": 4164,
      "rapid": 4165,
      "Mosley": 4166,
      "Somerset": 4167,
      "300": 4168,
      "Tropical": 4169,
      "bury": 4170,
      "hood": 4171,
      "kind": 4172,
      "yet": 4173,
      "step": 4174,
      "shoot": 4175,
      "advant": 4176,
      "stitut": 4177,
      "Bob": 4178,
      "Boy": 4179,
      "Out": 4180,
      "Squadron": 4181,
      "Tenn": 4182,
      "cu": 4183,
      "cé": 4184,
      "dark": 4185,
      "information": 4186,
      "alo": 4187,
      "living": 4188,
      "bery": 4189,
      "1996": 4190,
      "begins": 4191,
      "traditional": 4192,
      "Busch": 4193,
      "Di": 4194,
      "Lake": 4195,
      "Ram": 4196,
      "bank": 4197,
      "kick": 4198,
      "escap": 4199,
      "ican": 4200,
      "terms": 4201,
      "possess": 4202,
      "giving": 4203,
      "aught": 4204,
      "status": 4205,
      "sylvan": 4206,
      "Vict": 4207,
      "hor": 4208,
      "edge": 4209,
      "withdraw": 4210,
      "ultim": 4211,
      "portion": 4212,
      "Christmas": 4213,
      "Spanish": 4214,
      "movement": 4215,
      "African": 4216,
      "marriage": 4217,
      "figure": 4218,
      "inspired": 4219,
      "Taylor": 4220,
      "Fle": 4221,
      "Met": 4222,
      "dated": 4223,
      "pil": 4224,
      "wa": 4225,
      "athan": 4226,
      "helped": 4227,
      "portray": 4228,
      "activity": 4229,
      "associated": 4230,
      "planned": 4231,
      "dollar": 4232,
      "Several": 4233,
      "Fowler": 4234,
      "Tem": 4235,
      "batter": 4236,
      "hic": 4237,
      "mes": 4238,
      "sched": 4239,
      "chall": 4240,
      "forts": 4241,
      "demand": 4242,
      "Three": 4243,
      "web": 4244,
      "regard": 4245,
      "Common": 4246,
      "starting": 4247,
      "tracks": 4248,
      "sequence": 4249,
      "schools": 4250,
      "suffered": 4251,
      "Sovi": 4252,
      "husband": 4253,
      "sembly": 4254,
      "Fin": 4255,
      "Ill": 4256,
      "Just": 4257,
      "Tru": 4258,
      "fit": 4259,
      "ram": 4260,
      "wound": 4261,
      "olf": 4262,
      "unit": 4263,
      "conflict": 4264,
      "cting": 4265,
      "Infantry": 4266,
      "shire": 4267,
      "venue": 4268,
      "allowing": 4269,
      "performances": 4270,
      "source": 4271,
      "machine": 4272,
      "34": 4273,
      "Games": 4274,
      "Jane": 4275,
      "ederal": 4276,
      "arc": 4277,
      "abandon": 4278,
      "continue": 4279,
      "presented": 4280,
      "incor": 4281,
      "Series": 4282,
      "expand": 4283,
      "Party": 4284,
      "condoms": 4285,
      "Live": 4286,
      "bid": 4287,
      "gas": 4288,
      "pi": 4289,
      "rical": 4290,
      "slight": 4291,
      "án": 4292,
      "atre": 4293,
      "presence": 4294,
      "photo": 4295,
      "polic": 4296,
      "greatest": 4297,
      "companies": 4298,
      "education": 4299,
      "Cast": 4300,
      "Long": 4301,
      "MS": 4302,
      "eu": 4303,
      "hu": 4304,
      "hundred": 4305,
      "park": 4306,
      "confir": 4307,
      "except": 4308,
      "nearby": 4309,
      "Paris": 4310,
      "Anderson": 4311,
      "Carolina": 4312,
      "document": 4313,
      "Virginia": 4314,
      "Pennsylvan": 4315,
      "Open": 4316,
      "Rad": 4317,
      "Ven": 4318,
      "rich": 4319,
      "ils": 4320,
      "ada": 4321,
      "prov": 4322,
      "anta": 4323,
      "log": 4324,
      "genus": 4325,
      "complex": 4326,
      "extended": 4327,
      "Acad": 4328,
      "Club": 4329,
      "collection": 4330,
      "composed": 4331,
      "types": 4332,
      "cyclone": 4333,
      "Queen": 4334,
      "AI": 4335,
      "Fre": 4336,
      "Six": 4337,
      "ience": 4338,
      "ker": 4339,
      "mist": 4340,
      "pick": 4341,
      "rum": 4342,
      "itude": 4343,
      "dem": 4344,
      "plant": 4345,
      "essa": 4346,
      "overnor": 4347,
      "itect": 4348,
      "weap": 4349,
      "annual": 4350,
      "metal": 4351,
      "services": 4352,
      "Meyer": 4353,
      "commander": 4354,
      "friends": 4355,
      "figures": 4356,
      "College": 4357,
      "BA": 4358,
      "Lan": 4359,
      "Water": 4360,
      "things": 4361,
      "oncé": 4362,
      "really": 4363,
      "oud": 4364,
      "heav": 4365,
      "acing": 4366,
      "ado": 4367,
      "iple": 4368,
      "1997": 4369,
      "numerous": 4370,
      "producer": 4371,
      "cathedral": 4372,
      "strength": 4373,
      "territory": 4374,
      "Beyoncé": 4375,
      "Ottoman": 4376,
      "Jose": 4377,
      "Museum": 4378,
      "Nico": 4379,
      "mouth": 4380,
      "ta": 4381,
      "tax": 4382,
      "err": 4383,
      "rot": 4384,
      "uries": 4385,
      "umed": 4386,
      "utch": 4387,
      "artist": 4388,
      "something": 4389,
      "Germany": 4390,
      "proteins": 4391,
      "Jackson": 4392,
      "vocals": 4393,
      "Miami": 4394,
      "individual": 4395,
      "enjoy": 4396,
      "Nations": 4397,
      "bing": 4398,
      "pson": 4399,
      "Their": 4400,
      "mole": 4401,
      "division": 4402,
      "ipal": 4403,
      "Sea": 4404,
      "attacked": 4405,
      "issues": 4406,
      "Service": 4407,
      "nuclear": 4408,
      "target": 4409,
      "investig": 4410,
      "Ever": 4411,
      "Minn": 4412,
      "Soci": 4413,
      "cat": 4414,
      "ki": 4415,
      "morning": 4416,
      "inent": 4417,
      "detail": 4418,
      "estival": 4419,
      "orders": 4420,
      "acting": 4421,
      "owned": 4422,
      "scient": 4423,
      "Through": 4424,
      "render": 4425,
      "observ": 4426,
      "highly": 4427,
      "distin": 4428,
      "attempts": 4429,
      "initial": 4430,
      "responsible": 4431,
      "5th": 4432,
      "6th": 4433,
      "Crit": 4434,
      "Cross": 4435,
      "Los": 4436,
      "Mem": 4437,
      "cis": 4438,
      "ec": 4439,
      "horse": 4440,
      "anced": 4441,
      "thes": 4442,
      "aspect": 4443,
      "adium": 4444,
      "beer": 4445,
      "vement": 4446,
      "artillery": 4447,
      "recover": 4448,
      "offered": 4449,
      "dise": 4450,
      "symb": 4451,
      "Prince": 4452,
      "ribution": 4453,
      "immediately": 4454,
      "Pennsylvania": 4455,
      "Fl": 4456,
      "Wel": 4457,
      "fast": 4458,
      "pun": 4459,
      "piano": 4460,
      "inside": 4461,
      "rect": 4462,
      "removed": 4463,
      "omer": 4464,
      "grand": 4465,
      "blood": 4466,
      "struction": 4467,
      "150": 4468,
      "severe": 4469,
      "distance": 4470,
      "studies": 4471,
      "Major": 4472,
      "sexual": 4473,
      "situation": 4474,
      "Dou": 4475,
      "Green": 4476,
      "Sir": 4477,
      "spl": 4478,
      "andid": 4479,
      "selected": 4480,
      "odon": 4481,
      "Chris": 4482,
      "Storm": 4483,
      "rule": 4484,
      "thens": 4485,
      "chester": 4486,
      "variety": 4487,
      "advance": 4488,
      "Scotland": 4489,
      "needed": 4490,
      "peaked": 4491,
      "houses": 4492,
      "Victor": 4493,
      "Bu": 4494,
      "Both": 4495,
      "Hot": 4496,
      "Pen": 4497,
      "lers": 4498,
      "pul": 4499,
      "ening": 4500,
      "ousand": 4501,
      "portun": 4502,
      "scoring": 4503,
      "means": 4504,
      "1991": 4505,
      "viewers": 4506,
      "headquarters": 4507,
      "Colon": 4508,
      "countries": 4509,
      "attempted": 4510,
      "copies": 4511,
      "murder": 4512,
      "Football": 4513,
      "46": 4514,
      "dro": 4515,
      "gain": 4516,
      "hi": 4517,
      "lb": 4518,
      "qual": 4519,
      "China": 4520,
      "appearances": 4521,
      "casual": 4522,
      "widely": 4523,
      "respectively": 4524,
      "Smith": 4525,
      "Govern": 4526,
      "eve": 4527,
      "alty": 4528,
      "secret": 4529,
      "eway": 4530,
      "eves": 4531,
      "spect": 4532,
      "annel": 4533,
      "higher": 4534,
      "describes": 4535,
      "middle": 4536,
      "Department": 4537,
      "touchdown": 4538,
      "Alex": 4539,
      "Cle": 4540,
      "Er": 4541,
      "Up": 4542,
      "cam": 4543,
      "corn": 4544,
      "xenon": 4545,
      "isation": 4546,
      "ications": 4547,
      "adult": 4548,
      "sec": 4549,
      "quality": 4550,
      "iving": 4551,
      "izing": 4552,
      "observed": 4553,
      "1992": 4554,
      "missed": 4555,
      "powerful": 4556,
      "Corps": 4557,
      "completely": 4558,
      "Braa": 4559,
      "impact": 4560,
      "heavily": 4561,
      "Bol": 4562,
      "Ka": 4563,
      "Time": 4564,
      "Young": 4565,
      "crow": 4566,
      "hed": 4567,
      "paper": 4568,
      "below": 4569,
      "iron": 4570,
      "mob": 4571,
      "true": 4572,
      "managed": 4573,
      "ender": 4574,
      "eval": 4575,
      "rane": 4576,
      "vised": 4577,
      "rug": 4578,
      "1994": 4579,
      "sixth": 4580,
      "matches": 4581,
      "Like": 4582,
      "meeting": 4583,
      "relief": 4584,
      "reduced": 4585,
      "rated": 4586,
      "rhy": 4587,
      "esota": 4588,
      "opportun": 4589,
      "ements": 4590,
      "affected": 4591,
      "award": 4592,
      "singer": 4593,
      "resulted": 4594,
      "stitution": 4595,
      "tellig": 4596,
      "Center": 4597,
      "words": 4598,
      "ricket": 4599,
      "concluded": 4600,
      "audience": 4601,
      "parents": 4602,
      "Minnesota": 4603,
      "Prote": 4604,
      "hour": 4605,
      "jun": 4606,
      "lic": 4607,
      "pra": 4608,
      "wear": 4609,
      "clim": 4610,
      "offer": 4611,
      "sole": 4612,
      "Force": 4613,
      "inkel": 4614,
      "activities": 4615,
      "viron": 4616,
      "42": 4617,
      "Are": 4618,
      "Bul": 4619,
      "Fur": 4620,
      "Jim": 4621,
      "Jul": 4622,
      "Pan": 4623,
      "Post": 4624,
      "mile": 4625,
      "rout": 4626,
      "var": 4627,
      "ert": 4628,
      "stating": 4629,
      "armed": 4630,
      "chor": 4631,
      "contemporary": 4632,
      "akapo": 4633,
      "die": 4634,
      "aware": 4635,
      "athus": 4636,
      "phy": 4637,
      "write": 4638,
      "drum": 4639,
      "draft": 4640,
      "declared": 4641,
      "Townsend": 4642,
      "revealed": 4643,
      "Rosebery": 4644,
      "Southern": 4645,
      "Hawai": 4646,
      "Italian": 4647,
      "Ben": 4648,
      "Dist": 4649,
      "Van": 4650,
      "ging": 4651,
      "sa": 4652,
      "oft": 4653,
      "heart": 4654,
      "residents": 4655,
      "excl": 4656,
      "wealth": 4657,
      "refused": 4658,
      "levels": 4659,
      "historical": 4660,
      "trees": 4661,
      "separate": 4662,
      "Meyerbeer": 4663,
      "4th": 4664,
      "Dam": 4665,
      "Fri": 4666,
      "Finkel": 4667,
      "brown": 4668,
      "core": 4669,
      "drew": 4670,
      "ustr": 4671,
      "thers": 4672,
      "isl": 4673,
      "opin": 4674,
      "peace": 4675,
      "ift": 4676,
      "offensive": 4677,
      "Thunder": 4678,
      "pret": 4679,
      "charge": 4680,
      "Because": 4681,
      "1970": 4682,
      "faced": 4683,
      "initi": 4684,
      "Walpole": 4685,
      "contrast": 4686,
      "Finkelstein": 4687,
      "Dire": 4688,
      "Tessa": 4689,
      "Yue": 4690,
      "cere": 4691,
      "uth": 4692,
      "reception": 4693,
      "today": 4694,
      "university": 4695,
      "peror": 4696,
      "bles": 4697,
      "blue": 4698,
      "recent": 4699,
      "ension": 4700,
      "elected": 4701,
      "Leg": 4702,
      "background": 4703,
      "Shiva": 4704,
      "featuring": 4705,
      "carry": 4706,
      "titles": 4707,
      "typically": 4708,
      "vocal": 4709,
      "Adam": 4710,
      "Nes": 4711,
      "Pit": 4712,
      "fish": 4713,
      "kin": 4714,
      "vehic": 4715,
      "tran": 4716,
      "havi": 4717,
      "grass": 4718,
      "conditions": 4719,
      "ledge": 4720,
      "maxim": 4721,
      "Blue": 4722,
      "hands": 4723,
      "sites": 4724,
      "Illino": 4725,
      "Nicole": 4726,
      "Society": 4727,
      "Cra": 4728,
      "Gi": 4729,
      "bat": 4730,
      "pup": 4731,
      "iled": 4732,
      "becomes": 4733,
      "Indu": 4734,
      "lip": 4735,
      "ounds": 4736,
      "assault": 4737,
      "attention": 4738,
      "weaken": 4739,
      "mainly": 4740,
      "forest": 4741,
      "efforts": 4742,
      "tower": 4743,
      "organized": 4744,
      "girl": 4745,
      "Rob": 4746,
      "Turn": 4747,
      "bul": 4748,
      "ka": 4749,
      "sense": 4750,
      "winter": 4751,
      "instr": 4752,
      "ulpt": 4753,
      "poly": 4754,
      "shell": 4755,
      "color": 4756,
      "strugg": 4757,
      "produce": 4758,
      "specim": 4759,
      "Johnson": 4760,
      "divided": 4761,
      "Highway": 4762,
      "evolution": 4763,
      "Braathens": 4764,
      "Little": 4765,
      "Tod": 4766,
      "dition": 4767,
      "ufact": 4768,
      "wick": 4769,
      "ene": 4770,
      "estic": 4771,
      "mentioned": 4772,
      "actually": 4773,
      "athlet": 4774,
      "mond": 4775,
      "architect": 4776,
      "struck": 4777,
      "calling": 4778,
      "tainment": 4779,
      "depict": 4780,
      "protein": 4781,
      "extreme": 4782,
      "ysis": 4783,
      "Hait": 4784,
      "practice": 4785,
      "demonstr": 4786,
      "Court": 4787,
      "advantage": 4788,
      "incorpor": 4789,
      "Of": 4790,
      "border": 4791,
      "folk": 4792,
      "thousand": 4793,
      "alle": 4794,
      "roles": 4795,
      "preser": 4796,
      "flank": 4797,
      "cannot": 4798,
      "1990": 4799,
      "seasons": 4800,
      "transl": 4801,
      "rights": 4802,
      "Book": 4803,
      "says": 4804,
      "Portugu": 4805,
      "combat": 4806,
      "accepted": 4807,
      "achieved": 4808,
      "Soviet": 4809,
      "Government": 4810,
      "9th": 4811,
      "Bet": 4812,
      "Fam": 4813,
      "Mog": 4814,
      "fiction": 4815,
      "atives": 4816,
      "ider": 4817,
      "180": 4818,
      "anning": 4819,
      "Group": 4820,
      "Vietnam": 4821,
      "Captain": 4822,
      "deliver": 4823,
      "fruit": 4824,
      "Portuguese": 4825,
      "Emp": 4826,
      "SR": 4827,
      "Tele": 4828,
      "ban": 4829,
      "kes": 4830,
      "oo": 4831,
      "paid": 4832,
      "tailed": 4833,
      "infantry": 4834,
      "rem": 4835,
      "restr": 4836,
      "sust": 4837,
      "sculpt": 4838,
      "helm": 4839,
      "function": 4840,
      "arent": 4841,
      "primarily": 4842,
      "Academy": 4843,
      "96": 4844,
      "Civil": 4845,
      "push": 4846,
      "sales": 4847,
      "sister": 4848,
      "wen": 4849,
      "iles": 4850,
      "union": 4851,
      "berg": 4852,
      "twenty": 4853,
      "scale": 4854,
      "rance": 4855,
      "spread": 4856,
      "Engine": 4857,
      "1986": 4858,
      "Secret": 4859,
      "extensive": 4860,
      "inches": 4861,
      "commissioned": 4862,
      "slightly": 4863,
      "Burn": 4864,
      "Horse": 4865,
      "Ocean": 4866,
      "Tint": 4867,
      "Way": 4868,
      "cers": 4869,
      "igan": 4870,
      "ows": 4871,
      "concent": 4872,
      "expressed": 4873,
      "creation": 4874,
      "visions": 4875,
      "Form": 4876,
      "Fey": 4877,
      "protest": 4878,
      "county": 4879,
      "ceeded": 4880,
      "onymous": 4881,
      "Louis": 4882,
      "53": 4883,
      "Def": 4884,
      "Sarn": 4885,
      "farm": 4886,
      "gn": 4887,
      "sides": 4888,
      "shore": 4889,
      "neigh": 4890,
      "Studi": 4891,
      "boat": 4892,
      "serve": 4893,
      "phil": 4894,
      "ologist": 4895,
      "showed": 4896,
      "officer": 4897,
      "titled": 4898,
      "defense": 4899,
      "Spain": 4900,
      "street": 4901,
      "looking": 4902,
      "excav": 4903,
      "Welsh": 4904,
      "Tintin": 4905,
      "Oda": 4906,
      "Zhou": 4907,
      "bour": 4908,
      "bitt": 4909,
      "ras": 4910,
      "rey": 4911,
      "recomm": 4912,
      "prop": 4913,
      "raid": 4914,
      "Though": 4915,
      "themes": 4916,
      "battalion": 4917,
      "Andrew": 4918,
      "represented": 4919,
      "combined": 4920,
      "Ceres": 4921,
      "Varanas": 4922,
      "newspaper": 4923,
      "vironment": 4924,
      "ceremon": 4925,
      "Empire": 4926,
      "Varanasi": 4927,
      "55": 4928,
      "7th": 4929,
      "Fred": 4930,
      "PA": 4931,
      "Rh": 4932,
      "Sil": 4933,
      "gam": 4934,
      "mess": 4935,
      "thir": 4936,
      "ental": 4937,
      "ulations": 4938,
      "umn": 4939,
      "osen": 4940,
      "ems": 4941,
      "astic": 4942,
      "avoid": 4943,
      "Commun": 4944,
      "captain": 4945,
      "founded": 4946,
      "places": 4947,
      "cultural": 4948,
      "mountain": 4949,
      "Apple": 4950,
      "square": 4951,
      "casualties": 4952,
      "Nesbitt": 4953,
      "Odaen": 4954,
      "Bur": 4955,
      "cies": 4956,
      "hill": 4957,
      "ancient": 4958,
      "repe": 4959,
      "reign": 4960,
      "revol": 4961,
      "alone": 4962,
      "esh": 4963,
      "lif": 4964,
      "ordin": 4965,
      "science": 4966,
      "Ann": 4967,
      "workers": 4968,
      "Demo": 4969,
      "direction": 4970,
      "identified": 4971,
      "continues": 4972,
      "Francis": 4973,
      "castle": 4974,
      "Produ": 4975,
      "earliest": 4976,
      "Eva": 4977,
      "Angeles": 4978,
      "Illinois": 4979,
      "Odaenathus": 4980,
      "CA": 4981,
      "Home": 4982,
      "MD": 4983,
      "Wash": 4984,
      "eth": 4985,
      "lock": 4986,
      "ole": 4987,
      "rush": 4988,
      "sac": 4989,
      "uzz": 4990,
      "agan": 4991,
      "1920": 4992,
      "artists": 4993,
      "manufact": 4994,
      "18th": 4995,
      "content": 4996,
      "phen": 4997,
      "doing": 4998,
      "pedo": 4999,
      "letters": 5000,
      "officially": 5001,
      "northwest": 5002,
      "resulting": 5003,
      "graphic": 5004,
      "authorities": 5005,
      "influenced": 5006,
      "DuMont": 5007,
      "narrow": 5008,
      "flooding": 5009,
      "Olympic": 5010,
      "adopted": 5011,
      "Records": 5012,
      "disease": 5013,
      "Mogad": 5014,
      "56": 5015,
      "Der": 5016,
      "Night": 5017,
      "ares": 5018,
      "wild": 5019,
      "zed": 5020,
      "advert": 5021,
      "proved": 5022,
      "diss": 5023,
      "News": 5024,
      "reports": 5025,
      "apparent": 5026,
      "southeast": 5027,
      "basis": 5028,
      "Simpson": 5029,
      "eye": 5030,
      "Sarnia": 5031,
      "Four": 5032,
      "Ob": 5033,
      "Pop": 5034,
      "candid": 5035,
      "patter": 5036,
      "rating": 5037,
      "inth": 5038,
      "eds": 5039,
      "toward": 5040,
      "chair": 5041,
      "uled": 5042,
      "exhib": 5043,
      "perman": 5044,
      "complet": 5045,
      "spot": 5046,
      "door": 5047,
      "Wilhelm": 5048,
      "Manchester": 5049,
      "Week": 5050,
      "broken": 5051,
      "begin": 5052,
      "soundtrack": 5053,
      "Middle": 5054,
      "tournament": 5055,
      "Mat": 5056,
      "Ve": 5057,
      "kakapo": 5058,
      "yellow": 5059,
      "zer": 5060,
      "edition": 5061,
      "encour": 5062,
      "delay": 5063,
      "older": 5064,
      "otional": 5065,
      "oppon": 5066,
      "awa": 5067,
      "effort": 5068,
      "alongside": 5069,
      "plement": 5070,
      "Clark": 5071,
      "royal": 5072,
      "capture": 5073,
      "ovic": 5074,
      "focus": 5075,
      "torpedo": 5076,
      "occasion": 5077,
      "physical": 5078,
      "relatively": 5079,
      "Washington": 5080,
      "95": 5081,
      "Bon": 5082,
      "Horn": 5083,
      "Lar": 5084,
      "Oma": 5085,
      "cities": 5086,
      "greg": 5087,
      "va": 5088,
      "dete": 5089,
      "iana": 5090,
      "attended": 5091,
      "contain": 5092,
      "mechan": 5093,
      "Conf": 5094,
      "1988": 5095,
      "tried": 5096,
      "vention": 5097,
      "individuals": 5098,
      "measure": 5099,
      "losing": 5100,
      "transferred": 5101,
      "cadmium": 5102,
      "Mass": 5103,
      "Max": 5104,
      "Sum": 5105,
      "dress": 5106,
      "kare": 5107,
      "master": 5108,
      "sian": 5109,
      "height": 5110,
      "adel": 5111,
      "behavi": 5112,
      "opposed": 5113,
      "abama": 5114,
      "shap": 5115,
      "neut": 5116,
      "prise": 5117,
      "princ": 5118,
      "boats": 5119,
      "contact": 5120,
      "Alabama": 5121,
      "officials": 5122,
      "require": 5123,
      "rainfall": 5124,
      "dedicated": 5125,
      "surrounding": 5126,
      "determined": 5127,
      "Joseph": 5128,
      "Mogadish": 5129,
      "Omaha": 5130,
      "Bre": 5131,
      "Dest": 5132,
      "Kent": 5133,
      "Ly": 5134,
      "Op": 5135,
      "Sky": 5136,
      "rise": 5137,
      "sn": 5138,
      "uan": 5139,
      "restor": 5140,
      "energy": 5141,
      "asc": 5142,
      "Innis": 5143,
      "lives": 5144,
      "illustr": 5145,
      "orses": 5146,
      "letter": 5147,
      "Mean": 5148,
      "Edward": 5149,
      "possibly": 5150,
      "journal": 5151,
      "Fant": 5152,
      "VD": 5153,
      "hang": 5154,
      "ners": 5155,
      "your": 5156,
      "ises": 5157,
      "ingu": 5158,
      "images": 5159,
      "oph": 5160,
      "Independ": 5161,
      "shape": 5162,
      "timore": 5163,
      "guest": 5164,
      "Argent": 5165,
      "Reception": 5166,
      "follows": 5167,
      "1940": 5168,
      "1960s": 5169,
      "designated": 5170,
      "shortly": 5171,
      "Perón": 5172,
      "society": 5173,
      "gradu": 5174,
      "spirit": 5175,
      "Helms": 5176,
      "intensity": 5177,
      "financial": 5178,
      "dissip": 5179,
      "Mogadishu": 5180,
      "FE": 5181,
      "Far": 5182,
      "GA": 5183,
      "Jour": 5184,
      "Lis": 5185,
      "Men": 5186,
      "smo": 5187,
      "yle": 5188,
      "onom": 5189,
      "imony": 5190,
      "opt": 5191,
      "umber": 5192,
      "serving": 5193,
      "albums": 5194,
      "suppl": 5195,
      "1980s": 5196,
      "1964": 5197,
      "simply": 5198,
      "borough": 5199,
      "Histor": 5200,
      "sources": 5201,
      "McCall": 5202,
      "security": 5203,
      "maximum": 5204,
      "51": 5205,
      "64": 5206,
      "Ban": 5207,
      "Bir": 5208,
      "Cre": 5209,
      "Hy": 5210,
      "Kore": 5211,
      "Sen": 5212,
      "gi": 5213,
      "kept": 5214,
      "museum": 5215,
      "oil": 5216,
      "wave": 5217,
      "rear": 5218,
      "iced": 5219,
      "seek": 5220,
      "comedy": 5221,
      "movie": 5222,
      "artic": 5223,
      "emphas": 5224,
      "actors": 5225,
      "condition": 5226,
      "visited": 5227,
      "Assembly": 5228,
      "legisl": 5229,
      "passes": 5230,
      "frag": 5231,
      "buried": 5232,
      "successfully": 5233,
      "management": 5234,
      "pieces": 5235,
      "potential": 5236,
      "couple": 5237,
      "necessary": 5238,
      "97": 5239,
      "Jup": 5240,
      "dut": 5241,
      "gained": 5242,
      "spring": 5243,
      "tur": 5244,
      "vation": 5245,
      "ura": 5246,
      "verted": 5247,
      "clo": 5248,
      "Commission": 5249,
      "domestic": 5250,
      "grew": 5251,
      "planet": 5252,
      "PlayStation": 5253,
      "argued": 5254,
      "Fleet": 5255,
      "Rih": 5256,
      "Tu": 5257,
      "paint": 5258,
      "sand": 5259,
      "intellig": 5260,
      "aling": 5261,
      "lys": 5262,
      "chief": 5263,
      "share": 5264,
      "asty": 5265,
      "ached": 5266,
      "depth": 5267,
      "cases": 5268,
      "suggests": 5269,
      "authority": 5270,
      "projects": 5271,
      "Hamels": 5272,
      "connected": 5273,
      "Valley": 5274,
      "Baltimore": 5275,
      "Rihanna": 5276,
      "600": 5277,
      "DVD": 5278,
      "Gall": 5279,
      "Writ": 5280,
      "hospital": 5281,
      "recon": 5282,
      "ati": 5283,
      "ora": 5284,
      "entrance": 5285,
      "advent": 5286,
      "belong": 5287,
      "ols": 5288,
      "unique": 5289,
      "consecut": 5290,
      "resh": 5291,
      "umes": 5292,
      "uten": 5293,
      "extr": 5294,
      "extra": 5295,
      "twice": 5296,
      "Chap": 5297,
      "weak": 5298,
      "premi": 5299,
      "versions": 5300,
      "bute": 5301,
      "icks": 5302,
      "normal": 5303,
      "Constant": 5304,
      "Short": 5305,
      "passing": 5306,
      "causing": 5307,
      "placement": 5308,
      "defence": 5309,
      "claims": 5310,
      "structures": 5311,
      "criticized": 5312,
      "Palest": 5313,
      "invas": 5314,
      "homes": 5315,
      "Bowl": 5316,
      "Djed": 5317,
      "ultimately": 5318,
      "website": 5319,
      "43": 5320,
      "Bank": 5321,
      "Lew": 5322,
      "Mah": 5323,
      "SP": 5324,
      "Tim": 5325,
      "han": 5326,
      "alleg": 5327,
      "deploy": 5328,
      "propos": 5329,
      "containing": 5330,
      "vessel": 5331,
      "results": 5332,
      "holds": 5333,
      "industri": 5334,
      "debuted": 5335,
      "negative": 5336,
      "Jupiter": 5337,
      "Djedkare": 5338,
      "65": 5339,
      "Cy": 5340,
      "Den": 5341,
      "Dun": 5342,
      "Gir": 5343,
      "Han": 5344,
      "Hib": 5345,
      "More": 5346,
      "NH": 5347,
      "Rol": 5348,
      "bud": 5349,
      "fox": 5350,
      "kg": 5351,
      "lane": 5352,
      "tun": 5353,
      "beach": 5354,
      "chosen": 5355,
      "tex": 5356,
      "foreign": 5357,
      "obtain": 5358,
      "1947": 5359,
      "Isa": 5360,
      "student": 5361,
      "defensive": 5362,
      "battles": 5363,
      "organization": 5364,
      "broke": 5365,
      "mounted": 5366,
      "favour": 5367,
      "growing": 5368,
      "currently": 5369,
      "collabor": 5370,
      "Torres": 5371,
      "rupt": 5372,
      "wounded": 5373,
      "41": 5374,
      "Baby": 5375,
      "Jon": 5376,
      "Kar": 5377,
      "Ox": 5378,
      "Ul": 5379,
      "eigh": 5380,
      "iro": 5381,
      "mort": 5382,
      "rejected": 5383,
      "lying": 5384,
      "imin": 5385,
      "else": 5386,
      "brigade": 5387,
      "mind": 5388,
      "aired": 5389,
      "1987": 5390,
      "prominent": 5391,
      "reference": 5392,
      "Eastern": 5393,
      "animal": 5394,
      "independent": 5395,
      "granted": 5396,
      "analysis": 5397,
      "abandoned": 5398,
      "confirmed": 5399,
      "consecutive": 5400,
      "Field": 5401,
      "Lock": 5402,
      "Ry": 5403,
      "bishop": 5404,
      "tank": 5405,
      "aine": 5406,
      "quake": 5407,
      "temple": 5408,
      "regions": 5409,
      "colony": 5410,
      "Once": 5411,
      "seconds": 5412,
      "therefore": 5413,
      "1941": 5414,
      "operated": 5415,
      "azz": 5416,
      "famous": 5417,
      "pursu": 5418,
      "Airport": 5419,
      "cells": 5420,
      "growth": 5421,
      "benef": 5422,
      "Scottish": 5423,
      "Forest": 5424,
      "Applewhite": 5425,
      "120": 5426,
      "BBC": 5427,
      "Down": 5428,
      "Good": 5429,
      "ba": 5430,
      "tact": 5431,
      "thr": 5432,
      "enemy": 5433,
      "acad": 5434,
      "resol": 5435,
      "mosp": 5436,
      "Head": 5437,
      "speak": 5438,
      "phia": 5439,
      "newly": 5440,
      "gency": 5441,
      "singles": 5442,
      "roads": 5443,
      "SAFE": 5444,
      "model": 5445,
      "selling": 5446,
      "moment": 5447,
      "adelphia": 5448,
      "ahead": 5449,
      "fat": 5450,
      "glo": 5451,
      "pack": 5452,
      "arms": 5453,
      "ilies": 5454,
      "chance": 5455,
      "Institute": 5456,
      "ocated": 5457,
      "perfect": 5458,
      "weather": 5459,
      "views": 5460,
      "1970s": 5461,
      "solo": 5462,
      "controlled": 5463,
      "reaching": 5464,
      "explained": 5465,
      "sky": 5466,
      "knowledge": 5467,
      "nominated": 5468,
      "seems": 5469,
      "Egyptian": 5470,
      "prepared": 5471,
      "Premi": 5472,
      "straight": 5473,
      "temperature": 5474,
      "equipment": 5475,
      "Background": 5476,
      "Dev": 5477,
      "Due": 5478,
      "Greek": 5479,
      "Vide": 5480,
      "branch": 5481,
      "cust": 5482,
      "dates": 5483,
      "hur": 5484,
      "ii": 5485,
      "males": 5486,
      "rative": 5487,
      "edar": 5488,
      "environment": 5489,
      "tomb": 5490,
      "imag": 5491,
      "Child": 5492,
      "fired": 5493,
      "loy": 5494,
      "guan": 5495,
      "element": 5496,
      "address": 5497,
      "1984": 5498,
      "1989": 5499,
      "Before": 5500,
      "leader": 5501,
      "1972": 5502,
      "returning": 5503,
      "council": 5504,
      "servation": 5505,
      "supporting": 5506,
      "Guard": 5507,
      "prompt": 5508,
      "burg": 5509,
      "problem": 5510,
      "urban": 5511,
      "freeway": 5512,
      "Croatia": 5513,
      "settlement": 5514,
      "Further": 5515,
      "8th": 5516,
      "Ath": 5517,
      "Abu": 5518,
      "Eli": 5519,
      "Each": 5520,
      "HMS": 5521,
      "Kir": 5522,
      "Mu": 5523,
      "Public": 5524,
      "ote": 5525,
      "rig": 5526,
      "tav": 5527,
      "repair": 5528,
      "atmosp": 5529,
      "stations": 5530,
      "unknown": 5531,
      "otes": 5532,
      "firm": 5533,
      "Stan": 5534,
      "achie": 5535,
      "writes": 5536,
      "ocks": 5537,
      "1985": 5538,
      "breeding": 5539,
      "Origin": 5540,
      "strike": 5541,
      "Mike": 5542,
      "employed": 5543,
      "question": 5544,
      "increasingly": 5545,
      "economic": 5546,
      "literature": 5547,
      "Operation": 5548,
      "130": 5549,
      "Ari": 5550,
      "Ali": 5551,
      "Ret": 5552,
      "Sub": 5553,
      "big": 5554,
      "catch": 5555,
      "ya": 5556,
      "theory": 5557,
      "ranged": 5558,
      "disp": 5559,
      "commonly": 5560,
      "ideas": 5561,
      "1960": 5562,
      "systems": 5563,
      "believe": 5564,
      "Barrow": 5565,
      "historian": 5566,
      "burns": 5567,
      "Swed": 5568,
      "Cardiff": 5569,
      "Big": 5570,
      "CE": 5571,
      "Even": 5572,
      "Mic": 5573,
      "Mort": 5574,
      "Never": 5575,
      "Slam": 5576,
      "cricket": 5577,
      "wit": 5578,
      "stood": 5579,
      "arrest": 5580,
      "arrang": 5581,
      "icient": 5582,
      "ches": 5583,
      "oppos": 5584,
      "aret": 5585,
      "illo": 5586,
      "herself": 5587,
      "landfall": 5588,
      "rence": 5589,
      "rub": 5590,
      "Only": 5591,
      "singing": 5592,
      "Develop": 5593,
      "parliament": 5594,
      "clean": 5595,
      "1944": 5596,
      "fields": 5597,
      "marks": 5598,
      "Class": 5599,
      "killing": 5600,
      "advanced": 5601,
      "females": 5602,
      "Keats": 5603,
      "Michigan": 5604,
      "experienced": 5605,
      "Philadelphia": 5606,
      "consisted": 5607,
      "dropped": 5608,
      "property": 5609,
      "Congress": 5610,
      "Rog": 5611,
      "Sat": 5612,
      "aer": 5613,
      "horses": 5614,
      "iation": 5615,
      "labor": 5616,
      "inem": 5617,
      "ont": 5618,
      "alions": 5619,
      "semi": 5620,
      "deities": 5621,
      "agement": 5622,
      "ria": 5623,
      "resc": 5624,
      "resist": 5625,
      "prot": 5626,
      "exped": 5627,
      "compar": 5628,
      "serves": 5629,
      "attend": 5630,
      "note": 5631,
      "1990s": 5632,
      "asket": 5633,
      "belief": 5634,
      "join": 5635,
      "Addition": 5636,
      "Mounted": 5637,
      "flying": 5638,
      "phase": 5639,
      "maintained": 5640,
      "failure": 5641,
      "kilomet": 5642,
      "Meanwhile": 5643,
      "87": 5644,
      "94": 5645,
      "Dutch": 5646,
      "Gard": 5647,
      "Hart": 5648,
      "RE": 5649,
      "Si": 5650,
      "din": 5651,
      "fict": 5652,
      "federal": 5653,
      "pict": 5654,
      "resem": 5655,
      "asure": 5656,
      "ulate": 5657,
      "rival": 5658,
      "aved": 5659,
      "awards": 5660,
      "Anth": 5661,
      "finals": 5662,
      "Album": 5663,
      "minim": 5664,
      "filmed": 5665,
      "value": 5666,
      "risk": 5667,
      "domin": 5668,
      "defend": 5669,
      "promoted": 5670,
      "publication": 5671,
      "humans": 5672,
      "ski": 5673,
      "popularity": 5674,
      "teenth": 5675,
      "religion": 5676,
      "honor": 5677,
      "injury": 5678,
      "multiple": 5679,
      "frequently": 5680,
      "pitched": 5681,
      "budget": 5682,
      "Bas": 5683,
      "Fer": 5684,
      "Fish": 5685,
      "Line": 5686,
      "Nathan": 5687,
      "fied": 5688,
      "laid": 5689,
      "matter": 5690,
      "nasty": 5691,
      "pal": 5692,
      "tree": 5693,
      "lection": 5694,
      "deg": 5695,
      "ager": 5696,
      "usual": 5697,
      "actress": 5698,
      "Italy": 5699,
      "regarded": 5700,
      "retired": 5701,
      "families": 5702,
      "km2": 5703,
      "restaur": 5704,
      "allows": 5705,
      "Steve": 5706,
      "Andy": 5707,
      "walls": 5708,
      "recognized": 5709,
      "Minister": 5710,
      "Jeff": 5711,
      "rapidly": 5712,
      "battery": 5713,
      "weapons": 5714,
      "Bost": 5715,
      "Greg": 5716,
      "Mur": 5717,
      "Pet": 5718,
      "bark": 5719,
      "ying": 5720,
      "agric": 5721,
      "plat": 5722,
      "trail": 5723,
      "emic": 5724,
      "computer": 5725,
      "creating": 5726,
      "Americans": 5727,
      "Conference": 5728,
      "description": 5729,
      "starts": 5730,
      "promotion": 5731,
      "significantly": 5732,
      "multi": 5733,
      "bottom": 5734,
      "cougar": 5735,
      "invasion": 5736,
      "Video": 5737,
      "agricult": 5738,
      "Final": 5739,
      "Sup": 5740,
      "bra": 5741,
      "data": 5742,
      "haps": 5743,
      "sought": 5744,
      "reaction": 5745,
      "beaut": 5746,
      "chose": 5747,
      "ott": 5748,
      "ishes": 5749,
      "acts": 5750,
      "crete": 5751,
      "producers": 5752,
      "highlight": 5753,
      "volume": 5754,
      "simple": 5755,
      "green": 5756,
      "seventh": 5757,
      "agreement": 5758,
      "sports": 5759,
      "strengthen": 5760,
      "occupied": 5761,
      "filled": 5762,
      "scholar": 5763,
      "scheduled": 5764,
      "aspects": 5765,
      "Cold": 5766,
      "Gord": 5767,
      "Haven": 5768,
      "Nich": 5769,
      "Sus": 5770,
      "TC": 5771,
      "Well": 5772,
      "dan": 5773,
      "lap": 5774,
      "mast": 5775,
      "sun": 5776,
      "inscript": 5777,
      "theless": 5778,
      "oration": 5779,
      "altar": 5780,
      "outer": 5781,
      "accompan": 5782,
      "del": 5783,
      "train": 5784,
      "landing": 5785,
      "news": 5786,
      "160": 5787,
      "apping": 5788,
      "drive": 5789,
      "namese": 5790,
      "virt": 5791,
      "Vietnamese": 5792,
      "victim": 5793,
      "Gulf": 5794,
      "susp": 5795,
      "nucleus": 5796,
      "sustained": 5797,
      "philos": 5798,
      "66": 5799,
      "Blo": 5800,
      "Domin": 5801,
      "Jes": 5802,
      "Naz": 5803,
      "Tra": 5804,
      "avi": 5805,
      "dream": 5806,
      "fair": 5807,
      "fought": 5808,
      "gather": 5809,
      "hall": 5810,
      "jack": 5811,
      "mical": 5812,
      "oon": 5813,
      "āda": 5814,
      "ena": 5815,
      "isol": 5816,
      "iding": 5817,
      "antimony": 5818,
      "afety": 5819,
      "guard": 5820,
      "miner": 5821,
      "colour": 5822,
      "17th": 5823,
      "trial": 5824,
      "Pho": 5825,
      "collected": 5826,
      "Cole": 5827,
      "Among": 5828,
      "Cambod": 5829,
      "Thunderbirds": 5830,
      "Ros": 5831,
      "save": 5832,
      "wed": 5833,
      "ini": 5834,
      "stock": 5835,
      "acks": 5836,
      "scar": 5837,
      "contained": 5838,
      "ween": 5839,
      "izes": 5840,
      "visual": 5841,
      "underground": 5842,
      "End": 5843,
      "insula": 5844,
      "supply": 5845,
      "1981": 5846,
      "Juan": 5847,
      "USA": 5848,
      "kills": 5849,
      "1939": 5850,
      "facilities": 5851,
      "composition": 5852,
      "Entertainment": 5853,
      "Oxford": 5854,
      "Athlet": 5855,
      "Festival": 5856,
      "Lie": 5857,
      "Revolution": 5858,
      "UN": 5859,
      "Vill": 5860,
      "cited": 5861,
      "cake": 5862,
      "eter": 5863,
      "ni": 5864,
      "nur": 5865,
      "rine": 5866,
      "task": 5867,
      "thur": 5868,
      "stages": 5869,
      "itan": 5870,
      "heard": 5871,
      "udd": 5872,
      "contributed": 5873,
      "prefer": 5874,
      "angers": 5875,
      "Arthur": 5876,
      "1942": 5877,
      "missions": 5878,
      "reflect": 5879,
      "improve": 5880,
      "ifying": 5881,
      "executive": 5882,
      "Studios": 5883,
      "shaped": 5884,
      "degree": 5885,
      "Gordon": 5886,
      "98": 5887,
      "Aer": 5888,
      "CD": 5889,
      "NL": 5890,
      "NBA": 5891,
      "Ron": 5892,
      "Rail": 5893,
      "mut": 5894,
      "sens": 5895,
      "ws": 5896,
      "ange": 5897,
      "rose": 5898,
      "iments": 5899,
      "unte": 5900,
      "rian": 5901,
      "1918": 5902,
      "moves": 5903,
      "Ind": 5904,
      "udes": 5905,
      "coal": 5906,
      "anny": 5907,
      "myth": 5908,
      "capable": 5909,
      "heads": 5910,
      "opera": 5911,
      "Coast": 5912,
      "effective": 5913,
      "Williams": 5914,
      "Philip": 5915,
      "entirely": 5916,
      "animals": 5917,
      "improved": 5918,
      "subsequent": 5919,
      "silver": 5920,
      "1950s": 5921,
      "Martin": 5922,
      "beyond": 5923,
      "Crazy": 5924,
      "Turner": 5925,
      "Between": 5926,
      "utenant": 5927,
      "Premier": 5928,
      "fictional": 5929,
      "54": 5930,
      "700": 5931,
      "Fox": 5932,
      "Gil": 5933,
      "Mario": 5934,
      "Nat": 5935,
      "Rel": 5936,
      "bass": 5937,
      "crop": 5938,
      "dog": 5939,
      "egg": 5940,
      "sion": 5941,
      "sul": 5942,
      "sort": 5943,
      "sail": 5944,
      "stro": 5945,
      "acu": 5946,
      "cher": 5947,
      "contest": 5948,
      "ully": 5949,
      "notable": 5950,
      "Stone": 5951,
      "worship": 5952,
      "recently": 5953,
      "Alli": 5954,
      "ropium": 5955,
      "medical": 5956,
      "12th": 5957,
      "1968": 5958,
      "1969": 5959,
      "gives": 5960,
      "Boise": 5961,
      "Muslim": 5962,
      "finding": 5963,
      "historic": 5964,
      "floor": 5965,
      "gradually": 5966,
      "responded": 5967,
      "Daniel": 5968,
      "Turk": 5969,
      "thesis": 5970,
      "Today": 5971,
      "Lewis": 5972,
      "kilometres": 5973,
      "Boston": 5974,
      "Bor": 5975,
      "Band": 5976,
      "Chel": 5977,
      "Crown": 5978,
      "Hell": 5979,
      "IV": 5980,
      "Jain": 5981,
      "Kang": 5982,
      "WA": 5983,
      "lit": 5984,
      "ancy": 5985,
      "eda": 5986,
      "atom": 5987,
      "stable": 5988,
      "isy": 5989,
      "amy": 5990,
      "trou": 5991,
      "auto": 5992,
      "presents": 5993,
      "disc": 5994,
      "secondary": 5995,
      "publish": 5996,
      "mush": 5997,
      "headed": 5998,
      "1975": 5999,
      "Bridge": 6000,
      "dram": 6001,
      "rising": 6002,
      "incident": 6003,
      "People": 6004,
      "finds": 6005,
      "programs": 6006,
      "Magazine": 6007,
      "System": 6008,
      "Russian": 6009,
      "challeng": 6010,
      "expanded": 6011,
      "ánh": 6012,
      "Democr": 6013,
      "Dar": 6014,
      "Fall": 6015,
      "Rod": 6016,
      "Upon": 6017,
      "bility": 6018,
      "mate": 6019,
      "rac": 6020,
      "sed": 6021,
      "items": 6022,
      "hem": 6023,
      "acres": 6024,
      "acher": 6025,
      "adapt": 6026,
      "etic": 6027,
      "negot": 6028,
      "perial": 6029,
      "display": 6030,
      "weet": 6031,
      "ansas": 6032,
      "centuries": 6033,
      "flag": 6034,
      "innings": 6035,
      "rossing": 6036,
      "engaged": 6037,
      "1965": 6038,
      "1974": 6039,
      "southwest": 6040,
      "classified": 6041,
      "campus": 6042,
      "stones": 6043,
      "faces": 6044,
      "Evita": 6045,
      "treatment": 6046,
      "possibility": 6047,
      "micro": 6048,
      "faith": 6049,
      "policy": 6050,
      "exclus": 6051,
      "Nichol": 6052,
      "61": 6053,
      "AR": 6054,
      "Cub": 6055,
      "DS": 6056,
      "Ru": 6057,
      "Raf": 6058,
      "Will": 6059,
      "daily": 6060,
      "eas": 6061,
      "naval": 6062,
      "rab": 6063,
      "inf": 6064,
      "enic": 6065,
      "oul": 6066,
      "sections": 6067,
      "lywood": 6068,
      "neck": 6069,
      "lide": 6070,
      "aste": 6071,
      "ublin": 6072,
      "setting": 6073,
      "arib": 6074,
      "paralle": 6075,
      "decades": 6076,
      "hydro": 6077,
      "trip": 6078,
      "deaths": 6079,
      "Liu": 6080,
      "criticism": 6081,
      "losses": 6082,
      "MacLe": 6083,
      "Commander": 6084,
      "independence": 6085,
      "slowly": 6086,
      "Khánh": 6087,
      "mushroom": 6088,
      "800": 6089,
      "Avenue": 6090,
      "Hun": 6091,
      "Jurch": 6092,
      "Ken": 6093,
      "Les": 6094,
      "Row": 6095,
      "Rome": 6096,
      "nes": 6097,
      "nell": 6098,
      "rates": 6099,
      "von": 6100,
      "atus": 6101,
      "icial": 6102,
      "pty": 6103,
      "izations": 6104,
      "Arm": 6105,
      "goes": 6106,
      "leaders": 6107,
      "didn": 6108,
      "Columb": 6109,
      "personnel": 6110,
      "sentence": 6111,
      "Project": 6112,
      "Songs": 6113,
      "araj": 6114,
      "layer": 6115,
      "Belg": 6116,
      "Jamal": 6117,
      "purchased": 6118,
      "59": 6119,
      "85": 6120,
      "Bru": 6121,
      "Broad": 6122,
      "Dublin": 6123,
      "Gab": 6124,
      "Iguan": 6125,
      "Ray": 6126,
      "Sa": 6127,
      "Xe": 6128,
      "categ": 6129,
      "dance": 6130,
      "fresh": 6131,
      "sist": 6132,
      "til": 6133,
      "table": 6134,
      "yson": 6135,
      "editor": 6136,
      "stret": 6137,
      "esc": 6138,
      "accompl": 6139,
      "ads": 6140,
      "aded": 6141,
      "begun": 6142,
      "concrete": 6143,
      "ctors": 6144,
      "usal": 6145,
      "outs": 6146,
      "acted": 6147,
      "nothing": 6148,
      "cool": 6149,
      "symp": 6150,
      "Leon": 6151,
      "1946": 6152,
      "ashion": 6153,
      "worldwide": 6154,
      "drawn": 6155,
      "importance": 6156,
      "declined": 6157,
      "purpose": 6158,
      "technology": 6159,
      "Science": 6160,
      "reasons": 6161,
      "Brian": 6162,
      "briefly": 6163,
      "Tennyson": 6164,
      "Temple": 6165,
      "Throughout": 6166,
      "District": 6167,
      "protagon": 6168,
      "Governor": 6169,
      "Hal": 6170,
      "Jud": 6171,
      "MTV": 6172,
      "cance": 6173,
      "fal": 6174,
      "hired": 6175,
      "iers": 6176,
      "nie": 6177,
      "wart": 6178,
      "inspir": 6179,
      "anth": 6180,
      "remix": 6181,
      "roof": 6182,
      "adap": 6183,
      "amber": 6184,
      "conve": 6185,
      "agent": 6186,
      "plum": 6187,
      "modi": 6188,
      "Chart": 6189,
      "desc": 6190,
      "Also": 6191,
      "Arts": 6192,
      "adding": 6193,
      "distingu": 6194,
      "trait": 6195,
      "Liber": 6196,
      "skin": 6197,
      "Team": 6198,
      "frame": 6199,
      "glass": 6200,
      "Simone": 6201,
      "launch": 6202,
      "committee": 6203,
      "escape": 6204,
      "negoti": 6205,
      "Bart": 6206,
      "Bern": 6207,
      "Mel": 6208,
      "Master": 6209,
      "fare": 6210,
      "gro": 6211,
      "ju": 6212,
      "lings": 6213,
      "oz": 6214,
      "tin": 6215,
      "wid": 6216,
      "ingly": 6217,
      "seas": 6218,
      "oldest": 6219,
      "rif": 6220,
      "1919": 6221,
      "plain": 6222,
      "truth": 6223,
      "Chains": 6224,
      "viewed": 6225,
      "16th": 6226,
      "foundation": 6227,
      "arrival": 6228,
      "longest": 6229,
      "decade": 6230,
      "1966": 6231,
      "Maria": 6232,
      "1952": 6233,
      "1936": 6234,
      "clubs": 6235,
      "tells": 6236,
      "senior": 6237,
      "violence": 6238,
      "billion": 6239,
      "commission": 6240,
      "chapter": 6241,
      "participated": 6242,
      "championship": 6243,
      "Brook": 6244,
      "regarding": 6245,
      "enjoyed": 6246,
      "crowd": 6247,
      "Area": 6248,
      "Family": 6249,
      "paintings": 6250,
      "witness": 6251,
      "Development": 6252,
      "accompanied": 6253,
      "MacLeod": 6254,
      "110": 6255,
      "52": 6256,
      "Bos": 6257,
      "Dream": 6258,
      "EC": 6259,
      "Five": 6260,
      "Ulys": 6261,
      "Wy": 6262,
      "Wall": 6263,
      "dating": 6264,
      "fix": 6265,
      "nic": 6266,
      "pha": 6267,
      "san": 6268,
      "tack": 6269,
      "wise": 6270,
      "wides": 6271,
      "ía": 6272,
      "ān": 6273,
      "thor": 6274,
      "reput": 6275,
      "ici": 6276,
      "astron": 6277,
      "fee": 6278,
      "aug": 6279,
      "spons": 6280,
      "pread": 6281,
      "roughly": 6282,
      "substant": 6283,
      "populations": 6284,
      "Rox": 6285,
      "developing": 6286,
      "passeng": 6287,
      "grapher": 6288,
      "lasted": 6289,
      "Admir": 6290,
      "Board": 6291,
      "fellow": 6292,
      "holding": 6293,
      "existence": 6294,
      "AAF": 6295,
      "credited": 6296,
      "Production": 6297,
      "Summer": 6298,
      "Ulysses": 6299,
      "BS": 6300,
      "Gar": 6301,
      "Jay": 6302,
      "Kr": 6303,
      "NS": 6304,
      "Ode": 6305,
      "Test": 6306,
      "bie": 6307,
      "ech": 6308,
      "ito": 6309,
      "knot": 6310,
      "mine": 6311,
      "py": 6312,
      "intr": 6313,
      "inity": 6314,
      "thetic": 6315,
      "stal": 6316,
      "advis": 6317,
      "decre": 6318,
      "irt": 6319,
      "univers": 6320,
      "comic": 6321,
      "Instead": 6322,
      "aked": 6323,
      "ava": 6324,
      "spell": 6325,
      "Albert": 6326,
      "anned": 6327,
      "fles": 6328,
      "Commit": 6329,
      "consists": 6330,
      "calls": 6331,
      "choice": 6332,
      "transit": 6333,
      "1973": 6334,
      "dominated": 6335,
      "priest": 6336,
      "combination": 6337,
      "existing": 6338,
      "accident": 6339,
      "learned": 6340,
      "archaeological": 6341,
      "performing": 6342,
      "applied": 6343,
      "poetry": 6344,
      "Radio": 6345,
      "symbol": 6346,
      "athletes": 6347,
      "remn": 6348,
      "Anthony": 6349,
      "Turkish": 6350,
      "Iguanodon": 6351,
      "Bond": 6352,
      "Bishop": 6353,
      "Carib": 6354,
      "Gre": 6355,
      "IG": 6356,
      "Lin": 6357,
      "OT": 6358,
      "Sap": 6359,
      "basket": 6360,
      "cab": 6361,
      "hope": 6362,
      "iqu": 6363,
      "ji": 6364,
      "vens": 6365,
      "repl": 6366,
      "seat": 6367,
      "bean": 6368,
      "Theatre": 6369,
      "iring": 6370,
      "assass": 6371,
      "oking": 6372,
      "Anonymous": 6373,
      "finish": 6374,
      "pregn": 6375,
      "visible": 6376,
      "filming": 6377,
      "submar": 6378,
      "1967": 6379,
      "Marl": 6380,
      "aurus": 6381,
      "college": 6382,
      "closely": 6383,
      "competitions": 6384,
      "Braz": 6385,
      "association": 6386,
      "habitat": 6387,
      "weakened": 6388,
      "Hornung": 6389,
      "62": 6390,
      "77": 6391,
      "Aston": 6392,
      "AML": 6393,
      "Gra": 6394,
      "Hor": 6395,
      "bin": 6396,
      "bone": 6397,
      "uct": 6398,
      "uff": 6399,
      "wr": 6400,
      "agle": 6401,
      "oty": 6402,
      "1914": 6403,
      "mod": 6404,
      "iston": 6405,
      "neither": 6406,
      "exer": 6407,
      "perhaps": 6408,
      "derived": 6409,
      "evo": 6410,
      "forming": 6411,
      "ogy": 6412,
      "appeal": 6413,
      "protection": 6414,
      "battalions": 6415,
      "Life": 6416,
      "provides": 6417,
      "greatly": 6418,
      "Mountain": 6419,
      "invited": 6420,
      "electric": 6421,
      "motion": 6422,
      "painting": 6423,
      "reinforce": 6424,
      "administration": 6425,
      "1930s": 6426,
      "pilot": 6427,
      "details": 6428,
      "opportunity": 6429,
      "ceremony": 6430,
      "occasionally": 6431,
      "81": 6432,
      "Asia": 6433,
      "Bell": 6434,
      "Es": 6435,
      "ERA": 6436,
      "Hon": 6437,
      "Hard": 6438,
      "Kil": 6439,
      "Oh": 6440,
      "Run": 6441,
      "bought": 6442,
      "cit": 6443,
      "gus": 6444,
      "sight": 6445,
      "tz": 6446,
      "tend": 6447,
      "anes": 6448,
      "aton": 6449,
      "eness": 6450,
      "encounter": 6451,
      "stic": 6452,
      "acid": 6453,
      "ette": 6454,
      "abo": 6455,
      "trave": 6456,
      "mann": 6457,
      "bling": 6458,
      "speaking": 6459,
      "athers": 6460,
      "eleven": 6461,
      "supposed": 6462,
      "locations": 6463,
      "steam": 6464,
      "receiving": 6465,
      "district": 6466,
      "protected": 6467,
      "towns": 6468,
      "storyline": 6469,
      "churches": 6470,
      "glas": 6471,
      "expans": 6472,
      "typical": 6473,
      "technique": 6474,
      "massive": 6475,
      "focused": 6476,
      "Archae": 6477,
      "Douglas": 6478,
      "vehicles": 6479,
      "dissipated": 6480,
      "Caribbean": 6481,
      "Dom": 6482,
      "Dota": 6483,
      "Low": 6484,
      "Top": 6485,
      "VN": 6486,
      "Vol": 6487,
      "Ye": 6488,
      "fuel": 6489,
      "kins": 6490,
      "page": 6491,
      "ua": 6492,
      "revi": 6493,
      "islands": 6494,
      "itors": 6495,
      "rol": 6496,
      "accur": 6497,
      "entially": 6498,
      "channel": 6499,
      "urs": 6500,
      "uration": 6501,
      "demo": 6502,
      "shop": 6503,
      "twel": 6504,
      "dub": 6505,
      "intend": 6506,
      "anything": 6507,
      "ountain": 6508,
      "What": 6509,
      "capac": 6510,
      "appearing": 6511,
      "1945": 6512,
      "1971": 6513,
      "receive": 6514,
      "drama": 6515,
      "funding": 6516,
      "missing": 6517,
      "Perry": 6518,
      "glades": 6519,
      "Maeda": 6520,
      "looked": 6521,
      "About": 6522,
      "survived": 6523,
      "stopped": 6524,
      "Cardinal": 6525,
      "biography": 6526,
      "Georgian": 6527,
      "chorus": 6528,
      "Freder": 6529,
      "Constantine": 6530,
      "Hibari": 6531,
      "Lieutenant": 6532,
      "widespread": 6533,
      "250": 6534,
      "79": 6535,
      "89": 6536,
      "Age": 6537,
      "CC": 6538,
      "Cha": 6539,
      "Hindu": 6540,
      "Jun": 6541,
      "Kat": 6542,
      "Mun": 6543,
      "Qedar": 6544,
      "Ré": 6545,
      "Rio": 6546,
      "card": 6547,
      "safety": 6548,
      "wel": 6549,
      "atures": 6550,
      "stances": 6551,
      "aced": 6552,
      "ilton": 6553,
      "ading": 6554,
      "beth": 6555,
      "why": 6556,
      "converted": 6557,
      "shared": 6558,
      "ighter": 6559,
      "compon": 6560,
      "evacu": 6561,
      "brary": 6562,
      "ampions": 6563,
      "rows": 6564,
      "trying": 6565,
      "Gram": 6566,
      "solid": 6567,
      "authors": 6568,
      "Romani": 6569,
      "Simon": 6570,
      "settlers": 6571,
      "ruli": 6572,
      "session": 6573,
      "cruiser": 6574,
      "doub": 6575,
      "flights": 6576,
      "Golden": 6577,
      "acquired": 6578,
      "Brien": 6579,
      "convoy": 6580,
      "powers": 6581,
      "digital": 6582,
      "secure": 6583,
      "repeated": 6584,
      "Fantasy": 6585,
      "Chelsea": 6586,
      "71": 6587,
      "AD": 6588,
      "DNA": 6589,
      "Gang": 6590,
      "Jones": 6591,
      "LI": 6592,
      "Mod": 6593,
      "Pers": 6594,
      "Sound": 6595,
      "ias": 6596,
      "ko": 6597,
      "ography": 6598,
      "yl": 6599,
      "infr": 6600,
      "ero": 6601,
      "arranged": 6602,
      "ented": 6603,
      "ador": 6604,
      "ola": 6605,
      "1916": 6606,
      "1913": 6607,
      "iful": 6608,
      "Stadium": 6609,
      "pton": 6610,
      "spacing": 6611,
      "issance": 6612,
      "unting": 6613,
      "1980": 6614,
      "1982": 6615,
      "succeeded": 6616,
      "1976": 6617,
      "depicted": 6618,
      "label": 6619,
      "willing": 6620,
      "controll": 6621,
      "1956": 6622,
      "Moz": 6623,
      "graded": 6624,
      "baseball": 6625,
      "Holy": 6626,
      "planning": 6627,
      "watched": 6628,
      "happy": 6629,
      "experiment": 6630,
      "Oslo": 6631,
      "Venus": 6632,
      "routes": 6633,
      "opinion": 6634,
      "instrument": 6635,
      "Haiti": 6636,
      "revolution": 6637,
      "permanent": 6638,
      "Shortly": 6639,
      "atmosphere": 6640,
      "wedding": 6641,
      "Brazil": 6642,
      "Ash": 6643,
      "DA": 6644,
      "Ele": 6645,
      "Fel": 6646,
      "Mul": 6647,
      "Tel": 6648,
      "dry": 6649,
      "knew": 6650,
      "march": 6651,
      "wins": 6652,
      "eratops": 6653,
      "sta": 6654,
      "bels": 6655,
      "iday": 6656,
      "apers": 6657,
      "uma": 6658,
      "ardo": 6659,
      "creator": 6660,
      "brand": 6661,
      "charter": 6662,
      "10th": 6663,
      "ression": 6664,
      "1943": 6665,
      "controvers": 6666,
      "reality": 6667,
      "penalty": 6668,
      "providing": 6669,
      "decline": 6670,
      "Similar": 6671,
      "Somal": 6672,
      "defined": 6673,
      "earthquake": 6674,
      "Secretary": 6675,
      "Allied": 6676,
      "69": 6677,
      "72": 6678,
      "Dur": 6679,
      "Homer": 6680,
      "NBC": 6681,
      "Patt": 6682,
      "Snow": 6683,
      "cos": 6684,
      "fold": 6685,
      "franch": 6686,
      "jump": 6687,
      "psy": 6688,
      "tied": 6689,
      "vac": 6690,
      "ani": 6691,
      "store": 6692,
      "assem": 6693,
      "entry": 6694,
      "idd": 6695,
      "elli": 6696,
      "abour": 6697,
      "exact": 6698,
      "quite": 6699,
      "Chronic": 6700,
      "attached": 6701,
      "renamed": 6702,
      "airport": 6703,
      "download": 6704,
      "ceratops": 6705,
      "leads": 6706,
      "1963": 6707,
      "protect": 6708,
      "getting": 6709,
      "breaking": 6710,
      "Stevens": 6711,
      "turning": 6712,
      "explos": 6713,
      "magn": 6714,
      "changing": 6715,
      "introduction": 6716,
      "technical": 6717,
      "prede": 6718,
      "patron": 6719,
      "separated": 6720,
      "Morrison": 6721,
      "satis": 6722,
      "establishment": 6723,
      "indicate": 6724,
      "Gully": 6725,
      "Everglades": 6726,
      "distinct": 6727,
      "thousands": 6728,
      "delivered": 6729,
      "supplies": 6730,
      "Additionally": 6731,
      "IGN": 6732,
      "Rangers": 6733,
      "UTC": 6734,
      "Wind": 6735,
      "dict": 6736,
      "ez": 6737,
      "gé": 6738,
      "rural": 6739,
      "inte": 6740,
      "institut": 6741,
      "ona": 6742,
      "isers": 6743,
      "constant": 6744,
      "oting": 6745,
      "opposition": 6746,
      "sud": 6747,
      "emperor": 6748,
      "express": 6749,
      "affect": 6750,
      "Stud": 6751,
      "attle": 6752,
      "recru": 6753,
      "awn": 6754,
      "phone": 6755,
      "regime": 6756,
      "issip": 6757,
      "remainder": 6758,
      "Australians": 6759,
      "11th": 6760,
      "camps": 6761,
      "commanded": 6762,
      "correspond": 6763,
      "Mississip": 6764,
      "Walter": 6765,
      "ruled": 6766,
      "Sunday": 6767,
      "consisting": 6768,
      "eyes": 6769,
      "certified": 6770,
      "assistance": 6771,
      "surviv": 6772,
      "Hollywood": 6773,
      "Office": 6774,
      "teaching": 6775,
      "Bradford": 6776,
      "Truj": 6777,
      "Alexander": 6778,
      "rhyth": 6779,
      "Friends": 6780,
      "achieve": 6781,
      "Columbia": 6782,
      "Committee": 6783,
      "Kel": 6784,
      "Native": 6785,
      "Pul": 6786,
      "Ridge": 6787,
      "Tal": 6788,
      "aud": 6789,
      "baby": 6790,
      "gall": 6791,
      "jac": 6792,
      "races": 6793,
      "tall": 6794,
      "ét": 6795,
      "enge": 6796,
      "leaves": 6797,
      "entering": 6798,
      "pled": 6799,
      "ameter": 6800,
      "mention": 6801,
      "earch": 6802,
      "ivity": 6803,
      "formal": 6804,
      "kee": 6805,
      "oked": 6806,
      "noisy": 6807,
      "Alan": 6808,
      "producing": 6809,
      "surrender": 6810,
      "1978": 6811,
      "Marine": 6812,
      "valley": 6813,
      "sequences": 6814,
      "1953": 6815,
      "joint": 6816,
      "turns": 6817,
      "references": 6818,
      "occurs": 6819,
      "Montana": 6820,
      "studied": 6821,
      "regularly": 6822,
      "Maryland": 6823,
      "economy": 6824,
      "Croatian": 6825,
      "Critical": 6826,
      "Director": 6827,
      "Trujillo": 6828,
      "112": 6829,
      "Ko": 6830,
      "Lenn": 6831,
      "cry": 6832,
      "drug": 6833,
      "fashion": 6834,
      "hat": 6835,
      "mere": 6836,
      "pse": 6837,
      "puzz": 6838,
      "tip": 6839,
      "tie": 6840,
      "ano": 6841,
      "replace": 6842,
      "icon": 6843,
      "lease": 6844,
      "deck": 6845,
      "irs": 6846,
      "immig": 6847,
      "versi": 6848,
      "ceived": 6849,
      "agen": 6850,
      "agues": 6851,
      "ester": 6852,
      "itsune": 6853,
      "evil": 6854,
      "Anton": 6855,
      "finishing": 6856,
      "prey": 6857,
      "interior": 6858,
      "shel": 6859,
      "forests": 6860,
      "monarch": 6861,
      "survey": 6862,
      "distribution": 6863,
      "successor": 6864,
      "denied": 6865,
      "Charlie": 6866,
      "interested": 6867,
      "circum": 6868,
      "scholars": 6869,
      "methods": 6870,
      "shooting": 6871,
      "portrayed": 6872,
      "safe": 6873,
      "Engineer": 6874,
      "intelligence": 6875,
      "adapted": 6876,
      "reputation": 6877,
      "Roxas": 6878,
      "Mississippi": 6879,
      "58": 6880,
      "CO": 6881,
      "Edu": 6882,
      "Less": 6883,
      "Pur": 6884,
      "Sor": 6885,
      "Vis": 6886,
      "bay": 6887,
      "gone": 6888,
      "hun": 6889,
      "pa": 6890,
      "zone": 6891,
      "ala": 6892,
      "arg": 6893,
      "acre": 6894,
      "convict": 6895,
      "agents": 6896,
      "1915": 6897,
      "ophy": 6898,
      "aka": 6899,
      "worst": 6900,
      "attributed": 6901,
      "offense": 6902,
      "dismissed": 6903,
      "brid": 6904,
      "gameplay": 6905,
      "charges": 6906,
      "ifications": 6907,
      "suppor": 6908,
      "statement": 6909,
      "Plunk": 6910,
      "characteristics": 6911,
      "crime": 6912,
      "Stefan": 6913,
      "strip": 6914,
      "window": 6915,
      "Within": 6916,
      "politics": 6917,
      "seeing": 6918,
      "motor": 6919,
      "recognition": 6920,
      "Activision": 6921,
      "calcul": 6922,
      "chapel": 6923,
      "Hugh": 6924,
      "Samuel": 6925,
      "Howard": 6926,
      "pattern": 6927,
      "battleship": 6928,
      "Daily": 6929,
      "Jos": 6930,
      "Mit": 6931,
      "NO": 6932,
      "Por": 6933,
      "crown": 6934,
      "dock": 6935,
      "pound": 6936,
      "sle": 6937,
      "squadron": 6938,
      "vary": 6939,
      "anz": 6940,
      "remo": 6941,
      "tos": 6942,
      "ione": 6943,
      "terior": 6944,
      "agree": 6945,
      "resour": 6946,
      "noting": 6947,
      "sie": 6948,
      "monument": 6949,
      "minister": 6950,
      "retire": 6951,
      "soil": 6952,
      "ologists": 6953,
      "Marsh": 6954,
      "tribes": 6955,
      "appropri": 6956,
      "classes": 6957,
      "Stephen": 6958,
      "basin": 6959,
      "Nether": 6960,
      "novels": 6961,
      "charts": 6962,
      "alternative": 6963,
      "bella": 6964,
      "discussed": 6965,
      "Calvert": 6966,
      "dollars": 6967,
      "Isabella": 6968,
      "custom": 6969,
      "knots": 6970,
      "capacity": 6971,
      "Cru": 6972,
      "Danny": 6973,
      "Net": 6974,
      "Pope": 6975,
      "Sav": 6976,
      "Saraj": 6977,
      "Yan": 6978,
      "Yank": 6979,
      "cinem": 6980,
      "nick": 6981,
      "lets": 6982,
      "sector": 6983,
      "aggress": 6984,
      "rie": 6985,
      "1917": 6986,
      "plants": 6987,
      "isted": 6988,
      "lik": 6989,
      "emotional": 6990,
      "exception": 6991,
      "fear": 6992,
      "owner": 6993,
      "eving": 6994,
      "partial": 6995,
      "offers": 6996,
      "angerous": 6997,
      "pointed": 6998,
      "describing": 6999,
      "1948": 7000,
      "warm": 7001,
      "cycle": 7002,
      "legs": 7003,
      "generation": 7004,
      "younger": 7005,
      "medieval": 7006,
      "coastal": 7007,
      "rules": 7008,
      "Strand": 7009,
      "accounts": 7010,
      "Jersey": 7011,
      "journey": 7012,
      "divine": 7013,
      "bringing": 7014,
      "Industry": 7015,
      "Weekly": 7016,
      "Lisa": 7017,
      "industrial": 7018,
      "predecess": 7019,
      "Sarajevo": 7020,
      "57": 7021,
      "Here": 7022,
      "Kn": 7023,
      "Ra": 7024,
      "Sk": 7025,
      "bond": 7026,
      "cation": 7027,
      "caught": 7028,
      "fi": 7029,
      "gor": 7030,
      "ninth": 7031,
      "sters": 7032,
      "leuk": 7033,
      "chi": 7034,
      "ateur": 7035,
      "expect": 7036,
      "ockey": 7037,
      "manner": 7038,
      "fection": 7039,
      "firing": 7040,
      "offman": 7041,
      "desire": 7042,
      "Austri": 7043,
      "sons": 7044,
      "Recording": 7045,
      "someone": 7046,
      "releg": 7047,
      "perior": 7048,
      "erald": 7049,
      "1979": 7050,
      "1951": 7051,
      "facing": 7052,
      "everything": 7053,
      "basic": 7054,
      "rooms": 7055,
      "difficulty": 7056,
      "colonial": 7057,
      "rarely": 7058,
      "considerable": 7059,
      "discovery": 7060,
      "Victoria": 7061,
      "mobile": 7062,
      "Destiny": 7063,
      "article": 7064,
      "Eliza": 7065,
      "restaurant": 7066,
      "Frederick": 7067,
      "Yankovic": 7068,
      "88": 7069,
      "Cel": 7070,
      "Det": 7071,
      "Fair": 7072,
      "IS": 7073,
      "Jif": 7074,
      "PC": 7075,
      "Press": 7076,
      "Sand": 7077,
      "Squ": 7078,
      "dal": 7079,
      "eff": 7080,
      "ja": 7081,
      "taught": 7082,
      "wich": 7083,
      "replacement": 7084,
      "anda": 7085,
      "itage": 7086,
      "itled": 7087,
      "amin": 7088,
      "deed": 7089,
      "veget": 7090,
      "igades": 7091,
      "aga": 7092,
      "teacher": 7093,
      "ables": 7094,
      "pete": 7095,
      "Init": 7096,
      "liked": 7097,
      "embark": 7098,
      "landed": 7099,
      "sized": 7100,
      "sche": 7101,
      "ultane": 7102,
      "Around": 7103,
      "Review": 7104,
      "norm": 7105,
      "Joe": 7106,
      "hys": 7107,
      "1961": 7108,
      "volunte": 7109,
      "carbon": 7110,
      "evening": 7111,
      "1954": 7112,
      "Order": 7113,
      "Organ": 7114,
      "wooden": 7115,
      "involvement": 7116,
      "relationships": 7117,
      "munic": 7118,
      "Somali": 7119,
      "hotel": 7120,
      "nomination": 7121,
      "painted": 7122,
      "specifically": 7123,
      "Research": 7124,
      "Transport": 7125,
      "Castle": 7126,
      "Television": 7127,
      "thirty": 7128,
      "opponents": 7129,
      "Clarkson": 7130,
      "Rolling": 7131,
      "Mozamb": 7132,
      "sudden": 7133,
      "Cad": 7134,
      "Fame": 7135,
      "Spring": 7136,
      "Sports": 7137,
      "Santa": 7138,
      "jum": 7139,
      "jazz": 7140,
      "mart": 7141,
      "squad": 7142,
      "wine": 7143,
      "ingale": 7144,
      "cler": 7145,
      "asters": 7146,
      "assess": 7147,
      "ureau": 7148,
      "intersection": 7149,
      "Lee": 7150,
      "cript": 7151,
      "13th": 7152,
      "inking": 7153,
      "fungus": 7154,
      "Wilde": 7155,
      "approved": 7156,
      "believes": 7157,
      "1937": 7158,
      "vote": 7159,
      "communities": 7160,
      "poems": 7161,
      "existed": 7162,
      "Duke": 7163,
      "Jerusal": 7164,
      "Singles": 7165,
      "moral": 7166,
      "secured": 7167,
      "emerged": 7168,
      "absor": 7169,
      "picked": 7170,
      "split": 7171,
      "Colonel": 7172,
      "ranean": 7173,
      "Adams": 7174,
      "neighbor": 7175,
      "recommended": 7176,
      "Francisco": 7177,
      "Simpsons": 7178,
      "Bono": 7179,
      "turret": 7180,
      "Modern": 7181,
      "controversy": 7182,
      "Jerusalem": 7183,
      "Cory": 7184,
      "Ga": 7185,
      "Loc": 7186,
      "Power": 7187,
      "Rif": 7188,
      "WW": 7189,
      "Wars": 7190,
      "cular": 7191,
      "mad": 7192,
      "soft": 7193,
      "uous": 7194,
      "hear": 7195,
      "illi": 7196,
      "seg": 7197,
      "tery": 7198,
      "concer": 7199,
      "agu": 7200,
      "apart": 7201,
      "plane": 7202,
      "strateg": 7203,
      "scape": 7204,
      "intention": 7205,
      "poses": 7206,
      "genre": 7207,
      "whereas": 7208,
      "Norman": 7209,
      "decis": 7210,
      "leadership": 7211,
      "signing": 7212,
      "Carter": 7213,
      "chemical": 7214,
      "Plot": 7215,
      "standards": 7216,
      "organizations": 7217,
      "1955": 7218,
      "drawing": 7219,
      "Track": 7220,
      "sufficient": 7221,
      "Hamilton": 7222,
      "connection": 7223,
      "Olympics": 7224,
      "concerns": 7225,
      "Military": 7226,
      "Human": 7227,
      "specimens": 7228,
      "extremely": 7229,
      "incorporated": 7230,
      "principal": 7231,
      "Skye": 7232,
      "Independent": 7233,
      "Argentina": 7234,
      "wrong": 7235,
      "Jifna": 7236,
      "63": 7237,
      "Bron": 7238,
      "MO": 7239,
      "Mot": 7240,
      "Nick": 7241,
      "Pass": 7242,
      "Ut": 7243,
      "Wim": 7244,
      "dess": 7245,
      "fine": 7246,
      "iet": 7247,
      "ike": 7248,
      "lu": 7249,
      "none": 7250,
      "pine": 7251,
      "rus": 7252,
      "ule": 7253,
      "winner": 7254,
      "youth": 7255,
      "incess": 7256,
      "inhabit": 7257,
      "theat": 7258,
      "aya": 7259,
      "conference": 7260,
      "resent": 7261,
      "etts": 7262,
      "1900": 7263,
      "istry": 7264,
      "shark": 7265,
      "cles": 7266,
      "divisions": 7267,
      "diameter": 7268,
      "recre": 7269,
      "parties": 7270,
      "speech": 7271,
      "airs": 7272,
      "indig": 7273,
      "indicated": 7274,
      "Beach": 7275,
      "showing": 7276,
      "covering": 7277,
      "Forces": 7278,
      "distributed": 7279,
      "tries": 7280,
      "xture": 7281,
      "placing": 7282,
      "Carl": 7283,
      "iversary": 7284,
      "sequently": 7285,
      "1958": 7286,
      "Prime": 7287,
      "alien": 7288,
      "expensive": 7289,
      "settled": 7290,
      "approached": 7291,
      "teeth": 7292,
      "threatened": 7293,
      "treaty": 7294,
      "surrounded": 7295,
      "alogue": 7296,
      "europium": 7297,
      "demol": 7298,
      "Banai": 7299,
      "Writing": 7300,
      "Ryan": 7301,
      "integr": 7302,
      "3D": 7303,
      "Ball": 7304,
      "DC": 7305,
      "Ell": 7306,
      "Iron": 7307,
      "Jere": 7308,
      "Pine": 7309,
      "Rom": 7310,
      "Wi": 7311,
      "Yo": 7312,
      "bats": 7313,
      "gate": 7314,
      "horn": 7315,
      "lav": 7316,
      "ridge": 7317,
      "tone": 7318,
      "wet": 7319,
      "wants": 7320,
      "inland": 7321,
      "edom": 7322,
      "itals": 7323,
      "admitted": 7324,
      "sects": 7325,
      "aments": 7326,
      "unusual": 7327,
      "teor": 7328,
      "disci": 7329,
      "Ant": 7330,
      "oba": 7331,
      "muscar": 7332,
      "decor": 7333,
      "1949": 7334,
      "1977": 7335,
      "historians": 7336,
      "crossed": 7337,
      "railway": 7338,
      "Depression": 7339,
      "immediate": 7340,
      "ratings": 7341,
      "favorite": 7342,
      "hoped": 7343,
      "department": 7344,
      "documentary": 7345,
      "Roger": 7346,
      "expedition": 7347,
      "isolated": 7348,
      "citiz": 7349,
      "expansion": 7350,
      "institutions": 7351,
      "Lennon": 7352,
      "93": 7353,
      "AP": 7354,
      "Bi": 7355,
      "Base": 7356,
      "CP": 7357,
      "Fern": 7358,
      "Fras": 7359,
      "Goffman": 7360,
      "Jac": 7361,
      "Person": 7362,
      "Rap": 7363,
      "cli": 7364,
      "dim": 7365,
      "ocean": 7366,
      "ívar": 7367,
      "thy": 7368,
      "orous": 7369,
      "stell": 7370,
      "heli": 7371,
      "adjac": 7372,
      "imet": 7373,
      "usad": 7374,
      "romantic": 7375,
      "overs": 7376,
      "assumed": 7377,
      "Story": 7378,
      "rank": 7379,
      "offs": 7380,
      "Unlike": 7381,
      "anniversary": 7382,
      "understand": 7383,
      "regional": 7384,
      "consum": 7385,
      "designation": 7386,
      "reading": 7387,
      "protests": 7388,
      "grounds": 7389,
      "Hergé": 7390,
      "listen": 7391,
      "classical": 7392,
      "sequel": 7393,
      "reviewer": 7394,
      "graphs": 7395,
      "strongly": 7396,
      "equival": 7397,
      "rapped": 7398,
      "destroyers": 7399,
      "Point": 7400,
      "sessions": 7401,
      "treated": 7402,
      "cruisers": 7403,
      "languages": 7404,
      "dynam": 7405,
      "engineering": 7406,
      "Territ": 7407,
      "literary": 7408,
      "Jean": 7409,
      "examples": 7410,
      "Stock": 7411,
      "watershed": 7412,
      "Janeiro": 7413,
      "Bolívar": 7414,
      "junction": 7415,
      "Rhodes": 7416,
      "message": 7417,
      "completion": 7418,
      "duties": 7419,
      "eighth": 7420,
      "protagonist": 7421,
      "Saprang": 7422,
      "Kilmer": 7423,
      "franchise": 7424,
      "AT": 7425,
      "Cop": 7426,
      "DH": 7427,
      "Fire": 7428,
      "Mand": 7429,
      "Sb": 7430,
      "Ton": 7431,
      "Tower": 7432,
      "Wolf": 7433,
      "bigg": 7434,
      "cens": 7435,
      "governor": 7436,
      "hot": 7437,
      "kān": 7438,
      "lake": 7439,
      "mud": 7440,
      "sam": 7441,
      "tle": 7442,
      "yo": 7443,
      "zo": 7444,
      "zen": 7445,
      "erog": 7446,
      "theatre": 7447,
      "orche": 7448,
      "stab": 7449,
      "stadium": 7450,
      "illy": 7451,
      "select": 7452,
      "amond": 7453,
      "detailed": 7454,
      "owed": 7455,
      "convers": 7456,
      "apy": 7457,
      "1910": 7458,
      "plate": 7459,
      "absol": 7460,
      "shots": 7461,
      "antly": 7462,
      "Chief": 7463,
      "strate": 7464,
      "loan": 7465,
      "Hearts": 7466,
      "meets": 7467,
      "angle": 7468,
      "fled": 7469,
      "flat": 7470,
      "airline": 7471,
      "cki": 7472,
      "1983": 7473,
      "tribut": 7474,
      "Gerard": 7475,
      "Color": 7476,
      "controversi": 7477,
      "defended": 7478,
      "Guy": 7479,
      "Prov": 7480,
      "naissance": 7481,
      "BCE": 7482,
      "employe": 7483,
      "Lawton": 7484,
      "bledon": 7485,
      "Lords": 7486,
      "attracted": 7487,
      "Georgia": 7488,
      "scientific": 7489,
      "wearing": 7490,
      "specimen": 7491,
      "Burns": 7492,
      "Journal": 7493,
      "academic": 7494,
      "rescue": 7495,
      "eggs": 7496,
      "easily": 7497,
      "Square": 7498,
      "Wimbledon": 7499,
      "91": 7500,
      "Bed": 7501,
      "Rem": 7502,
      "Sher": 7503,
      "faster": 7504,
      "hen": 7505,
      "tick": 7506,
      "vive": 7507,
      "iling": 7508,
      "chronic": 7509,
      "implement": 7510,
      "igation": 7511,
      "agas": 7512,
      "otic": 7513,
      "apped": 7514,
      "opher": 7515,
      "abol": 7516,
      "shif": 7517,
      "lift": 7518,
      "acknow": 7519,
      "haust": 7520,
      "spaces": 7521,
      "posit": 7522,
      "Third": 7523,
      "interchange": 7524,
      "elev": 7525,
      "ropol": 7526,
      "medium": 7527,
      "Attor": 7528,
      "operate": 7529,
      "valu": 7530,
      "crash": 7531,
      "starling": 7532,
      "grey": 7533,
      "armor": 7534,
      "attempting": 7535,
      "effectively": 7536,
      "correct": 7537,
      "equal": 7538,
      "terminus": 7539,
      "assistant": 7540,
      "surviving": 7541,
      "practices": 7542,
      "traveled": 7543,
      "grav": 7544,
      "territories": 7545,
      "accused": 7546,
      "Cambridge": 7547,
      "civilian": 7548,
      "Richardson": 7549,
      "blocks": 7550,
      "feeling": 7551,
      "reserve": 7552,
      "challenge": 7553,
      "encouraged": 7554,
      "agricultural": 7555,
      "inspiration": 7556,
      "Admiral": 7557,
      "Somalia": 7558,
      "adjacent": 7559,
      "Ak": 7560,
      "Corn": 7561,
      "Every": 7562,
      "Elect": 7563,
      "Garc": 7564,
      "Komb": 7565,
      "Now": 7566,
      "RNA": 7567,
      "Wat": 7568,
      "cash": 7569,
      "fing": 7570,
      "foss": 7571,
      "ios": 7572,
      "nut": 7573,
      "thin": 7574,
      "ori": 7575,
      "arte": 7576,
      "isms": 7577,
      "itated": 7578,
      "accom": 7579,
      "cture": 7580,
      "apse": 7581,
      "aints": 7582,
      "abled": 7583,
      "proto": 7584,
      "emp": 7585,
      "aku": 7586,
      "astru": 7587,
      "overw": 7588,
      "ritual": 7589,
      "compounds": 7590,
      "lose": 7591,
      "formally": 7592,
      "scop": 7593,
      "intense": 7594,
      "recalled": 7595,
      "partly": 7596,
      "contribut": 7597,
      "Aniston": 7598,
      "angular": 7599,
      "knock": 7600,
      "somewhat": 7601,
      "identity": 7602,
      "storms": 7603,
      "ibility": 7604,
      "towers": 7605,
      "check": 7606,
      "videos": 7607,
      "stands": 7608,
      "attered": 7609,
      "crim": 7610,
      "courts": 7611,
      "generated": 7612,
      "brothers": 7613,
      "profit": 7614,
      "1909": 7615,
      "Key": 7616,
      "Keamy": 7617,
      "seemed": 7618,
      "responsibility": 7619,
      "printed": 7620,
      "convin": 7621,
      "possession": 7622,
      "Commonwealth": 7623,
      "recovered": 7624,
      "Formula": 7625,
      "candidate": 7626,
      "obtained": 7627,
      "Mortal": 7628,
      "arrangement": 7629,
      "opposite": 7630,
      "Jesus": 7631,
      "Attorney": 7632,
      "Kombat": 7633,
      "67": 7634,
      "Bass": 7635,
      "Da": 7636,
      "Flight": 7637,
      "Gun": 7638,
      "Hospital": 7639,
      "Joy": 7640,
      "OC": 7641,
      "Owen": 7642,
      "SS": 7643,
      "hits": 7644,
      "mac": 7645,
      "mature": 7646,
      "pus": 7647,
      "vin": 7648,
      "thosaurus": 7649,
      "orer": 7650,
      "heim": 7651,
      "chrom": 7652,
      "forcing": 7653,
      "igins": 7654,
      "1912": 7655,
      "proceed": 7656,
      "trust": 7657,
      "estate": 7658,
      "exhaust": 7659,
      "aks": 7660,
      "diag": 7661,
      "serial": 7662,
      "elled": 7663,
      "answ": 7664,
      "annah": 7665,
      "mont": 7666,
      "consult": 7667,
      "Shakes": 7668,
      "Johnston": 7669,
      "Marines": 7670,
      "legend": 7671,
      "Islands": 7672,
      "Islam": 7673,
      "passage": 7674,
      "risis": 7675,
      "solution": 7676,
      "funds": 7677,
      "Germans": 7678,
      "1931": 7679,
      "1935": 7680,
      "limit": 7681,
      "Barbar": 7682,
      "footage": 7683,
      "Poland": 7684,
      "Design": 7685,
      "Descri": 7686,
      "netic": 7687,
      "suffering": 7688,
      "hosted": 7689,
      "reduce": 7690,
      "perspect": 7691,
      "stayed": 7692,
      "learning": 7693,
      "Arabic": 7694,
      "concerned": 7695,
      "linked": 7696,
      "Type": 7697,
      "preserved": 7698,
      "sculpture": 7699,
      "astronom": 7700,
      "basketball": 7701,
      "twelve": 7702,
      "Plunketts": 7703,
      "normally": 7704,
      "Corythosaurus": 7705,
      "Fraser": 7706,
      "controversial": 7707,
      "Shakespe": 7708,
      "Ba": 7709,
      "Bark": 7710,
      "Late": 7711,
      "Lev": 7712,
      "Link": 7713,
      "Nintend": 7714,
      "Raj": 7715,
      "Stop": 7716,
      "Tig": 7717,
      "Your": 7718,
      "cot": 7719,
      "cold": 7720,
      "hl": 7721,
      "lists": 7722,
      "math": 7723,
      "wan": 7724,
      "ths": 7725,
      "inct": 7726,
      "income": 7727,
      "inaug": 7728,
      "rell": 7729,
      "atop": 7730,
      "orb": 7731,
      "sees": 7732,
      "bearing": 7733,
      "destruction": 7734,
      "context": 7735,
      "1911": 7736,
      "moon": 7737,
      "prohib": 7738,
      "oured": 7739,
      "raise": 7740,
      "ensis": 7741,
      "interpret": 7742,
      "ificial": 7743,
      "numbered": 7744,
      "steel": 7745,
      "attacking": 7746,
      "continuing": 7747,
      "1932": 7748,
      "reviewers": 7749,
      "Prof": 7750,
      "Space": 7751,
      "representing": 7752,
      "composer": 7753,
      "Palmy": 7754,
      "Hotel": 7755,
      "Donald": 7756,
      "circulation": 7757,
      "FIA": 7758,
      "Special": 7759,
      "throwing": 7760,
      "equipped": 7761,
      "debate": 7762,
      "province": 7763,
      "Peninsula": 7764,
      "adults": 7765,
      "parallel": 7766,
      "escort": 7767,
      "fixed": 7768,
      "Marlborough": 7769,
      "siege": 7770,
      "erogative": 7771,
      "Shakespeare": 7772,
      "Nintendo": 7773,
      "82": 7774,
      "99": 7775,
      "Dark": 7776,
      "Fa": 7777,
      "Kit": 7778,
      "Pict": 7779,
      "Sem": 7780,
      "Sweet": 7781,
      "Tha": 7782,
      "Ur": 7783,
      "crossing": 7784,
      "kitsune": 7785,
      "map": 7786,
      "nos": 7787,
      "sid": 7788,
      "spr": 7789,
      "sung": 7790,
      "voted": 7791,
      "inet": 7792,
      "remin": 7793,
      "rebels": 7794,
      "amino": 7795,
      "olay": 7796,
      "owie": 7797,
      "ithic": 7798,
      "idae": 7799,
      "uscript": 7800,
      "elim": 7801,
      "elabor": 7802,
      "1921": 7803,
      "1929": 7804,
      "plom": 7805,
      "abilities": 7806,
      "atech": 7807,
      "clock": 7808,
      "essential": 7809,
      "Channel": 7810,
      "posure": 7811,
      "lowest": 7812,
      "Anti": 7813,
      "bright": 7814,
      "phr": 7815,
      "understanding": 7816,
      "genetic": 7817,
      "charged": 7818,
      "product": 7819,
      "helic": 7820,
      "helmet": 7821,
      "Construction": 7822,
      "140": 7823,
      "Fei": 7824,
      "promote": 7825,
      "aska": 7826,
      "Allah": 7827,
      "falling": 7828,
      "Geoff": 7829,
      "Techn": 7830,
      "graphics": 7831,
      "laws": 7832,
      "borne": 7833,
      "driving": 7834,
      "Palace": 7835,
      "meetings": 7836,
      "belt": 7837,
      "Player": 7838,
      "Media": 7839,
      "measures": 7840,
      "holiday": 7841,
      "intensified": 7842,
      "Lawrence": 7843,
      "occasions": 7844,
      "Patrick": 7845,
      "observations": 7846,
      "initiative": 7847,
      "Pitman": 7848,
      "pushed": 7849,
      "Stanley": 7850,
      "victims": 7851,
      "passengers": 7852,
      "remnants": 7853,
      "Netherlands": 7854,
      "Elizabeth": 7855,
      "Labor": 7856,
      "Our": 7857,
      "Rain": 7858,
      "Sar": 7859,
      "Wic": 7860,
      "gard": 7861,
      "gie": 7862,
      "tight": 7863,
      "zi": 7864,
      "toll": 7865,
      "acle": 7866,
      "unsuccessful": 7867,
      "cement": 7868,
      "ctic": 7869,
      "comed": 7870,
      "comments": 7871,
      "utz": 7872,
      "util": 7873,
      "superior": 7874,
      "Ing": 7875,
      "shar": 7876,
      "cloth": 7877,
      "aws": 7878,
      "spur": 7879,
      "anyon": 7880,
      "flash": 7881,
      "retained": 7882,
      "Real": 7883,
      "operating": 7884,
      "1962": 7885,
      "covers": 7886,
      "musicians": 7887,
      "returns": 7888,
      "defences": 7889,
      "Mega": 7890,
      "1959": 7891,
      "quez": 7892,
      "1938": 7893,
      "voiced": 7894,
      "burgh": 7895,
      "involving": 7896,
      "goddess": 7897,
      "Atlanta": 7898,
      "appointment": 7899,
      "villages": 7900,
      "difficulties": 7901,
      "graf": 7902,
      "Queens": 7903,
      "Emperor": 7904,
      "objects": 7905,
      "pitcher": 7906,
      "purchase": 7907,
      "praise": 7908,
      "carrying": 7909,
      "Korean": 7910,
      "vessels": 7911,
      "global": 7912,
      "Guardian": 7913,
      "Cambodia": 7914,
      "Stefani": 7915,
      "batsman": 7916,
      "equivalent": 7917,
      "García": 7918,
      "Bang": 7919,
      "Cult": 7920,
      "Fron": 7921,
      "Furt": 7922,
      "Hud": 7923,
      "Hob": 7924,
      "Nar": 7925,
      "Rug": 7926,
      "Treat": 7927,
      "nav": 7928,
      "pure": 7929,
      "inals": 7930,
      "online": 7931,
      "onica": 7932,
      "renew": 7933,
      "represents": 7934,
      "ensure": 7935,
      "stick": 7936,
      "accompany": 7937,
      "oms": 7938,
      "lyn": 7939,
      "terbury": 7940,
      "otal": 7941,
      "abund": 7942,
      "exchange": 7943,
      "ifies": 7944,
      "iance": 7945,
      "weigh": 7946,
      "internal": 7947,
      "Alf": 7948,
      "ictions": 7949,
      "valid": 7950,
      "Gray": 7951,
      "simultane": 7952,
      "chell": 7953,
      "considers": 7954,
      "classic": 7955,
      "Canterbury": 7956,
      "joining": 7957,
      "periods": 7958,
      "factory": 7959,
      "soul": 7960,
      "styles": 7961,
      "iterranean": 7962,
      "influences": 7963,
      "needs": 7964,
      "Phillies": 7965,
      "ullen": 7966,
      "narrative": 7967,
      "ugal": 7968,
      "Mediterranean": 7969,
      "defeating": 7970,
      "reveals": 7971,
      "Prior": 7972,
      "committed": 7973,
      "atoon": 7974,
      "Enterprise": 7975,
      "camera": 7976,
      "1920s": 7977,
      "behaviour": 7978,
      "Palestine": 7979,
      "Phoen": 7980,
      "Athletic": 7981,
      "preferred": 7982,
      "Aerith": 7983,
      "Grammy": 7984,
      "survivors": 7985,
      "resources": 7986,
      "concerts": 7987,
      "AC": 7988,
      "Bio": 7989,
      "Cur": 7990,
      "Found": 7991,
      "Ky": 7992,
      "Má": 7993,
      "Mir": 7994,
      "Son": 7995,
      "U2": 7996,
      "obl": 7997,
      "rh": 7998,
      "zes": 7999,
      "invent": 8000,
      "thews": 8001,
      "onna": 8002,
      "oral": 8003,
      "ende": 8004,
      "stance": 8005,
      "tox": 8006,
      "icate": 8007,
      "heat": 8008,
      "forth": 8009,
      "oll": 8010,
      "convent": 8011,
      "shor": 8012,
      "eman": 8013,
      "exit": 8014,
      "ishment": 8015,
      "dialogue": 8016,
      "feed": 8017,
      "grade": 8018,
      "iped": 8019,
      "Along": 8020,
      "products": 8021,
      "followers": 8022,
      "surpr": 8023,
      "15th": 8024,
      "Rober": 8025,
      "memorial": 8026,
      "refers": 8027,
      "Earl": 8028,
      "communication": 8029,
      "politic": 8030,
      "tests": 8031,
      "posted": 8032,
      "criticised": 8033,
      "telling": 8034,
      "doesn": 8035,
      "Championships": 8036,
      "closer": 8037,
      "Markgraf": 8038,
      "panel": 8039,
      "installed": 8040,
      "feelings": 8041,
      "visitors": 8042,
      "Imperial": 8043,
      "Cathedral": 8044,
      "absence": 8045,
      "hundreds": 8046,
      "lbw": 8047,
      "rugby": 8048,
      "pupils": 8049,
      "onomy": 8050,
      "legislation": 8051,
      "deployed": 8052,
      "proposal": 8053,
      "texts": 8054,
      "arrested": 8055,
      "Dominican": 8056,
      "Raffles": 8057,
      "Krak": 8058,
      "municipal": 8059,
      "Fernand": 8060,
      "Colorado": 8061,
      "Furtado": 8062,
      "Rugby": 8063,
      "92": 8064,
      "Bath": 8065,
      "Hok": 8066,
      "Nad": 8067,
      "Tro": 8068,
      "Usta": 8069,
      "cod": 8070,
      "mers": 8071,
      "rants": 8072,
      "informed": 8073,
      "analy": 8074,
      "remark": 8075,
      "reconstruction": 8076,
      "orient": 8077,
      "orbit": 8078,
      "bee": 8079,
      "deem": 8080,
      "impl": 8081,
      "rivers": 8082,
      "prove": 8083,
      "sher": 8084,
      "trained": 8085,
      "manuscript": 8086,
      "uding": 8087,
      "owners": 8088,
      "prerogative": 8089,
      "displays": 8090,
      "annually": 8091,
      "venues": 8092,
      "170": 8093,
      "extent": 8094,
      "listing": 8095,
      "bands": 8096,
      "fallen": 8097,
      "trading": 8098,
      "barr": 8099,
      "streets": 8100,
      "Valky": 8101,
      "researchers": 8102,
      "grave": 8103,
      "stationed": 8104,
      "poorly": 8105,
      "moments": 8106,
      "walk": 8107,
      "huge": 8108,
      "drums": 8109,
      "reconnaissance": 8110,
      "NHL": 8111,
      "Satur": 8112,
      "convection": 8113,
      "modified": 8114,
      "iques": 8115,
      "submarine": 8116,
      "infrastru": 8117,
      "DAG": 8118,
      "muscaria": 8119,
      "overwhel": 8120,
      "Ustaš": 8121,
      "74": 8122,
      "Cape": 8123,
      "Div": 8124,
      "Id": 8125,
      "Jenn": 8126,
      "Matt": 8127,
      "cock": 8128,
      "grown": 8129,
      "iate": 8130,
      "saves": 8131,
      "tale": 8132,
      "vati": 8133,
      "zac": 8134,
      "eras": 8135,
      "stim": 8136,
      "stall": 8137,
      "entitled": 8138,
      "adm": 8139,
      "chess": 8140,
      "unch": 8141,
      "withdrew": 8142,
      "plus": 8143,
      "exposure": 8144,
      "diet": 8145,
      "iveness": 8146,
      "achu": 8147,
      "format": 8148,
      "recur": 8149,
      "Ark": 8150,
      "column": 8151,
      "Who": 8152,
      "paras": 8153,
      "useful": 8154,
      "Show": 8155,
      "Sholay": 8156,
      "memory": 8157,
      "transition": 8158,
      "1940s": 8159,
      "extension": 8160,
      "crake": 8161,
      "organised": 8162,
      "traits": 8163,
      "claiming": 8164,
      "influential": 8165,
      "garian": 8166,
      "purposes": 8167,
      "driven": 8168,
      "Corpor": 8169,
      "Maggie": 8170,
      "Richmond": 8171,
      "munition": 8172,
      "Mexican": 8173,
      "audio": 8174,
      "dynasty": 8175,
      "injuries": 8176,
      "altern": 8177,
      "FIFA": 8178,
      "divor": 8179,
      "climate": 8180,
      "dinosaur": 8181,
      "niowie": 8182,
      "dramatic": 8183,
      "exerc": 8184,
      "doubt": 8185,
      "Wiś": 8186,
      "CBS": 8187,
      "Free": 8188,
      "Federal": 8189,
      "Hg": 8190,
      "Kann": 8191,
      "Plan": 8192,
      "Ren": 8193,
      "Rest": 8194,
      "Roc": 8195,
      "Sid": 8196,
      "Sel": 8197,
      "Win": 8198,
      "gri": 8199,
      "mates": 8200,
      "rant": 8201,
      "saved": 8202,
      "ugh": 8203,
      "wings": 8204,
      "eration": 8205,
      "oux": 8206,
      "rog": 8207,
      "ammunition": 8208,
      "unes": 8209,
      "1928": 8210,
      "mos": 8211,
      "excess": 8212,
      "diplom": 8213,
      "asser": 8214,
      "actual": 8215,
      "otherwise": 8216,
      "brush": 8217,
      "noon": 8218,
      "shipping": 8219,
      "amps": 8220,
      "regist": 8221,
      "cancer": 8222,
      "writings": 8223,
      "setts": 8224,
      "subspecies": 8225,
      "doct": 8226,
      "insur": 8227,
      "parish": 8228,
      "Norway": 8229,
      "engines": 8230,
      "originated": 8231,
      "disturb": 8232,
      "iously": 8233,
      "restling": 8234,
      "talk": 8235,
      "Parvati": 8236,
      "kingdom": 8237,
      "factors": 8238,
      "suggesting": 8239,
      "howitz": 8240,
      "Portugal": 8241,
      "Moore": 8242,
      "looks": 8243,
      "burned": 8244,
      "interests": 8245,
      "materials": 8246,
      "crosses": 8247,
      "persu": 8248,
      "spoke": 8249,
      "watching": 8250,
      "happened": 8251,
      "Israeli": 8252,
      "severely": 8253,
      "apparently": 8254,
      "chairman": 8255,
      "Massachu": 8256,
      "journalist": 8257,
      "resistance": 8258,
      "picture": 8259,
      "jackrab": 8260,
      "substantial": 8261,
      "Réunion": 8262,
      "circumstances": 8263,
      "Education": 8264,
      "kāntav": 8265,
      "Barker": 8266,
      "helicop": 8267,
      "Wiśniowie": 8268,
      "Massachusetts": 8269,
      "86": 8270,
      "900": 8271,
      "Benn": 8272,
      "Branch": 8273,
      "Baker": 8274,
      "Cas": 8275,
      "Dor": 8276,
      "Eagle": 8277,
      "Gate": 8278,
      "Gary": 8279,
      "Gwen": 8280,
      "Hamp": 8281,
      "Having": 8282,
      "IA": 8283,
      "Imag": 8284,
      "Kim": 8285,
      "Khand": 8286,
      "Lith": 8287,
      "Niel": 8288,
      "Prom": 8289,
      "RAAF": 8290,
      "Sis": 8291,
      "Yug": 8292,
      "cars": 8293,
      "citing": 8294,
      "fate": 8295,
      "fant": 8296,
      "festival": 8297,
      "mam": 8298,
      "patch": 8299,
      "inher": 8300,
      "eries": 8301,
      "rep": 8302,
      "heera": 8303,
      "ilst": 8304,
      "iland": 8305,
      "ilation": 8306,
      "enters": 8307,
      "oming": 8308,
      "chant": 8309,
      "impossible": 8310,
      "unlike": 8311,
      "eless": 8312,
      "resign": 8313,
      "1927": 8314,
      "emia": 8315,
      "ocy": 8316,
      "overseas": 8317,
      "iang": 8318,
      "evin": 8319,
      "lob": 8320,
      "partially": 8321,
      "disaster": 8322,
      "brick": 8323,
      "interpre": 8324,
      "ryce": 8325,
      "understood": 8326,
      "Death": 8327,
      "mixture": 8328,
      "survive": 8329,
      "engage": 8330,
      "causes": 8331,
      "musician": 8332,
      "carved": 8333,
      "Guide": 8334,
      "Wilson": 8335,
      "latex": 8336,
      "starlings": 8337,
      "generals": 8338,
      "urricanes": 8339,
      "collect": 8340,
      "movements": 8341,
      "radiation": 8342,
      "victories": 8343,
      "burning": 8344,
      "predomin": 8345,
      "copy": 8346,
      "electronic": 8347,
      "Minor": 8348,
      "Ministry": 8349,
      "transportation": 8350,
      "rorist": 8351,
      "departure": 8352,
      "instruments": 8353,
      "shells": 8354,
      "Silver": 8355,
      "option": 8356,
      "Historic": 8357,
      "Swedish": 8358,
      "beautiful": 8359,
      "Patty": 8360,
      "rhythm": 8361,
      "Ustaše": 8362,
      "Kannada": 8363,
      "kāntavāda": 8364,
      "Yugos": 8365,
      "84": 8366,
      "Av": 8367,
      "Bureau": 8368,
      "Eaton": 8369,
      "Las": 8370,
      "Last": 8371,
      "Mach": 8372,
      "Midge": 8373,
      "Masters": 8374,
      "Sans": 8375,
      "Vo": 8376,
      "Vul": 8377,
      "aire": 8378,
      "bom": 8379,
      "dangerous": 8380,
      "eat": 8381,
      "ng": 8382,
      "rquez": 8383,
      "slip": 8384,
      "slide": 8385,
      "uge": 8386,
      "ware": 8387,
      "inian": 8388,
      "ensu": 8389,
      "lev": 8390,
      "sevent": 8391,
      "amateur": 8392,
      "wasn": 8393,
      "oli": 8394,
      "congreg": 8395,
      "resigned": 8396,
      "compete": 8397,
      "istan": 8398,
      "oren": 8399,
      "Stand": 8400,
      "spend": 8401,
      "commem": 8402,
      "crest": 8403,
      "afterwards": 8404,
      "nov": 8405,
      "interaction": 8406,
      "temples": 8407,
      "buoy": 8408,
      "gene": 8409,
      "consol": 8410,
      "arious": 8411,
      "poll": 8412,
      "See": 8413,
      "Season": 8414,
      "tribute": 8415,
      "Carmel": 8416,
      "iverse": 8417,
      "USD": 8418,
      "asks": 8419,
      "1957": 8420,
      "Stewart": 8421,
      "1933": 8422,
      "marry": 8423,
      "Cook": 8424,
      "windows": 8425,
      "Perfect": 8426,
      "Police": 8427,
      "interesting": 8428,
      "techniques": 8429,
      "Soon": 8430,
      "cules": 8431,
      "models": 8432,
      "Veronica": 8433,
      "engineers": 8434,
      "thinking": 8435,
      "Glad": 8436,
      "spores": 8437,
      "instance": 8438,
      "establishing": 8439,
      "documents": 8440,
      "Howe": 8441,
      "opportunities": 8442,
      "struggle": 8443,
      "restricted": 8444,
      "Confess": 8445,
      "restored": 8446,
      "spiritual": 8447,
      "adventure": 8448,
      "premiered": 8449,
      "RELI": 8450,
      "crops": 8451,
      "supporters": 8452,
      "absolute": 8453,
      "Profess": 8454,
      "Front": 8455,
      "Márquez": 8456,
      "Khandoba": 8457,
      "07": 8458,
      "113": 8459,
      "Avi": 8460,
      "BN": 8461,
      "Cob": 8462,
      "Dig": 8463,
      "Dak": 8464,
      "Ful": 8465,
      "FRELI": 8466,
      "Glo": 8467,
      "Ira": 8468,
      "Jr": 8469,
      "NDH": 8470,
      "Rand": 8471,
      "Sle": 8472,
      "Wag": 8473,
      "Wright": 8474,
      "nations": 8475,
      "pist": 8476,
      "pale": 8477,
      "ske": 8478,
      "sale": 8479,
      "vul": 8480,
      "vast": 8481,
      "vals": 8482,
      "inHg": 8483,
      "erry": 8484,
      "remember": 8485,
      "remarked": 8486,
      "encing": 8487,
      "icide": 8488,
      "roit": 8489,
      "omura": 8490,
      "bear": 8491,
      "impressed": 8492,
      "conservation": 8493,
      "eline": 8494,
      "ressing": 8495,
      "umin": 8496,
      "osom": 8497,
      "artificial": 8498,
      "notably": 8499,
      "ifer": 8500,
      "kees": 8501,
      "ranges": 8502,
      "Then": 8503,
      "coins": 8504,
      "regiment": 8505,
      "Josh": 8506,
      "surg": 8507,
      "ologies": 8508,
      "choir": 8509,
      "cleared": 8510,
      "designs": 8511,
      "readers": 8512,
      "offices": 8513,
      "venture": 8514,
      "Canal": 8515,
      "difference": 8516,
      "falls": 8517,
      "21st": 8518,
      "productions": 8519,
      "communications": 8520,
      "experiences": 8521,
      "Township": 8522,
      "ucky": 8523,
      "recognised": 8524,
      "apsed": 8525,
      "Toronto": 8526,
      "itzer": 8527,
      "situated": 8528,
      "properties": 8529,
      "Trib": 8530,
      "Miller": 8531,
      "Justice": 8532,
      "weapon": 8533,
      "Robin": 8534,
      "ordinary": 8535,
      "giant": 8536,
      "closure": 8537,
      "Girls": 8538,
      "elsewhere": 8539,
      "minimum": 8540,
      "platform": 8541,
      "publisher": 8542,
      "Jurchen": 8543,
      "false": 8544,
      "distinguished": 8545,
      "Mulder": 8546,
      "retirement": 8547,
      "Detroit": 8548,
      "Mozambique": 8549,
      "Jacob": 8550,
      "acknowled": 8551,
      "criminal": 8552,
      "convinced": 8553,
      "atechism": 8554,
      "Phoenix": 8555,
      "Saturday": 8556,
      "Lithuan": 8557,
      "FRELIMO": 8558,
      "Amb": 8559,
      "Bad": 8560,
      "Bah": 8561,
      "Denn": 8562,
      "ES": 8563,
      "Esh": 8564,
      "Gam": 8565,
      "Kansas": 8566,
      "Kevin": 8567,
      "Nam": 8568,
      "Vice": 8569,
      "Wing": 8570,
      "bac": 8571,
      "barri": 8572,
      "creek": 8573,
      "fountain": 8574,
      "hid": 8575,
      "hunting": 8576,
      "tu": 8577,
      "instru": 8578,
      "icit": 8579,
      "selection": 8580,
      "beam": 8581,
      "agi": 8582,
      "rib": 8583,
      "ribute": 8584,
      "shr": 8585,
      "shut": 8586,
      "mental": 8587,
      "acked": 8588,
      "enden": 8589,
      "earn": 8590,
      "earning": 8591,
      "intent": 8592,
      "1850": 8593,
      "pressing": 8594,
      "costs": 8595,
      "retreat": 8596,
      "oyage": 8597,
      "founder": 8598,
      "hypo": 8599,
      "memor": 8600,
      "westward": 8601,
      "depending": 8602,
      "Warren": 8603,
      "atherine": 8604,
      "characterized": 8605,
      "Management": 8606,
      "counties": 8607,
      "approval": 8608,
      "starred": 8609,
      "Scully": 8610,
      "formerly": 8611,
      "Barry": 8612,
      "frig": 8613,
      "networks": 8614,
      "streak": 8615,
      "programme": 8616,
      "statistics": 8617,
      "electron": 8618,
      "measured": 8619,
      "ranging": 8620,
      "altered": 8621,
      "objective": 8622,
      "nationally": 8623,
      "Russia": 8624,
      "biograph": 8625,
      "powered": 8626,
      "suitable": 8627,
      "Build": 8628,
      "Bulls": 8629,
      "vehicle": 8630,
      "depicts": 8631,
      "excavation": 8632,
      "delayed": 8633,
      "behavior": 8634,
      "graduate": 8635,
      "Journey": 8636,
      "Chapel": 8637,
      "tanks": 8638,
      "benefit": 8639,
      "throne": 8640,
      "Albums": 8641,
      "Coleman": 8642,
      "Gilbert": 8643,
      "appropriate": 8644,
      "biggest": 8645,
      "Hudson": 8646,
      "infrastructure": 8647,
      "Wiśniowiecki": 8648,
      "Ag": 8649,
      "Cab": 8650,
      "Dave": 8651,
      "Kong": 8652,
      "MI": 8653,
      "Much": 8654,
      "Oscar": 8655,
      "Pow": 8656,
      "UE": 8657,
      "Witch": 8658,
      "bones": 8659,
      "dwar": 8660,
      "dense": 8661,
      "fil": 8662,
      "gates": 8663,
      "lon": 8664,
      "lad": 8665,
      "rator": 8666,
      "skills": 8667,
      "vor": 8668,
      "inus": 8669,
      "infl": 8670,
      "inje": 8671,
      "rene": 8672,
      "enh": 8673,
      "deleg": 8674,
      "determ": 8675,
      "imprison": 8676,
      "una": 8677,
      "ays": 8678,
      "condem": 8679,
      "usage": 8680,
      "residence": 8681,
      "1926": 8682,
      "pest": 8683,
      "sho": 8684,
      "shock": 8685,
      "liber": 8686,
      "trick": 8687,
      "akum": 8688,
      "ills": 8689,
      "feathers": 8690,
      "assador": 8691,
      "gry": 8692,
      "aft": 8693,
      "compound": 8694,
      "Stories": 8695,
      "iao": 8696,
      "scr": 8697,
      "attained": 8698,
      "guil": 8699,
      "displayed": 8700,
      "creative": 8701,
      "Anzac": 8702,
      "elections": 8703,
      "describe": 8704,
      "decides": 8705,
      "smen": 8706,
      "fundam": 8707,
      "breed": 8708,
      "casting": 8709,
      "differences": 8710,
      "striking": 8711,
      "clearly": 8712,
      "closest": 8713,
      "Davis": 8714,
      "Magdal": 8715,
      "predators": 8716,
      "tellect": 8717,
      "audiences": 8718,
      "housing": 8719,
      "iggs": 8720,
      "preced": 8721,
      "Republican": 8722,
      "rupted": 8723,
      "avalry": 8724,
      "favorable": 8725,
      "reservo": 8726,
      "Mrs": 8727,
      "Trek": 8728,
      "Memorial": 8729,
      "qualified": 8730,
      "corner": 8731,
      "Protestant": 8732,
      "ethnic": 8733,
      "opponent": 8734,
      "Confeder": 8735,
      "restoration": 8736,
      "tunnel": 8737,
      "prompted": 8738,
      "Originally": 8739,
      "Nevertheless": 8740,
      "inscription": 8741,
      "reinforcements": 8742,
      "Persian": 8743,
      "predecessor": 8744,
      "Initially": 8745,
      "Organization": 8746,
      "Territory": 8747,
      "Hokies": 8748,
      "dwarf": 8749,
      "determine": 8750,
      "05": 8751,
      "Budd": 8752,
      "Categ": 8753,
      "Event": 8754,
      "Gro": 8755,
      "Hou": 8756,
      "Hope": 8757,
      "Nel": 8758,
      "Sl": 8759,
      "Ts": 8760,
      "Ten": 8761,
      "Tar": 8762,
      "Wu": 8763,
      "Wis": 8764,
      "Wild": 8765,
      "avier": 8766,
      "bind": 8767,
      "dens": 8768,
      "easy": 8769,
      "kings": 8770,
      "ön": 8771,
      "institution": 8772,
      "intellect": 8773,
      "theater": 8774,
      "tot": 8775,
      "het": 8776,
      "acles": 8777,
      "chamber": 8778,
      "det": 8779,
      "degre": 8780,
      "uni": 8781,
      "ride": 8782,
      "neth": 8783,
      "artwork": 8784,
      "odies": 8785,
      "Chagas": 8786,
      "poison": 8787,
      "aust": 8788,
      "inton": 8789,
      "ranking": 8790,
      "desert": 8791,
      "Until": 8792,
      "anyone": 8793,
      "Arsen": 8794,
      "gov": 8795,
      "thereafter": 8796,
      "arrive": 8797,
      "Beet": 8798,
      "continental": 8799,
      "steep": 8800,
      "Marg": 8801,
      "defending": 8802,
      "promised": 8803,
      "childhood": 8804,
      "organisation": 8805,
      "Paraly": 8806,
      "Allen": 8807,
      "commandment": 8808,
      "oxy": 8809,
      "moderate": 8810,
      "representative": 8811,
      "Mathews": 8812,
      "1905": 8813,
      "Express": 8814,
      "Magad": 8815,
      "Abby": 8816,
      "ruling": 8817,
      "harmon": 8818,
      "respective": 8819,
      "Rocky": 8820,
      "Priest": 8821,
      "injured": 8822,
      "violent": 8823,
      "argues": 8824,
      "amounts": 8825,
      "bowl": 8826,
      "boundary": 8827,
      "install": 8828,
      "occupation": 8829,
      "preparation": 8830,
      "Malley": 8831,
      "Turks": 8832,
      "badly": 8833,
      "Trans": 8834,
      "scientists": 8835,
      "Victorian": 8836,
      "Legacy": 8837,
      "bulk": 8838,
      "architecture": 8839,
      "Communist": 8840,
      "smooth": 8841,
      "alleged": 8842,
      "Jonathan": 8843,
      "fatal": 8844,
      "adaptation": 8845,
      "exclusively": 8846,
      "Leslie": 8847,
      "magnitude": 8848,
      "Kelly": 8849,
      "ISBN": 8850,
      "perspective": 8851,
      "Valkyria": 8852,
      "Wagner": 8853,
      "Category": 8854,
      "degrees": 8855,
      "Arsenal": 8856,
      "Paralymp": 8857,
      "68": 8858,
      "Ace": 8859,
      "Dum": 8860,
      "Kur": 8861,
      "Kenn": 8862,
      "Kurt": 8863,
      "Lam": 8864,
      "Lud": 8865,
      "Nash": 8866,
      "Shel": 8867,
      "caves": 8868,
      "flies": 8869,
      "gars": 8870,
      "harm": 8871,
      "ients": 8872,
      "lord": 8873,
      "oh": 8874,
      "oing": 8875,
      "pare": 8876,
      "snow": 8877,
      "turb": 8878,
      "uit": 8879,
      "wives": 8880,
      "ye": 8881,
      "inci": 8882,
      "anthem": 8883,
      "ancing": 8884,
      "tooth": 8885,
      "icul": 8886,
      "lee": 8887,
      "leton": 8888,
      "dean": 8889,
      "deity": 8890,
      "olia": 8891,
      "olithic": 8892,
      "concess": 8893,
      "constitut": 8894,
      "constitution": 8895,
      "rifle": 8896,
      "erected": 8897,
      "resumed": 8898,
      "exists": 8899,
      "aki": 8900,
      "illing": 8901,
      "manga": 8902,
      "outbreak": 8903,
      "ears": 8904,
      "strict": 8905,
      "prime": 8906,
      "ignment": 8907,
      "spots": 8908,
      "braska": 8909,
      "Ship": 8910,
      "decay": 8911,
      "lanes": 8912,
      "portrait": 8913,
      "labe": 8914,
      "rises": 8915,
      "lights": 8916,
      "northward": 8917,
      "Herze": 8918,
      "handled": 8919,
      "explo": 8920,
      "explains": 8921,
      "mbar": 8922,
      "everyone": 8923,
      "tested": 8924,
      "Nebraska": 8925,
      "driver": 8926,
      "Bertin": 8927,
      "Poly": 8928,
      "liner": 8929,
      "assisted": 8930,
      "engineer": 8931,
      "deliber": 8932,
      "Emmy": 8933,
      "frustr": 8934,
      "keeping": 8935,
      "colonies": 8936,
      "Cheval": 8937,
      "celebrated": 8938,
      "beaten": 8939,
      "Outstanding": 8940,
      "Waterfall": 8941,
      "propag": 8942,
      "advertising": 8943,
      "strengthened": 8944,
      "nurse": 8945,
      "Democratic": 8946,
      "sisters": 8947,
      "Brooks": 8948,
      "Celtic": 8949,
      "inhabitants": 8950,
      "Treaty": 8951,
      "Roberts": 8952,
      "deemed": 8953,
      "Iraq": 8954,
      "UEFA": 8955,
      "govina": 8956,
      "Magadheera": 8957,
      "08": 8958,
      "Az": 8959,
      "Bren": 8960,
      "Catechism": 8961,
      "Dog": 8962,
      "Ec": 8963,
      "Hay": 8964,
      "Lower": 8965,
      "Mol": 8966,
      "Nic": 8967,
      "Pryce": 8968,
      "RO": 8969,
      "Shad": 8970,
      "Such": 8971,
      "Vic": 8972,
      "bore": 8973,
      "banned": 8974,
      "cous": 8975,
      "fo": 8976,
      "fusion": 8977,
      "iated": 8978,
      "kne": 8979,
      "sad": 8980,
      "inhab": 8981,
      "edges": 8982,
      "icity": 8983,
      "adier": 8984,
      "omtav": 8985,
      "urally": 8986,
      "ige": 8987,
      "uncertain": 8988,
      "ceased": 8989,
      "aph": 8990,
      "1925": 8991,
      "1924": 8992,
      "emies": 8993,
      "embr": 8994,
      "exposed": 8995,
      "ights": 8996,
      "avar": 8997,
      "blow": 8998,
      "blaz": 8999,
      "landings": 9000,
      "scattered": 9001,
      "Heaven": 9002,
      "okovic": 9003,
      "partner": 9004,
      "spin": 9005,
      "Thus": 9006,
      "brain": 9007,
      "monuments": 9008,
      "mines": 9009,
      "visiting": 9010,
      "recordings": 9011,
      "Asomtav": 9012,
      "substitute": 9013,
      "surge": 9014,
      "Beau": 9015,
      "memb": 9016,
      "balls": 9017,
      "Sheff": 9018,
      "warning": 9019,
      "azines": 9020,
      "ashi": 9021,
      "designer": 9022,
      "gets": 9023,
      "linger": 9024,
      "Peters": 9025,
      "household": 9026,
      "profile": 9027,
      "garrison": 9028,
      "Harold": 9029,
      "slop": 9030,
      "consistent": 9031,
      "Madrid": 9032,
      "conduct": 9033,
      "Business": 9034,
      "boxing": 9035,
      "executed": 9036,
      "prevented": 9037,
      "application": 9038,
      "judge": 9039,
      "settlements": 9040,
      "Djokovic": 9041,
      "bombard": 9042,
      "demands": 9043,
      "fitted": 9044,
      "Langu": 9045,
      "distinctive": 9046,
      "initiated": 9047,
      "demonstrated": 9048,
      "excavations": 9049,
      "neutral": 9050,
      "collaboration": 9051,
      "pursue": 9052,
      "tactics": 9053,
      "dominant": 9054,
      "Murray": 9055,
      "inscriptions": 9056,
      "Railway": 9057,
      "WASP": 9058,
      "Yankees": 9059,
      "turrets": 9060,
      "Rifles": 9061,
      "teorological": 9062,
      "stellar": 9063,
      "strategy": 9064,
      "Alfred": 9065,
      "Nielsen": 9066,
      "Houston": 9067,
      "Herzegovina": 9068,
      "Asomtavruli": 9069,
      "1000": 9070,
      "Amy": 9071,
      "Bible": 9072,
      "EA": 9073,
      "Ghost": 9074,
      "Jen": 9075,
      "Kam": 9076,
      "Peach": 9077,
      "Say": 9078,
      "Tam": 9079,
      "Tax": 9080,
      "Women": 9081,
      "ois": 9082,
      "pp": 9083,
      "pounds": 9084,
      "sper": 9085,
      "sunk": 9086,
      "tub": 9087,
      "ux": 9088,
      "essee": 9089,
      "icia": 9090,
      "roots": 9091,
      "urer": 9092,
      "forty": 9093,
      "depos": 9094,
      "olis": 9095,
      "tern": 9096,
      "elder": 9097,
      "rescu": 9098,
      "clust": 9099,
      "feels": 9100,
      "grid": 9101,
      "disband": 9102,
      "Anne": 9103,
      "Those": 9104,
      "ellite": 9105,
      "afternoon": 9106,
      "rend": 9107,
      "centers": 9108,
      "coin": 9109,
      "reduc": 9110,
      "osex": 9111,
      "charity": 9112,
      "releases": 9113,
      "Dean": 9114,
      "arrior": 9115,
      "Conservation": 9116,
      "downtown": 9117,
      "succeed": 9118,
      "dams": 9119,
      "ibis": 9120,
      "triple": 9121,
      "Carre": 9122,
      "drain": 9123,
      "cargo": 9124,
      "considering": 9125,
      "caster": 9126,
      "1934": 9127,
      "margin": 9128,
      "realized": 9129,
      "magazines": 9130,
      "amongst": 9131,
      "testing": 9132,
      "sounds": 9133,
      "1890": 9134,
      "switch": 9135,
      "Anglo": 9136,
      "residential": 9137,
      "Madison": 9138,
      "Jews": 9139,
      "quarterback": 9140,
      "Congo": 9141,
      "Malay": 9142,
      "archaeologist": 9143,
      "biographer": 9144,
      "frequent": 9145,
      "subjects": 9146,
      "indicating": 9147,
      "Overall": 9148,
      "adopt": 9149,
      "emergency": 9150,
      "tournaments": 9151,
      "Tennessee": 9152,
      "Hawaii": 9153,
      "translation": 9154,
      "sacred": 9155,
      "Independence": 9156,
      "duty": 9157,
      "Gallery": 9158,
      "premiere": 9159,
      "Original": 9160,
      "defenders": 9161,
      "suspended": 9162,
      "philosophy": 9163,
      "assembled": 9164,
      "scheme": 9165,
      "martial": 9166,
      "discipl": 9167,
      "Corporation": 9168,
      "commemor": 9169,
      "Eshmun": 9170,
      "83": 9171,
      "Aman": 9172,
      "Again": 9173,
      "Bou": 9174,
      "Die": 9175,
      "Fi": 9176,
      "Fem": 9177,
      "Hop": 9178,
      "Hans": 9179,
      "Luc": 9180,
      "Labour": 9181,
      "Main": 9182,
      "Next": 9183,
      "Nett": 9184,
      "Naval": 9185,
      "Rul": 9186,
      "Sign": 9187,
      "Tok": 9188,
      "WC": 9189,
      "ais": 9190,
      "cave": 9191,
      "crisis": 9192,
      "dies": 9193,
      "ipe": 9194,
      "mary": 9195,
      "nership": 9196,
      "rag": 9197,
      "sop": 9198,
      "sang": 9199,
      "tario": 9200,
      "onic": 9201,
      "onia": 9202,
      "rebuilt": 9203,
      "orph": 9204,
      "sting": 9205,
      "toured": 9206,
      "sect": 9207,
      "iri": 9208,
      "impress": 9209,
      "impression": 9210,
      "owa": 9211,
      "consc": 9212,
      "agar": 9213,
      "iders": 9214,
      "ulu": 9215,
      "neath": 9216,
      "tru": 9217,
      "excell": 9218,
      "Chen": 9219,
      "portions": 9220,
      "Stav": 9221,
      "lling": 9222,
      "guide": 9223,
      "adequ": 9224,
      "izon": 9225,
      "colum": 9226,
      "Release": 9227,
      "Ontario": 9228,
      "suburb": 9229,
      "runners": 9230,
      "aza": 9231,
      "Mariana": 9232,
      "receives": 9233,
      "gged": 9234,
      "Grade": 9235,
      "servative": 9236,
      "talking": 9237,
      "classification": 9238,
      "variation": 9239,
      "ordering": 9240,
      "armament": 9241,
      "personality": 9242,
      "Web": 9243,
      "Program": 9244,
      "colleagues": 9245,
      "Romanian": 9246,
      "bases": 9247,
      "1908": 9248,
      "Mountains": 9249,
      "fifty": 9250,
      "Evans": 9251,
      "SAS": 9252,
      "Swiss": 9253,
      "employment": 9254,
      "culmin": 9255,
      "conclusion": 9256,
      "reveal": 9257,
      "crews": 9258,
      "delivery": 9259,
      "Hills": 9260,
      "definition": 9261,
      "Caes": 9262,
      "northeastern": 9263,
      "requested": 9264,
      "schedule": 9265,
      "Finals": 9266,
      "Giants": 9267,
      "translated": 9268,
      "environmental": 9269,
      "Michel": 9270,
      "Village": 9271,
      "Cubs": 9272,
      "Sorra": 9273,
      "Network": 9274,
      "eliminated": 9275,
      "Wicca": 9276,
      "simultaneously": 9277,
      "Imagine": 9278,
      "guilty": 9279,
      "Chevaliers": 9280,
      "Sheffield": 9281,
      "reducing": 9282,
      "02": 9283,
      "09": 9284,
      "Ah": 9285,
      "ABC": 9286,
      "Bush": 9287,
      "Benj": 9288,
      "Cu": 9289,
      "Case": 9290,
      "Face": 9291,
      "Grom": 9292,
      "Gib": 9293,
      "Gael": 9294,
      "Mas": 9295,
      "Mes": 9296,
      "Oreg": 9297,
      "Omar": 9298,
      "Publ": 9299,
      "Prest": 9300,
      "Rhys": 9301,
      "ST": 9302,
      "Sab": 9303,
      "Social": 9304,
      "VII": 9305,
      "Xenon": 9306,
      "dish": 9307,
      "eign": 9308,
      "gang": 9309,
      "lined": 9310,
      "swe": 9311,
      "ym": 9312,
      "yield": 9313,
      "stin": 9314,
      "stores": 9315,
      "acids": 9316,
      "olen": 9317,
      "ulating": 9318,
      "eties": 9319,
      "etime": 9320,
      "1923": 9321,
      "oples": 9322,
      "uty": 9323,
      "peaking": 9324,
      "Inc": 9325,
      "liqu": 9326,
      "expression": 9327,
      "ardine": 9328,
      "twin": 9329,
      "overeign": 9330,
      "haw": 9331,
      "gray": 9332,
      "ipes": 9333,
      "Charts": 9334,
      "string": 9335,
      "ported": 9336,
      "boys": 9337,
      "aux": 9338,
      "loved": 9339,
      "scope": 9340,
      "deser": 9341,
      "Ancient": 9342,
      "renov": 9343,
      "enses": 9344,
      "annon": 9345,
      "minster": 9346,
      "obvious": 9347,
      "themat": 9348,
      "produces": 9349,
      "Asian": 9350,
      "relations": 9351,
      "Leigh": 9352,
      "aley": 9353,
      "operates": 9354,
      "metre": 9355,
      "cyto": 9356,
      "14th": 9357,
      "aho": 9358,
      "aski": 9359,
      "Christine": 9360,
      "sentences": 9361,
      "sentiment": 9362,
      "refuge": 9363,
      "skull": 9364,
      "rounds": 9365,
      "structural": 9366,
      "Tracy": 9367,
      "itarian": 9368,
      "posts": 9369,
      "tours": 9370,
      "Harrison": 9371,
      "shoulder": 9372,
      "acycl": 9373,
      "circle": 9374,
      "swim": 9375,
      "fifteen": 9376,
      "professor": 9377,
      "honour": 9378,
      "collapsed": 9379,
      "synthe": 9380,
      "potentially": 9381,
      "balance": 9382,
      "jobs": 9383,
      "kilome": 9384,
      "newspapers": 9385,
      "steps": 9386,
      "withdrawal": 9387,
      "molecules": 9388,
      "Ernest": 9389,
      "rhyme": 9390,
      "Hawaiian": 9391,
      "mechanical": 9392,
      "Kirk": 9393,
      "Gardner": 9394,
      "trouble": 9395,
      "descend": 9396,
      "Lincol": 9397,
      "assassination": 9398,
      "accurate": 9399,
      "components": 9400,
      "Pulaski": 9401,
      "bridges": 9402,
      "citizens": 9403,
      "helium": 9404,
      "employees": 9405,
      "cotton": 9406,
      "elaborate": 9407,
      "phrase": 9408,
      "Queensland": 9409,
      "Dakota": 9410,
      "Eventually": 9411,
      "Benjamin": 9412,
      "Oregon": 9413,
      "73": 9414,
      "Ade": 9415,
      "Bat": 9416,
      "Cir": 9417,
      "Cater": 9418,
      "Cress": 9419,
      "Canyon": 9420,
      "Dud": 9421,
      "Eric": 9422,
      "Farm": 9423,
      "Let": 9424,
      "Lost": 9425,
      "Mack": 9426,
      "Maur": 9427,
      "Pas": 9428,
      "Pir": 9429,
      "Race": 9430,
      "Sony": 9431,
      "Trail": 9432,
      "bare": 9433,
      "dod": 9434,
      "gap": 9435,
      "gers": 9436,
      "jew": 9437,
      "krit": 9438,
      "lig": 9439,
      "tes": 9440,
      "tap": 9441,
      "zhou": 9442,
      "inations": 9443,
      "remove": 9444,
      "revised": 9445,
      "atropical": 9446,
      "enthus": 9447,
      "alpha": 9448,
      "agod": 9449,
      "apore": 9450,
      "umps": 9451,
      "proportion": 9452,
      "clay": 9453,
      "artistic": 9454,
      "quant": 9455,
      "Chron": 9456,
      "Heart": 9457,
      "1830": 9458,
      "contribution": 9459,
      "ensions": 9460,
      "coord": 9461,
      "angered": 9462,
      "colog": 9463,
      "canal": 9464,
      "ernon": 9465,
      "Where": 9466,
      "submitted": 9467,
      "parody": 9468,
      "oster": 9469,
      "Section": 9470,
      "topped": 9471,
      "weekly": 9472,
      "asking": 9473,
      "Christopher": 9474,
      "justice": 9475,
      "explain": 9476,
      "advancing": 9477,
      "putting": 9478,
      "referring": 9479,
      "directors": 9480,
      "Neil": 9481,
      "Africaine": 9482,
      "youngest": 9483,
      "Edge": 9484,
      "vertical": 9485,
      "Valve": 9486,
      "compliment": 9487,
      "semif": 9488,
      "atinum": 9489,
      "machines": 9490,
      "boundaries": 9491,
      "rays": 9492,
      "spacecraft": 9493,
      "Singapore": 9494,
      "Woodhouse": 9495,
      "Campbell": 9496,
      "Survey": 9497,
      "Shaw": 9498,
      "expert": 9499,
      "wait": 9500,
      "Commons": 9501,
      "documented": 9502,
      "drove": 9503,
      "transcript": 9504,
      "Korea": 9505,
      "seeking": 9506,
      "extratropical": 9507,
      "Children": 9508,
      "dispute": 9509,
      "comparison": 9510,
      "Supreme": 9511,
      "Similarly": 9512,
      "theatrical": 9513,
      "imetres": 9514,
      "Islamic": 9515,
      "Ingres": 9516,
      "Foundation": 9517,
      "Sisler": 9518,
      "Sanskrit": 9519,
      "surgery": 9520,
      "columns": 9521,
      "Sorraia": 9522,
      "Lincoln": 9523,
      "Bidd": 9524,
      "Cred": 9525,
      "Cullen": 9526,
      "Et": 9527,
      "Hur": 9528,
      "Ian": 9529,
      "Jason": 9530,
      "Jardine": 9531,
      "Know": 9532,
      "Lane": 9533,
      "Neves": 9534,
      "Ta": 9535,
      "VI": 9536,
      "Wander": 9537,
      "dney": 9538,
      "fishing": 9539,
      "fault": 9540,
      "gian": 9541,
      "hosp": 9542,
      "las": 9543,
      "laugh": 9544,
      "nels": 9545,
      "pin": 9546,
      "pir": 9547,
      "rations": 9548,
      "sample": 9549,
      "tent": 9550,
      "uer": 9551,
      "threw": 9552,
      "enzy": 9553,
      "arian": 9554,
      "assembly": 9555,
      "toler": 9556,
      "acru": 9557,
      "amid": 9558,
      "bears": 9559,
      "contrad": 9560,
      "convention": 9561,
      "aggreg": 9562,
      "elimin": 9563,
      "comfort": 9564,
      "proxim": 9565,
      "shift": 9566,
      "shirt": 9567,
      "library": 9568,
      "truck": 9569,
      "clin": 9570,
      "osph": 9571,
      "odrom": 9572,
      "exem": 9573,
      "akers": 9574,
      "feeding": 9575,
      "twent": 9576,
      "notice": 9577,
      "Champions": 9578,
      "worn": 9579,
      "spending": 9580,
      "inclusion": 9581,
      "prev": 9582,
      "prefect": 9583,
      "prepare": 9584,
      "merged": 9585,
      "code": 9586,
      "coinc": 9587,
      "ieth": 9588,
      "anekāntavāda": 9589,
      "Contro": 9590,
      "Briggs": 9591,
      "Work": 9592,
      "trials": 9593,
      "ahl": 9594,
      "ennium": 9595,
      "pleasure": 9596,
      "solar": 9597,
      "genera": 9598,
      "armored": 9599,
      "personally": 9600,
      "reflected": 9601,
      "sket": 9602,
      "magic": 9603,
      "asteroid": 9604,
      "oxide": 9605,
      "Together": 9606,
      "representation": 9607,
      "programming": 9608,
      "1907": 9609,
      "temporarily": 9610,
      "acceptable": 9611,
      "collapse": 9612,
      "Prix": 9613,
      "Prize": 9614,
      "Veracru": 9615,
      "questions": 9616,
      "satellite": 9617,
      "archaeology": 9618,
      "definite": 9619,
      "Offic": 9620,
      "birthday": 9621,
      "Species": 9622,
      "iliar": 9623,
      "766th": 9624,
      "sculptures": 9625,
      "Louisiana": 9626,
      "Obser": 9627,
[...]
