{
  "version": "1.0",
  "truncation": null,
  "padding": null,
  "added_tokens": [
    {
      "id": 0,
      "content": "[UNK]",
      "single_word": false,
      "lstrip": false,
      "rstrip": false,
      "normalized": false,
      "special": true
    },
    {
      "id": 1,
      "content": "[PAD]",
      "single_word": false,
      "lstrip": false,
      "rstrip": false,
      "normalized": false,
      "special": true
    },
    {
      "id": 2,
      "content": "[BOS]",
      "single_word": false,
      "lstrip": false,
      "rstrip": false,
      "normalized": false,
      "special": true
    },
    {
      "id": 3,
      "content": "[EOS]",
      "single_word": false,
      "lstrip": false,
      "rstrip": false,
      "normalized": false,
      "special": true
    },
    {
      "id": 4,
      "content": "[SYSTEM]",
      "single_word": false,
      "lstrip": false,
      "rstrip": false,
      "normalized": false,
      "special": true
    },
    {
      "id": 5,
      "content": "[USER]",
      "single_word": false,
      "lstrip": false,
      "rstrip": false,
      "normalized": false,
      "special": true
    },
    {
      "id": 6,
      "content": "[DAI]",
      "single_word": false,
      "lstrip": false,
      "rstrip": false,
      "normalized": false,
      "special": true
    }
  ],
  "normalizer": null,
  "pre_tokenizer": {
    "type": "Whitespace"
  },
  "post_processor": null,
  "decoder": null,
  "model": {
    "type": "BPE",
    "dropout": null,
    "unk_token": "[UNK]",
    "continuing_subword_prefix": null,
    "end_of_word_suffix": null,
    "fuse_unk": false,
    "byte_fallback": false,
    "ignore_merges": false,
    "vocab": {
      "[UNK]": 0,
      "[PAD]": 1,
      "[BOS]": 2,
      "[EOS]": 3,
      "[SYSTEM]": 4,
      "[USER]": 5,
      "[DAI]": 6,
      "!": 7,
      "\"": 8,
      "#": 9,
      "$": 10,
      "%": 11,
      "&": 12,
      "'": 13,
      "(": 14,
      ")": 15,
      "*": 16,
      "+": 17,
      ",": 18,
      "-": 19,
      ".": 20,
      "/": 21,
      "0": 22,
      "1": 23,
      "2": 24,
      "3": 25,
      "4": 26,
      "5": 27,
      "6": 28,
      "7": 29,
      "8": 30,
      "9": 31,
      ":": 32,
      ";": 33,
      "<": 34,
      "=": 35,
      ">": 36,
      "?": 37,
      "@": 38,
      "A": 39,
      "B": 40,
      "C": 41,
      "D": 42,
      "E": 43,
      "F": 44,
      "G": 45,
      "H": 46,
      "I": 47,
      "J": 48,
      "K": 49,
      "L": 50,
      "M": 51,
      "N": 52,
      "O": 53,
      "P": 54,
      "Q": 55,
      "R": 56,
      "S": 57,
      "T": 58,
      "U": 59,
      "V": 60,
      "W": 61,
      "X": 62,
      "Y": 63,
      "Z": 64,
      "[": 65,
      "\\": 66,
      "]": 67,
      "^": 68,
      "_": 69,
      "`": 70,
      "a": 71,
      "b": 72,
      "c": 73,
      "d": 74,
      "e": 75,
      "f": 76,
      "g": 77,
      "h": 78,
      "i": 79,
      "j": 80,
      "k": 81,
      "l": 82,
      "m": 83,
      "n": 84,
      "o": 85,
      "p": 86,
      "q": 87,
      "r": 88,
      "s": 89,
      "t": 90,
      "u": 91,
      "v": 92,
      "w": 93,
      "x": 94,
      "y": 95,
      "z": 96,
      "{": 97,
      "|": 98,
      "}": 99,
      "~": 100,
      "¡": 101,
      "£": 102,
      "¥": 103,
      "§": 104,
      "¨": 105,
      "«": 106,
      "­": 107,
      "®": 108,
      "¯": 109,
      "°": 110,
      "²": 111,
      "³": 112,
      "´": 113,
      "¶": 114,
      "·": 115,
      "»": 116,
      "½": 117,
      "¿": 118,
      "À": 119,
      "Á": 120,
      "Â": 121,
      "Ã": 122,
      "Ä": 123,
      "Å": 124,
      "É": 125,
      "Í": 126,
      "Ñ": 127,
      "Ó": 128,
      "Õ": 129,
      "Ö": 130,
      "×": 131,
      "Ú": 132,
      "Ü": 133,
      "Ý": 134,
      "ß": 135,
      "à": 136,
      "á": 137,
      "â": 138,
      "ã": 139,
      "ä": 140,
      "å": 141,
      "æ": 142,
      "ç": 143,
      "è": 144,
      "é": 145,
      "ê": 146,
      "ë": 147,
      "ì": 148,
      "í": 149,
      "î": 150,
      "ï": 151,
      "ð": 152,
      "ñ": 153,
      "ò": 154,
      "ó": 155,
      "ô": 156,
      "õ": 157,
      "ö": 158,
      "÷": 159,
      "ø": 160,
      "ù": 161,
      "ú": 162,
      "û": 163,
      "ü": 164,
      "ý": 165,
      "þ": 166,
      "ÿ": 167,
      "ā": 168,
      "ă": 169,
      "ą": 170,
      "ć": 171,
      "Ĉ": 172,
      "ĉ": 173,
      "č": 174,
      "Đ": 175,
      "đ": 176,
      "ē": 177,
      "ĕ": 178,
      "ę": 179,
      "ĝ": 180,
      "ğ": 181,
      "ĩ": 182,
      "İ": 183,
      "ı": 184,
      "ĵ": 185,
      "ķ": 186,
      "ł": 187,
      "ń": 188,
      "ň": 189,
      "Ō": 190,
      "ō": 191,
      "ő": 192,
      "œ": 193,
      "ř": 194,
      "ś": 195,
      "ŝ": 196,
      "Ş": 197,
      "ş": 198,
      "š": 199,
      "ũ": 200,
      "ū": 201,
      "ů": 202,
      "Ż": 203,
      "ż": 204,
      "Ž": 205,
      "ž": 206,
      "ſ": 207,
      "Ǝ": 208,
      "ơ": 209,
      "ư": 210,
      "ǃ": 211,
      "ǒ": 212,
      "ǝ": 213,
      "ǫ": 214,
      "ə": 215,
      "ɞ": 216,
      "ɢ": 217,
      "ɪ": 218,
      "ɴ": 219,
      "ʀ": 220,
      "ʏ": 221,
      "ʖ": 222,
      "ʙ": 223,
      "ʚ": 224,
      "ʜ": 225,
      "ʟ": 226,
      "ʰ": 227,
      "ʳ": 228,
      "ʸ": 229,
      "˘": 230,
      "˙": 231,
      "ˡ": 232,
      "˵": 233,
      "˶": 234,
      "̀": 235,
      "́": 236,
      "̂": 237,
      "̃": 238,
      "̄": 239,
      "̅": 240,
      "̆": 241,
      "̇": 242,
      "̈": 243,
      "̉": 244,
      "̊": 245,
      "̋": 246,
      "̌": 247,
      "̍": 248,
      "̎": 249,
      "̏": 250,
      "̐": 251,
      "̑": 252,
      "̒": 253,
      "̓": 254,
      "̔": 255,
      "̕": 256,
      "̖": 257,
      "̗": 258,
      "̘": 259,
      "̙": 260,
      "̚": 261,
      "̛": 262,
      "̜": 263,
      "̝": 264,
      "̞": 265,
      "̟": 266,
      "̠": 267,
      "̡": 268,
      "̢": 269,
      "̣": 270,
      "̤": 271,
      "̥": 272,
      "̦": 273,
      "̧": 274,
      "̨": 275,
      "̩": 276,
      "̪": 277,
      "̫": 278,
      "̬": 279,
      "̭": 280,
      "̮": 281,
      "̯": 282,
      "̰": 283,
      "̱": 284,
      "̲": 285,
      "̳": 286,
      "̴": 287,
      "̵": 288,
      "̶": 289,
      "̷": 290,
      "̸": 291,
      "̹": 292,
      "̺": 293,
      "̻": 294,
      "̼": 295,
      "̽": 296,
      "̾": 297,
      "̿": 298,
      "̀": 299,
      "́": 300,
      "͂": 301,
      "̓": 302,
      "̈́": 303,
      "ͅ": 304,
      "͆": 305,
      "͇": 306,
      "͈": 307,
      "͉": 308,
      "͊": 309,
      "͋": 310,
      "͌": 311,
      "͍": 312,
      "͎": 313,
      "͐": 314,
      "͑": 315,
      "͒": 316,
      "͓": 317,
      "͔": 318,
      "͕": 319,
      "͖": 320,
      "͗": 321,
      "͘": 322,
      "͙": 323,
      "͚": 324,
      "͛": 325,
      "͜": 326,
      "͝": 327,
      "͠": 328,
      "͡": 329,
      "Α": 330,
      "Γ": 331,
      "Ε": 332,
      "Κ": 333,
      "Υ": 334,
      "Χ": 335,
      "ά": 336,
      "ή": 337,
      "ί": 338,
      "α": 339,
      "β": 340,
      "γ": 341,
      "δ": 342,
      "ε": 343,
      "ζ": 344,
      "η": 345,
      "θ": 346,
      "ι": 347,
      "κ": 348,
      "λ": 349,
      "μ": 350,
      "ν": 351,
      "ξ": 352,
      "ο": 353,
      "π": 354,
      "ρ": 355,
      "ς": 356,
      "σ": 357,
      "τ": 358,
      "υ": 359,
      "χ": 360,
      "ω": 361,
      "ό": 362,
      "ύ": 363,
      "Ѕ": 364,
      "І": 365,
      "А": 366,
      "Б": 367,
      "В": 368,
      "Г": 369,
      "Д": 370,
      "Е": 371,
      "Ж": 372,
      "З": 373,
      "И": 374,
      "Й": 375,
      "К": 376,
      "Л": 377,
      "М": 378,
      "Н": 379,
      "О": 380,
      "П": 381,
      "Р": 382,
      "С": 383,
      "Т": 384,
      "У": 385,
      "Ф": 386,
      "Х": 387,
      "Ц": 388,
      "Ч": 389,
      "Ш": 390,
      "Щ": 391,
      "Ы": 392,
      "Ь": 393,
      "Э": 394,
      "Ю": 395,
      "Я": 396,
      "а": 397,
      "б": 398,
      "в": 399,
      "г": 400,
      "д": 401,
      "е": 402,
      "ж": 403,
      "з": 404,
      "и": 405,
      "й": 406,
      "к": 407,
      "л": 408,
      "м": 409,
      "н": 410,
      "о": 411,
      "п": 412,
      "р": 413,
      "с": 414,
      "т": 415,
      "у": 416,
      "ф": 417,
      "х": 418,
      "ц": 419,
      "ч": 420,
      "ш": 421,
      "щ": 422,
      "ъ": 423,
      "ы": 424,
      "ь": 425,
      "э": 426,
      "ю": 427,
      "я": 428,
      "ё": 429,
      "є": 430,
      "ѕ": 431,
      "і": 432,
      "ї": 433,
      "ғ": 434,
      "ա": 435,
      "բ": 436,
      "պ": 437,
      "ռ": 438,
      "տ": 439,
      "ր": 440,
      "؟": 441,
      "أ": 442,
      "ا": 443,
      "ب": 444,
      "ت": 445,
      "ح": 446,
      "س": 447,
      "ع": 448,
      "غ": 449,
      "ل": 450,
      "م": 451,
      "ن": 452,
      "و": 453,
      "ي": 454,
      "َ": 455,
      "ُ": 456,
      "ِ": 457,
      "ّ": 458,
      "క": 459,
      "ಌ": 460,
      "ಕ": 461,
      "ඞ": 462,
      "෴": 463,
      "ั": 464,
      "ิ": 465,
      "๑": 466,
      "ᴀ": 467,
      "ᴄ": 468,
      "ᴅ": 469,
      "ᴇ": 470,
      "ᴊ": 471,
      "ᴋ": 472,
      "ᴍ": 473,
      "ᴏ": 474,
      "ᴗ": 475,
      "ᴘ": 476,
      "ᴛ": 477,
      "ᴜ": 478,
      "ᴠ": 479,
      "ᴡ": 480,
      "ᴵ": 481,
      "ᵃ": 482,
      "ᵇ": 483,
      "ᵈ": 484,
      "ᵉ": 485,
      "ᵍ": 486,
      "ᵐ": 487,
      "ᵒ": 488,
      "ᵗ": 489,
      "ᵘ": 490,
      "ᵛ": 491,
      "ᶜ": 492,
      "ᶠ": 493,
      "ᶦ": 494,
      "ᶻ": 495,
      "᷄": 496,
      "᷅": 497,
      "ạ": 498,
      "ả": 499,
      "ấ": 500,
      "ầ": 501,
      "ẫ": 502,
      "ậ": 503,
      "ắ": 504,
      "ằ": 505,
      "ẳ": 506,
      "ặ": 507,
      "ẹ": 508,
      "ẻ": 509,
      "ẽ": 510,
      "ế": 511,
      "ề": 512,
      "ể": 513,
      "ễ": 514,
      "ệ": 515,
      "ỉ": 516,
      "ị": 517,
      "ọ": 518,
      "ỏ": 519,
      "ố": 520,
      "ồ": 521,
      "ổ": 522,
      "ỗ": 523,
      "ộ": 524,
      "ớ": 525,
      "ờ": 526,
      "ở": 527,
      "ỡ": 528,
      "ợ": 529,
      "ụ": 530,
      "ủ": 531,
      "ứ": 532,
      "ừ": 533,
      "ử": 534,
      "ữ": 535,
      "ự": 536,
      "​": 537,
      "‍": 538,
      "‎": 539,
      "‐": 540,
      "‑": 541,
      "–": 542,
      "—": 543,
      "‘": 544,
      "’": 545,
      "‚": 546,
      "“": 547,
      "”": 548,
      "„": 549,
      "†": 550,
      "•": 551,
      "․": 552,
      "‥": 553,
      "…": 554,
      "‼": 555,
      "‽": 556,
      "‾": 557,
      "‿": 558,
      "⁄": 559,
      "⁍": 560,
      "⁎": 561,
      "⁠": 562,
      "⁻": 563,
      "ⁿ": 564,
      "₀": 565,
      "€": 566,
      "™": 567,
      "↑": 568,
      "→": 569,
      "↓": 570,
      "∀": 571,
      "∆": 572,
      "∇": 573,
      "√": 574,
      "∨": 575,
      "∩": 576,
      "∴": 577,
      "∼": 578,
      "≠": 579,
      "≦": 580,
      "≧": 581,
      "⊢": 582,
      "⋆": 583,
      "⍓": 584,
      "⏰": 585,
      "─": 586,
      "┌": 587,
      "┐": 588,
      "═": 589,
      "╹": 590,
      "█": 591,
      "■": 592,
      "□": 593,
      "▪": 594,
      "▲": 595,
      "►": 596,
      "▽": 597,
      "◀": 598,
      "◆": 599,
      "◇": 600,
      "◉": 601,
      "○": 602,
      "◌": 603,
      "◍": 604,
      "◎": 605,
      "●": 606,
      "◒": 607,
      "◕": 608,
      "◘": 609,
      "◜": 610,
      "◞": 611,
      "◠": 612,
      "◡": 613,
      "◯": 614,
      "◺": 615,
      "◻": 616,
      "◼": 617,
      "◾": 618,
      "◿": 619,
      "☀": 620,
      "☁": 621,
      "☂": 622,
      "★": 623,
      "☆": 624,
      "☠": 625,
      "☮": 626,
      "☹": 627,
      "☺": 628,
      "☻": 629,
      "♀": 630,
      "♂": 631,
      "♋": 632,
      "♏": 633,
      "♐": 634,
      "♒": 635,
      "♞": 636,
      "♠": 637,
      "♡": 638,
      "♢": 639,
      "♤": 640,
      "♥": 641,
      "♦": 642,
      "♧": 643,
      "♪": 644,
      "♫": 645,
      "♬": 646,
      "♭": 647,
      "⚔": 648,
      "⚕": 649,
      "⚖": 650,
      "⚠": 651,
      "⚡": 652,
      "⚪": 653,
      "⚫": 654,
      "⚰": 655,
      "⛏": 656,
      "⛑": 657,
      "⛰": 658,
      "⛷": 659,
      "✅": 660,
      "✊": 661,
      "✌": 662,
      "✧": 663,
      "✨": 664,
      "❄": 665,
      "❌": 666,
      "❒": 667,
      "❔": 668,
      "❣": 669,
      "❤": 670,
      "❷": 671,
      "⠀": 672,
      "⠁": 673,
      "⠂": 674,
      "⠃": 675,
      "⠄": 676,
      "⠅": 677,
      "⠇": 678,
      "⠈": 679,
      "⠉": 680,
      "⠊": 681,
      "⠋": 682,
      "⠌": 683,
      "⠍": 684,
      "⠐": 685,
      "⠑": 686,
      "⠓": 687,
      "⠕": 688,
      "⠖": 689,
      "⠘": 690,
      "⠙": 691,
      "⠛": 692,
      "⠜": 693,
      "⠝": 694,
      "⠞": 695,
      "⠠": 696,
      "⠢": 697,
      "⠣": 698,
      "⠤": 699,
      "⠧": 700,
      "⠨": 701,
      "⠪": 702,
      "⠫": 703,
      "⠬": 704,
      "⠭": 705,
      "⠱": 706,
      "⠲": 707,
      "⠳": 708,
      "⠵": 709,
      "⠶": 710,
      "⠷": 711,
      "⠸": 712,
      "⠹": 713,
      "⠺": 714,
      "⠽": 715,
      "⠾": 716,
      "⠿": 717,
      "⡀": 718,
      "⡁": 719,
      "⡂": 720,
      "⡃": 721,
      "⡄": 722,
      "⡅": 723,
      "⡆": 724,
      "⡇": 725,
      "⡈": 726,
      "⡉": 727,
      "⡊": 728,
      "⡌": 729,
      "⡐": 730,
      "⡑": 731,
      "⡒": 732,
      "⡔": 733,
      "⡕": 734,
      "⡖": 735,
      "⡗": 736,
      "⡘": 737,
      "⡙": 738,
      "⡚": 739,
      "⡜": 740,
      "⡞": 741,
      "⡟": 742,
      "⡠": 743,
      "⡢": 744,
      "⡣": 745,
      "⡤": 746,
      "⡥": 747,
      "⡨": 748,
      "⡪": 749,
      "⡫": 750,
      "⡮": 751,
      "⡯": 752,
      "⡰": 753,
      "⡱": 754,
      "⡲": 755,
      "⡳": 756,
      "⡴": 757,
      "⡶": 758,
      "⡷": 759,
      "⡸": 760,
      "⡹": 761,
      "⡺": 762,
      "⡼": 763,
      "⡽": 764,
      "⡾": 765,
      "⢀": 766,
      "⢁": 767,
      "⢅": 768,
      "⢆": 769,
      "⢇": 770,
      "⢊": 771,
      "⢌": 772,
      "⢍": 773,
      "⢎": 774,
      "⢑": 775,
      "⢕": 776,
      "⢗": 777,
      "⢚": 778,
      "⢜": 779,
      "⢝": 780,
      "⢠": 781,
      "⢤": 782,
      "⢦": 783,
      "⢨": 784,
      "⢪": 785,
      "⢮": 786,
      "⢯": 787,
      "⢰": 788,
      "⢱": 789,
      "⢳": 790,
      "⢵": 791,
      "⢸": 792,
      "⢽": 793,
      "⢾": 794,
      "⣀": 795,
      "⣂": 796,
      "⣃": 797,
      "⣄": 798,
      "⣆": 799,
      "⣊": 800,
      "⣋": 801,
      "⣌": 802,
      "⣎": 803,
      "⣏": 804,
      "⣒": 805,
      "⣓": 806,
      "⣔": 807,
      "⣕": 808,
      "⣖": 809,
      "⣗": 810,
      "⣘": 811,
      "⣜": 812,
      "⣝": 813,
      "⣞": 814,
      "⣟": 815,
      "⣠": 816,
      "⣡": 817,
      "⣣": 818,
      "⣤": 819,
      "⣧": 820,
      "⣫": 821,
      "⣯": 822,
      "⣳": 823,
      "⣶": 824,
      "⣷": 825,
      "⣸": 826,
      "⣹": 827,
      "⣼": 828,
      "⣾": 829,
      "⣿": 830,
      "⬛": 831,
      "⬜": 832,
      "⬧": 833,
      "⭐": 834,
      "、": 835,
      "。": 836,
      "々": 837,
      "》": 838,
      "「": 839,
      "」": 840,
      "】": 841,
      "〓": 842,
      "ぁ": 843,
      "あ": 844,
      "い": 845,
      "う": 846,
      "え": 847,
      "お": 848,
      "か": 849,
      "が": 850,
      "き": 851,
      "ぎ": 852,
      "く": 853,
      "ぐ": 854,
      "け": 855,
      "げ": 856,
      "こ": 857,
      "ご": 858,
      "さ": 859,
      "ざ": 860,
      "し": 861,
      "じ": 862,
      "す": 863,
      "ず": 864,
      "せ": 865,
      "そ": 866,
      "ぞ": 867,
      "た": 868,
      "だ": 869,
      "ち": 870,
      "っ": 871,
      "つ": 872,
      "づ": 873,
      "て": 874,
      "で": 875,
      "と": 876,
      "ど": 877,
      "な": 878,
      "に": 879,
      "ぬ": 880,
      "ね": 881,
      "の": 882,
      "は": 883,
      "ば": 884,
      "ぱ": 885,
      "ひ": 886,
      "び": 887,
      "ぴ": 888,
      "ふ": 889,
      "ぶ": 890,
      "ぷ": 891,
      "へ": 892,
      "べ": 893,
      "ぺ": 894,
      "ほ": 895,
      "ぼ": 896,
      "ぽ": 897,
      "ま": 898,
      "み": 899,
      "む": 900,
      "め": 901,
      "も": 902,
      "ゃ": 903,
      "や": 904,
      "ゅ": 905,
      "ゆ": 906,
      "ょ": 907,
      "よ": 908,
      "ら": 909,
      "り": 910,
      "る": 911,
      "れ": 912,
      "ろ": 913,
      "わ": 914,
      "を": 915,
      "ん": 916,
      "ゞ": 917,
      "ァ": 918,
      "ア": 919,
      "ィ": 920,
      "イ": 921,
      "ウ": 922,
      "エ": 923,
      "オ": 924,
      "カ": 925,
      "ガ": 926,
      "キ": 927,
      "ギ": 928,
      "ク": 929,
      "グ": 930,
      "ケ": 931,
      "ゲ": 932,
      "コ": 933,
      "ゴ": 934,
      "サ": 935,
      "シ": 936,
      "ジ": 937,
      "ス": 938,
      "ズ": 939,
      "セ": 940,
      "ソ": 941,
      "ゾ": 942,
      "タ": 943,
      "ダ": 944,
      "チ": 945,
      "ッ": 946,
      "ツ": 947,
      "テ": 948,
      "デ": 949,
      "ト": 950,
      "ド": 951,
      "ナ": 952,
      "ニ": 953,
      "ネ": 954,
      "ノ": 955,
      "ハ": 956,
      "バ": 957,
      "パ": 958,
      "ヒ": 959,
      "ビ": 960,
      "ピ": 961,
      "フ": 962,
      "ブ": 963,
      "プ": 964,
      "ヘ": 965,
      "ベ": 966,
      "ペ": 967,
      "ホ": 968,
      "ボ": 969,
      "ポ": 970,
      "マ": 971,
      "ミ": 972,
      "ム": 973,
      "メ": 974,
      "モ": 975,
      "ャ": 976,
      "ヤ": 977,
      "ュ": 978,
      "ユ": 979,
      "ョ": 980,
      "ヨ": 981,
      "ラ": 982,
      "リ": 983,
      "ル": 984,
      "レ": 985,
      "ロ": 986,
      "ヮ": 987,
      "ワ": 988,
      "ン": 989,
      "ヴ": 990,
      "・": 991,
      "ー": 992,
      "ヽ": 993,
      "ㄱ": 994,
      "ㄴ": 995,
      "ㄷ": 996,
      "ㅁ": 997,
      "ㅋ": 998,
      "ㅛ": 999,
      "一": 1000,
      "七": 1001,
      "万": 1002,
      "丈": 1003,
      "三": 1004,
      "上": 1005,
      "下": 1006,
      "不": 1007,
      "与": 1008,
      "专": 1009,
      "且": 1010,
      "世": 1011,
      "丘": 1012,
      "业": 1013,
      "东": 1014,
      "两": 1015,
      "严": 1016,
      "並": 1017,
      "个": 1018,
      "中": 1019,
      "丰": 1020,
      "串": 1021,
      "临": 1022,
      "丸": 1023,
      "丹": 1024,
      "为": 1025,
      "主": 1026,
      "举": 1027,
      "乃": 1028,
      "久": 1029,
      "么": 1030,
      "义": 1031,
      "之": 1032,
      "乎": 1033,
      "乐": 1034,
      "乖": 1035,
      "乗": 1036,
      "乘": 1037,
      "九": 1038,
      "也": 1039,
      "习": 1040,
      "乡": 1041,
      "书": 1042,
      "乱": 1043,
      "乳": 1044,
      "乾": 1045,
      "亂": 1046,
      "了": 1047,
      "予": 1048,
      "争": 1049,
      "事": 1050,
      "二": 1051,
      "于": 1052,
      "亏": 1053,
      "云": 1054,
      "互": 1055,
      "五": 1056,
      "井": 1057,
      "亚": 1058,
      "些": 1059,
      "亡": 1060,
      "交": 1061,
      "产": 1062,
      "享": 1063,
      "亮": 1064,
      "亲": 1065,
      "人": 1066,
      "亿": 1067,
      "什": 1068,
      "仁": 1069,
      "仅": 1070,
      "今": 1071,
      "介": 1072,
      "仍": 1073,
      "从": 1074,
      "仓": 1075,
      "仔": 1076,
      "仕": 1077,
      "他": 1078,
      "付": 1079,
      "代": 1080,
      "令": 1081,
      "以": 1082,
      "仪": 1083,
      "们": 1084,
      "件": 1085,
      "价": 1086,
      "任": 1087,
      "份": 1088,
      "仿": 1089,
      "伍": 1090,
      "伎": 1091,
      "休": 1092,
      "众": 1093,
      "优": 1094,
      "伙": 1095,
      "会": 1096,
      "伝": 1097,
      "伞": 1098,
      "传": 1099,
      "伤": 1100,
      "伴": 1101,
      "伸": 1102,
      "似": 1103,
      "伽": 1104,
      "但": 1105,
      "位": 1106,
      "低": 1107,
      "住": 1108,
      "佐": 1109,
      "体": 1110,
      "何": 1111,
      "作": 1112,
      "你": 1113,
      "佣": 1114,
      "使": 1115,
      "來": 1116,
      "例": 1117,
      "侍": 1118,
      "供": 1119,
      "依": 1120,
      "侧": 1121,
      "侵": 1122,
      "便": 1123,
      "俗": 1124,
      "保": 1125,
      "信": 1126,
      "俩": 1127,
      "修": 1128,
      "俯": 1129,
      "俺": 1130,
      "個": 1131,
      "們": 1132,
      "倒": 1133,
      "候": 1134,
      "借": 1135,
      "値": 1136,
      "值": 1137,
      "假": 1138,
      "做": 1139,
      "停": 1140,
      "偵": 1141,
      "偷": 1142,
      "偽": 1143,
      "傍": 1144,
      "備": 1145,
      "催": 1146,
      "傳": 1147,
      "傷": 1148,
      "像": 1149,
      "僕": 1150,
      "儀": 1151,
      "優": 1152,
      "儿": 1153,
      "允": 1154,
      "元": 1155,
      "兄": 1156,
      "充": 1157,
      "先": 1158,
      "光": 1159,
      "克": 1160,
      "免": 1161,
      "児": 1162,
      "兔": 1163,
      "入": 1164,
      "內": 1165,
      "全": 1166,
      "兩": 1167,
      "八": 1168,
      "公": 1169,
      "共": 1170,
      "关": 1171,
      "兴": 1172,
      "兵": 1173,
      "其": 1174,
      "具": 1175,
      "典": 1176,
      "养": 1177,
      "内": 1178,
      "再": 1179,
      "写": 1180,
      "军": 1181,
      "农": 1182,
      "冲": 1183,
      "决": 1184,
      "况": 1185,
      "冷": 1186,
      "冻": 1187,
      "准": 1188,
      "凉": 1189,
      "凌": 1190,
      "减": 1191,
      "凝": 1192,
      "几": 1193,
      "処": 1194,
      "凭": 1195,
      "出": 1196,
      "击": 1197,
      "刀": 1198,
      "分": 1199,
      "切": 1200,
      "划": 1201,
      "列": 1202,
      "则": 1203,
      "刚": 1204,
      "初": 1205,
      "利": 1206,
      "别": 1207,
      "刮": 1208,
      "到": 1209,
      "制": 1210,
      "刺": 1211,
      "刻": 1212,
      "前": 1213,
      "剑": 1214,
      "剛": 1215,
      "剧": 1216,
      "剩": 1217,
      "副": 1218,
      "力": 1219,
      "办": 1220,
      "功": 1221,
      "加": 1222,
      "务": 1223,
      "动": 1224,
      "助": 1225,
      "努": 1226,
      "劲": 1227,
      "势": 1228,
      "勇": 1229,
      "勉": 1230,
      "動": 1231,
      "務": 1232,
      "包": 1233,
      "化": 1234,
      "北": 1235,
      "匯": 1236,
      "区": 1237,
      "医": 1238,
      "十": 1239,
      "千": 1240,
      "升": 1241,
      "午": 1242,
      "半": 1243,
      "华": 1244,
      "协": 1245,
      "单": 1246,
      "卖": 1247,
      "南": 1248,
      "占": 1249,
      "卡": 1250,
      "卧": 1251,
      "卫": 1252,
      "印": 1253,
      "危": 1254,
      "即": 1255,
      "却": 1256,
      "卵": 1257,
      "卸": 1258,
      "卻": 1259,
      "厂": 1260,
      "厅": 1261,
      "历": 1262,
      "压": 1263,
      "厚": 1264,
      "原": 1265,
      "去": 1266,
      "参": 1267,
      "又": 1268,
      "及": 1269,
      "友": 1270,
      "双": 1271,
      "反": 1272,
      "収": 1273,
      "发": 1274,
      "取": 1275,
      "受": 1276,
      "变": 1277,
      "叛": 1278,
      "口": 1279,
      "古": 1280,
      "句": 1281,
      "另": 1282,
      "只": 1283,
      "叫": 1284,
      "可": 1285,
      "台": 1286,
      "史": 1287,
      "右": 1288,
      "号": 1289,
      "司": 1290,
      "叹": 1291,
      "吃": 1292,
      "各": 1293,
      "合": 1294,
      "吉": 1295,
      "同": 1296,
      "名": 1297,
      "后": 1298,
      "吐": 1299,
      "向": 1300,
      "吓": 1301,
      "吗": 1302,
      "君": 1303,
      "吞": 1304,
      "吟": 1305,
      "否": 1306,
      "吧": 1307,
      "听": 1308,
      "吮": 1309,
      "启": 1310,
      "吸": 1311,
      "吹": 1312,
      "吻": 1313,
      "吼": 1314,
      "呃": 1315,
      "呆": 1316,
      "告": 1317,
      "员": 1318,
      "呢": 1319,
      "周": 1320,
      "味": 1321,
      "呵": 1322,
      "呻": 1323,
      "呼": 1324,
      "命": 1325,
      "咋": 1326,
      "和": 1327,
      "品": 1328,
      "哇": 1329,
      "哈": 1330,
      "响": 1331,
      "哎": 1332,
      "哟": 1333,
      "哦": 1334,
      "哪": 1335,
      "唇": 1336,
      "唏": 1337,
      "唤": 1338,
      "唯": 1339,
      "唱": 1340,
      "唸": 1341,
      "商": 1342,
      "啊": 1343,
      "問": 1344,
      "啥": 1345,
      "啦": 1346,
      "善": 1347,
      "喊": 1348,
      "喋": 1349,
      "喘": 1350,
      "喚": 1351,
      "喜": 1352,
      "喝": 1353,
      "喧": 1354,
      "喽": 1355,
      "嗎": 1356,
      "嗚": 1357,
      "嗯": 1358,
      "嘈": 1359,
      "嘗": 1360,
      "嘘": 1361,
      "嘛": 1362,
      "嘞": 1363,
      "嘩": 1364,
      "嘴": 1365,
      "嘿": 1366,
      "噛": 1367,
      "噢": 1368,
      "器": 1369,
      "噪": 1370,
      "噬": 1371,
      "囁": 1372,
      "四": 1373,
      "回": 1374,
      "因": 1375,
      "园": 1376,
      "困": 1377,
      "図": 1378,
      "围": 1379,
      "固": 1380,
      "国": 1381,
      "图": 1382,
      "圈": 1383,
      "國": 1384,
      "圍": 1385,
      "土": 1386,
      "在": 1387,
      "地": 1388,
      "场": 1389,
      "址": 1390,
      "均": 1391,
      "坊": 1392,
      "坍": 1393,
      "坏": 1394,
      "坐": 1395,
      "坑": 1396,
      "块": 1397,
      "坚": 1398,
      "坠": 1399,
      "坦": 1400,
      "垂": 1401,
      "型": 1402,
      "垒": 1403,
      "埋": 1404,
      "城": 1405,
      "域": 1406,
      "基": 1407,
      "堂": 1408,
      "堅": 1409,
      "堆": 1410,
      "堡": 1411,
      "堪": 1412,
      "報": 1413,
      "場": 1414,
      "塔": 1415,
      "塞": 1416,
      "填": 1417,
      "境": 1418,
      "墓": 1419,
      "増": 1420,
      "墙": 1421,
      "墨": 1422,
      "壁": 1423,
      "壊": 1424,
      "士": 1425,
      "壮": 1426,
      "声": 1427,
      "売": 1428,
      "壳": 1429,
      "处": 1430,
      "备": 1431,
      "変": 1432,
      "复": 1433,
      "外": 1434,
      "多": 1435,
      "夜": 1436,
      "够": 1437,
      "夢": 1438,
      "大": 1439,
      "天": 1440,
      "太": 1441,
      "夫": 1442,
      "央": 1443,
      "失": 1444,
      "头": 1445,
      "夷": 1446,
      "夸": 1447,
      "夺": 1448,
      "夾": 1449,
      "奇": 1450,
      "奈": 1451,
      "奋": 1452,
      "奖": 1453,
      "套": 1454,
      "奮": 1455,
      "女": 1456,
      "奴": 1457,
      "奶": 1458,
      "奸": 1459,
      "她": 1460,
      "好": 1461,
      "如": 1462,
      "妈": 1463,
      "妙": 1464,
      "妹": 1465,
      "妻": 1466,
      "始": 1467,
      "姐": 1468,
      "委": 1469,
      "姦": 1470,
      "姿": 1471,
      "威": 1472,
      "娘": 1473,
      "婉": 1474,
      "婚": 1475,
      "婪": 1476,
      "媚": 1477,
      "嫌": 1478,
      "子": 1479,
      "字": 1480,
      "存": 1481,
      "学": 1482,
      "孩": 1483,
      "學": 1484,
      "它": 1485,
      "宇": 1486,
      "守": 1487,
      "安": 1488,
      "完": 1489,
      "官": 1490,
      "宙": 1491,
      "定": 1492,
      "宜": 1493,
      "宝": 1494,
      "实": 1495,
      "実": 1496,
      "客": 1497,
      "宣": 1498,
      "室": 1499,
      "宮": 1500,
      "害": 1501,
      "家": 1502,
      "容": 1503,
      "宽": 1504,
      "宿": 1505,
      "寄": 1506,
      "密": 1507,
      "富": 1508,
      "察": 1509,
      "實": 1510,
      "对": 1511,
      "寻": 1512,
      "导": 1513,
      "対": 1514,
      "寿": 1515,
      "封": 1516,
      "専": 1517,
      "射": 1518,
      "将": 1519,
      "尋": 1520,
      "對": 1521,
      "小": 1522,
      "少": 1523,
      "尔": 1524,
      "尖": 1525,
      "尝": 1526,
      "尤": 1527,
      "尬": 1528,
      "就": 1529,
      "尴": 1530,
      "尷": 1531,
      "尸": 1532,
      "尻": 1533,
      "尼": 1534,
      "尽": 1535,
      "尾": 1536,
      "局": 1537,
      "屁": 1538,
      "层": 1539,
      "居": 1540,
      "屈": 1541,
      "届": 1542,
      "屋": 1543,
      "屎": 1544,
      "展": 1545,
      "属": 1546,
      "屠": 1547,
      "履": 1548,
      "山": 1549,
      "屿": 1550,
      "岁": 1551,
      "岛": 1552,
      "岩": 1553,
      "岸": 1554,
      "峡": 1555,
      "島": 1556,
      "峻": 1557,
      "川": 1558,
      "工": 1559,
      "左": 1560,
      "巧": 1561,
      "巨": 1562,
      "差": 1563,
      "己": 1564,
      "已": 1565,
      "巴": 1566,
      "巷": 1567,
      "币": 1568,
      "市": 1569,
      "布": 1570,
      "帆": 1571,
      "师": 1572,
      "希": 1573,
      "帕": 1574,
      "帝": 1575,
      "带": 1576,
      "席": 1577,
      "帮": 1578,
      "帰": 1579,
      "帶": 1580,
      "常": 1581,
      "帽": 1582,
      "幅": 1583,
      "幕": 1584,
      "干": 1585,
      "平": 1586,
      "年": 1587,
      "并": 1588,
      "幸": 1589,
      "幻": 1590,
      "幼": 1591,
      "幽": 1592,
      "幾": 1593,
      "广": 1594,
      "床": 1595,
      "序": 1596,
      "库": 1597,
      "应": 1598,
      "底": 1599,
      "店": 1600,
      "府": 1601,
      "废": 1602,
      "度": 1603,
      "座": 1604,
      "廃": 1605,
      "廊": 1606,
      "廓": 1607,
      "延": 1608,
      "建": 1609,
      "开": 1610,
      "异": 1611,
      "弃": 1612,
      "弊": 1613,
      "式": 1614,
      "引": 1615,
      "弟": 1616,
      "张": 1617,
      "弩": 1618,
      "張": 1619,
      "強": 1620,
      "弹": 1621,
      "强": 1622,
      "弾": 1623,
      "归": 1624,
      "当": 1625,
      "录": 1626,
      "形": 1627,
      "彩": 1628,
      "影": 1629,
      "役": 1630,
      "彻": 1631,
      "彼": 1632,
      "往": 1633,
      "征": 1634,
      "径": 1635,
      "待": 1636,
      "很": 1637,
      "律": 1638,
      "後": 1639,
      "徒": 1640,
      "従": 1641,
      "得": 1642,
      "從": 1643,
      "御": 1644,
      "復": 1645,
      "微": 1646,
      "徴": 1647,
      "徹": 1648,
      "徽": 1649,
      "心": 1650,
      "必": 1651,
      "忆": 1652,
      "忍": 1653,
      "志": 1654,
      "忘": 1655,
      "応": 1656,
      "忠": 1657,
      "快": 1658,
      "念": 1659,
      "怀": 1660,
      "态": 1661,
      "怎": 1662,
      "怕": 1663,
      "怖": 1664,
      "思": 1665,
      "急": 1666,
      "性": 1667,
      "怪": 1668,
      "总": 1669,
      "恋": 1670,
      "恍": 1671,
      "恐": 1672,
      "恢": 1673,
      "恨": 1674,
      "息": 1675,
      "恶": 1676,
      "悅": 1677,
      "悉": 1678,
      "悠": 1679,
      "患": 1680,
      "悦": 1681,
      "您": 1682,
      "悬": 1683,
      "悲": 1684,
      "情": 1685,
      "惊": 1686,
      "惑": 1687,
      "惚": 1688,
      "惜": 1689,
      "惨": 1690,
      "惫": 1691,
      "惯": 1692,
      "惰": 1693,
      "想": 1694,
      "愈": 1695,
      "愉": 1696,
      "意": 1697,
      "愛": 1698,
      "感": 1699,
      "愧": 1700,
      "愿": 1701,
      "態": 1702,
      "慌": 1703,
      "慎": 1704,
      "慚": 1705,
      "慢": 1706,
      "慧": 1707,
      "慰": 1708,
      "慾": 1709,
      "憐": 1710,
      "憶": 1711,
      "懂": 1712,
      "應": 1713,
      "懒": 1714,
      "戏": 1715,
      "成": 1716,
      "我": 1717,
      "戒": 1718,
      "或": 1719,
      "战": 1720,
      "戦": 1721,
      "截": 1722,
      "户": 1723,
      "戻": 1724,
      "房": 1725,
      "所": 1726,
      "手": 1727,
      "才": 1728,
      "扎": 1729,
      "打": 1730,
      "扔": 1731,
      "托": 1732,
      "扛": 1733,
      "执": 1734,
      "扩": 1735,
      "扫": 1736,
      "扭": 1737,
      "批": 1738,
      "找": 1739,
      "承": 1740,
      "技": 1741,
      "抄": 1742,
      "把": 1743,
      "抑": 1744,
      "抓": 1745,
      "投": 1746,
      "抖": 1747,
      "抗": 1748,
      "抚": 1749,
      "抢": 1750,
      "护": 1751,
      "报": 1752,
      "抬": 1753,
      "抱": 1754,
      "抵": 1755,
      "抹": 1756,
      "押": 1757,
      "抽": 1758,
      "担": 1759,
      "拆": 1760,
      "拉": 1761,
      "拐": 1762,
      "拖": 1763,
      "招": 1764,
      "拥": 1765,
      "拦": 1766,
      "拨": 1767,
      "择": 1768,
      "拷": 1769,
      "拿": 1770,
      "持": 1771,
      "挂": 1772,
      "指": 1773,
      "按": 1774,
      "挑": 1775,
      "挟": 1776,
      "挡": 1777,
      "挤": 1778,
      "挥": 1779,
      "挨": 1780,
      "振": 1781,
      "挺": 1782,
      "捂": 1783,
      "捉": 1784,
      "捏": 1785,
      "捕": 1786,
      "损": 1787,
      "捡": 1788,
      "换": 1789,
      "捨": 1790,
      "据": 1791,
      "掉": 1792,
      "掌": 1793,
      "排": 1794,
      "掘": 1795,
      "掙": 1796,
      "探": 1797,
      "接": 1798,
      "控": 1799,
      "推": 1800,
      "掩": 1801,
      "措": 1802,
      "掴": 1803,
      "揉": 1804,
      "描": 1805,
      "提": 1806,
      "插": 1807,
      "揚": 1808,
      "握": 1809,
      "援": 1810,
      "揺": 1811,
      "搁": 1812,
      "搅": 1813,
      "搓": 1814,
      "搖": 1815,
      "搜": 1816,
      "搾": 1817,
      "摂": 1818,
      "摆": 1819,
      "摇": 1820,
      "摔": 1821,
      "摧": 1822,
      "摩": 1823,
      "摸": 1824,
      "撃": 1825,
      "撕": 1826,
      "撤": 1827,
      "撫": 1828,
      "播": 1829,
      "擇": 1830,
      "擊": 1831,
      "操": 1832,
      "擎": 1833,
      "擦": 1834,
      "攪": 1835,
      "支": 1836,
      "收": 1837,
      "改": 1838,
      "攻": 1839,
      "放": 1840,
      "政": 1841,
      "故": 1842,
      "效": 1843,
      "敌": 1844,
      "敏": 1845,
      "救": 1846,
      "敢": 1847,
      "散": 1848,
      "敬": 1849,
      "数": 1850,
      "敲": 1851,
      "整": 1852,
      "敵": 1853,
      "文": 1854,
      "斗": 1855,
      "料": 1856,
      "断": 1857,
      "斯": 1858,
      "新": 1859,
      "斷": 1860,
      "方": 1861,
      "於": 1862,
      "施": 1863,
      "旁": 1864,
      "旅": 1865,
      "旋": 1866,
      "族": 1867,
      "无": 1868,
      "既": 1869,
      "日": 1870,
      "旧": 1871,
      "旨": 1872,
      "早": 1873,
      "时": 1874,
      "明": 1875,
      "昏": 1876,
      "易": 1877,
      "星": 1878,
      "映": 1879,
      "春": 1880,
      "昨": 1881,
      "是": 1882,
      "显": 1883,
      "時": 1884,
      "晃": 1885,
      "晕": 1886,
      "晚": 1887,
      "晨": 1888,
      "普": 1889,
      "景": 1890,
      "晴": 1891,
      "晶": 1892,
      "智": 1893,
      "暂": 1894,
      "暗": 1895,
      "暢": 1896,
      "暴": 1897,
      "曲": 1898,
      "曳": 1899,
      "更": 1900,
      "書": 1901,
      "曾": 1902,
      "最": 1903,
      "會": 1904,
      "月": 1905,
      "有": 1906,
      "朋": 1907,
      "服": 1908,
      "望": 1909,
      "朝": 1910,
      "期": 1911,
      "木": 1912,
      "未": 1913,
      "本": 1914,
      "札": 1915,
      "术": 1916,
      "朵": 1917,
      "机": 1918,
      "杀": 1919,
      "杂": 1920,
      "杆": 1921,
      "材": 1922,
      "村": 1923,
      "束": 1924,
      "条": 1925,
      "来": 1926,
      "東": 1927,
      "板": 1928,
      "极": 1929,
      "析": 1930,
      "林": 1931,
      "枚": 1932,
      "果": 1933,
      "枪": 1934,
      "枯": 1935,
      "架": 1936,
      "某": 1937,
      "染": 1938,
      "柔": 1939,
      "柜": 1940,
      "查": 1941,
      "柱": 1942,
      "栄": 1943,
      "标": 1944,
      "树": 1945,
      "校": 1946,
      "样": 1947,
      "核": 1948,
      "根": 1949,
      "格": 1950,
      "案": 1951,
      "桌": 1952,
      "桥": 1953,
      "梯": 1954,
      "械": 1955,
      "检": 1956,
      "棄": 1957,
      "棒": 1958,
      "森": 1959,
      "棱": 1960,
      "棵": 1961,
      "棺": 1962,
      "植": 1963,
      "楚": 1964,
      "業": 1965,
      "楼": 1966,
      "楽": 1967,
      "概": 1968,
      "様": 1969,
      "槽": 1970,
      "樂": 1971,
      "標": 1972,
      "模": 1973,
      "樣": 1974,
      "横": 1975,
      "橋": 1976,
      "橙": 1977,
      "機": 1978,
      "次": 1979,
      "欢": 1980,
      "欲": 1981,
      "款": 1982,
      "歉": 1983,
      "歌": 1984,
      "歡": 1985,
      "止": 1986,
      "正": 1987,
      "此": 1988,
      "步": 1989,
      "武": 1990,
      "歧": 1991,
      "歳": 1992,
      "死": 1993,
      "殊": 1994,
      "残": 1995,
      "殖": 1996,
      "殴": 1997,
      "段": 1998,
      "毁": 1999,
      "母": 2000,
      "每": 2001,
      "毒": 2002,
      "比": 2003,
      "毕": 2004,
      "毛": 2005,
      "毫": 2006,
      "民": 2007,
      "气": 2008,
      "気": 2009,
      "氣": 2010,
      "水": 2011,
      "永": 2012,
      "汁": 2013,
      "求": 2014,
      "汇": 2015,
      "汗": 2016,
      "江": 2017,
      "池": 2018,
      "決": 2019,
      "汽": 2020,
      "沉": 2021,
      "沒": 2022,
      "沖": 2023,
      "沙": 2024,
      "没": 2025,
      "河": 2026,
      "油": 2027,
      "治": 2028,
      "沿": 2029,
      "泄": 2030,
      "泉": 2031,
      "泊": 2032,
      "法": 2033,
      "泡": 2034,
      "波": 2035,
      "泣": 2036,
      "泥": 2037,
      "注": 2038,
      "泳": 2039,
      "泵": 2040,
      "洋": 2041,
      "洗": 2042,
      "洞": 2043,
      "活": 2044,
      "派": 2045,
      "流": 2046,
      "浅": 2047,
      "测": 2048,
      "济": 2049,
      "浑": 2050,
      "浮": 2051,
      "海": 2052,
      "涂": 2053,
      "消": 2054,
      "涉": 2055,
      "涙": 2056,
      "液": 2057,
      "淚": 2058,
      "淨": 2059,
      "淫": 2060,
      "深": 2061,
      "混": 2062,
      "清": 2063,
      "渉": 2064,
      "渐": 2065,
      "渔": 2066,
      "渡": 2067,
      "温": 2068,
      "港": 2069,
      "渴": 2070,
      "游": 2071,
      "湔": 2072,
      "満": 2073,
      "溃": 2074,
      "源": 2075,
      "準": 2076,
      "溫": 2077,
      "滅": 2078,
      "滑": 2079,
      "滚": 2080,
      "满": 2081,
      "滿": 2082,
      "漂": 2083,
      "演": 2084,
      "漠": 2085,
      "漫": 2086,
      "漸": 2087,
      "潔": 2088,
      "潜": 2089,
      "潮": 2090,
      "澪": 2091,
      "激": 2092,
      "濃": 2093,
      "濕": 2094,
      "濡": 2095,
      "火": 2096,
      "灭": 2097,
      "灯": 2098,
      "灰": 2099,
      "灾": 2100,
      "炫": 2101,
      "炮": 2102,
      "炸": 2103,
      "点": 2104,
      "為": 2105,
      "烈": 2106,
      "烏": 2107,
      "烟": 2108,
      "烦": 2109,
      "烧": 2110,
      "热": 2111,
      "無": 2112,
      "焰": 2113,
      "然": 2114,
      "照": 2115,
      "熄": 2116,
      "熟": 2117,
      "熱": 2118,
      "燃": 2119,
      "爆": 2120,
      "爬": 2121,
      "爱": 2122,
      "父": 2123,
      "爽": 2124,
      "片": 2125,
      "牌": 2126,
      "牙": 2127,
      "牛": 2128,
      "物": 2129,
      "牲": 2130,
      "牵": 2131,
      "特": 2132,
      "牺": 2133,
      "牽": 2134,
      "犯": 2135,
      "状": 2136,
      "犹": 2137,
      "狂": 2138,
      "狐": 2139,
      "狗": 2140,
      "狙": 2141,
      "狡": 2142,
      "独": 2143,
      "猥": 2144,
      "献": 2145,
      "猾": 2146,
      "獨": 2147,
      "獲": 2148,
      "率": 2149,
      "玉": 2150,
      "王": 2151,
      "玛": 2152,
      "玩": 2153,
      "环": 2154,
      "现": 2155,
      "玲": 2156,
      "現": 2157,
      "球": 2158,
      "理": 2159,
      "琐": 2160,
      "瑟": 2161,
      "璃": 2162,
      "瓏": 2163,
      "瓶": 2164,
      "甘": 2165,
      "甚": 2166,
      "生": 2167,
      "用": 2168,
      "田": 2169,
      "由": 2170,
      "甲": 2171,
      "电": 2172,
      "男": 2173,
      "画": 2174,
      "畅": 2175,
      "界": 2176,
      "留": 2177,
      "異": 2178,
      "當": 2179,
      "疑": 2180,
      "疗": 2181,
      "疯": 2182,
      "疲": 2183,
      "疾": 2184,
      "病": 2185,
      "症": 2186,
      "痕": 2187,
      "痴": 2188,
      "療": 2189,
      "癌": 2190,
      "発": 2191,
      "登": 2192,
      "發": 2193,
      "白": 2194,
      "百": 2195,
      "的": 2196,
      "皆": 2197,
      "皇": 2198,
      "皮": 2199,
      "益": 2200,
      "监": 2201,
      "盒": 2202,
      "盔": 2203,
      "盖": 2204,
      "盗": 2205,
      "盘": 2206,
      "盟": 2207,
      "目": 2208,
      "盯": 2209,
      "直": 2210,
      "相": 2211,
      "省": 2212,
      "眉": 2213,
      "看": 2214,
      "真": 2215,
      "眠": 2216,
      "眨": 2217,
      "眼": 2218,
      "眾": 2219,
      "着": 2220,
      "睁": 2221,
      "睡": 2222,
      "瞬": 2223,
      "瞳": 2224,
      "矜": 2225,
      "知": 2226,
      "短": 2227,
      "石": 2228,
      "码": 2229,
      "砌": 2230,
      "砍": 2231,
      "研": 2232,
      "破": 2233,
      "砸": 2234,
      "础": 2235,
      "硫": 2236,
      "硬": 2237,
      "确": 2238,
      "碎": 2239,
      "碑": 2240,
      "確": 2241,
      "磁": 2242,
      "磺": 2243,
      "示": 2244,
      "礼": 2245,
      "社": 2246,
      "祝": 2247,
      "神": 2248,
      "祭": 2249,
      "禁": 2250,
      "离": 2251,
      "秀": 2252,
      "私": 2253,
      "秋": 2254,
      "种": 2255,
      "科": 2256,
      "秒": 2257,
      "秘": 2258,
      "积": 2259,
      "称": 2260,
      "移": 2261,
      "程": 2262,
      "種": 2263,
      "稳": 2264,
      "究": 2265,
      "空": 2266,
      "穿": 2267,
      "突": 2268,
      "窗": 2269,
      "窝": 2270,
      "立": 2271,
      "站": 2272,
      "竟": 2273,
      "章": 2274,
      "童": 2275,
      "端": 2276,
      "笑": 2277,
      "笔": 2278,
      "符": 2279,
      "第": 2280,
      "等": 2281,
      "筋": 2282,
      "筑": 2283,
      "筒": 2284,
      "答": 2285,
      "筛": 2286,
      "签": 2287,
      "简": 2288,
      "算": 2289,
      "管": 2290,
      "箭": 2291,
      "箱": 2292,
      "節": 2293,
      "篝": 2294,
      "籍": 2295,
      "米": 2296,
      "类": 2297,
      "粗": 2298,
      "粮": 2299,
      "粹": 2300,
      "精": 2301,
      "糊": 2302,
      "系": 2303,
      "約": 2304,
      "紅": 2305,
      "級": 2306,
      "素": 2307,
      "索": 2308,
      "紧": 2309,
      "紫": 2310,
      "累": 2311,
      "細": 2312,
      "紹": 2313,
      "終": 2314,
      "絆": 2315,
      "経": 2316,
      "結": 2317,
      "給": 2318,
      "統": 2319,
      "絶": 2320,
      "綃": 2321,
      "經": 2322,
      "続": 2323,
      "綱": 2324,
      "綺": 2325,
      "緊": 2326,
      "緑": 2327,
      "緒": 2328,
      "線": 2329,
      "締": 2330,
      "編": 2331,
      "緩": 2332,
      "練": 2333,
      "縦": 2334,
      "縫": 2335,
      "繁": 2336,
      "繰": 2337,
      "繼": 2338,
      "續": 2339,
      "红": 2340,
      "约": 2341,
      "级": 2342,
      "纪": 2343,
      "纬": 2344,
      "纯": 2345,
      "纳": 2346,
      "纷": 2347,
      "纸": 2348,
      "线": 2349,
      "练": 2350,
      "组": 2351,
      "细": 2352,
      "织": 2353,
      "终": 2354,
      "经": 2355,
      "结": 2356,
      "给": 2357,
      "绝": 2358,
      "统": 2359,
      "继": 2360,
      "绪": 2361,
      "续": 2362,
      "维": 2363,
      "绿": 2364,
      "缓": 2365,
      "缘": 2366,
      "缝": 2367,
      "缠": 2368,
      "缩": 2369,
      "缺": 2370,
      "罐": 2371,
      "罢": 2372,
      "置": 2373,
      "署": 2374,
      "美": 2375,
      "羞": 2376,
      "群": 2377,
      "羨": 2378,
      "義": 2379,
      "羽": 2380,
      "習": 2381,
      "翔": 2382,
      "翻": 2383,
      "翼": 2384,
      "老": 2385,
      "考": 2386,
      "者": 2387,
      "而": 2388,
      "耳": 2389,
      "耶": 2390,
      "耻": 2391,
      "聊": 2392,
      "职": 2393,
      "联": 2394,
      "聞": 2395,
      "聪": 2396,
      "聲": 2397,
      "聴": 2398,
      "職": 2399,
      "聽": 2400,
      "肉": 2401,
      "肌": 2402,
      "股": 2403,
      "肤": 2404,
      "肩": 2405,
      "育": 2406,
      "胁": 2407,
      "背": 2408,
      "胜": 2409,
      "胞": 2410,
      "胯": 2411,
      "胸": 2412,
      "胺": 2413,
      "能": 2414,
      "脅": 2415,
      "脉": 2416,
      "脏": 2417,
      "脑": 2418,
      "脚": 2419,
      "脫": 2420,
      "脱": 2421,
      "脳": 2422,
      "脸": 2423,
      "腔": 2424,
      "腕": 2425,
      "腰": 2426,
      "腹": 2427,
      "腿": 2428,
      "膚": 2429,
      "膝": 2430,
      "臂": 2431,
      "臉": 2432,
      "臓": 2433,
      "自": 2434,
      "至": 2435,
      "致": 2436,
      "興": 2437,
      "舌": 2438,
      "舍": 2439,
      "舐": 2440,
      "舒": 2441,
      "舔": 2442,
      "舞": 2443,
      "航": 2444,
      "般": 2445,
      "舰": 2446,
      "舱": 2447,
      "船": 2448,
      "艇": 2449,
      "艘": 2450,
      "艦": 2451,
      "良": 2452,
      "艰": 2453,
      "色": 2454,
      "节": 2455,
      "芒": 2456,
      "芯": 2457,
      "花": 2458,
      "芽": 2459,
      "苏": 2460,
      "若": 2461,
      "英": 2462,
      "范": 2463,
      "荒": 2464,
      "荣": 2465,
      "药": 2466,
      "莉": 2467,
      "莫": 2468,
      "获": 2469,
      "菜": 2470,
      "華": 2471,
      "萌": 2472,
      "营": 2473,
      "萬": 2474,
      "落": 2475,
      "葉": 2476,
      "著": 2477,
      "葬": 2478,
      "蒸": 2479,
      "蓝": 2480,
      "蔼": 2481,
      "蕩": 2482,
      "薄": 2483,
      "藏": 2484,
      "虐": 2485,
      "虑": 2486,
      "虚": 2487,
      "虜": 2488,
      "虫": 2489,
      "虽": 2490,
      "蛋": 2491,
      "蜂": 2492,
      "血": 2493,
      "行": 2494,
      "術": 2495,
      "街": 2496,
      "衣": 2497,
      "补": 2498,
      "表": 2499,
      "袋": 2500,
      "被": 2501,
      "袭": 2502,
      "裁": 2503,
      "裂": 2504,
      "装": 2505,
      "裏": 2506,
      "裕": 2507,
      "補": 2508,
      "裡": 2509,
      "裹": 2510,
      "西": 2511,
      "要": 2512,
      "覆": 2513,
      "見": 2514,
      "覚": 2515,
      "親": 2516,
      "覺": 2517,
      "觀": 2518,
      "见": 2519,
      "观": 2520,
      "规": 2521,
      "视": 2522,
      "觉": 2523,
      "角": 2524,
      "解": 2525,
      "触": 2526,
      "言": 2527,
      "討": 2528,
      "記": 2529,
      "許": 2530,
      "詩": 2531,
      "話": 2532,
      "該": 2533,
      "詳": 2534,
      "誉": 2535,
      "認": 2536,
      "誘": 2537,
      "語": 2538,
      "誠": 2539,
      "說": 2540,
      "説": 2541,
      "読": 2542,
      "調": 2543,
      "謎": 2544,
      "警": 2545,
      "議": 2546,
      "變": 2547,
      "讓": 2548,
      "讚": 2549,
      "计": 2550,
      "订": 2551,
      "认": 2552,
      "让": 2553,
      "训": 2554,
      "议": 2555,
      "讯": 2556,
      "记": 2557,
      "讶": 2558,
      "许": 2559,
      "论": 2560,
      "设": 2561,
      "证": 2562,
      "识": 2563,
      "诉": 2564,
      "试": 2565,
      "话": 2566,
      "诡": 2567,
      "该": 2568,
      "语": 2569,
      "误": 2570,
      "说": 2571,
      "请": 2572,
      "诸": 2573,
      "读": 2574,
      "谁": 2575,
      "调": 2576,
      "谈": 2577,
      "谍": 2578,
      "谓": 2579,
      "谜": 2580,
      "谢": 2581,
      "谷": 2582,
      "豊": 2583,
      "象": 2584,
      "豫": 2585,
      "貌": 2586,
      "貞": 2587,
      "負": 2588,
      "貧": 2589,
      "貫": 2590,
      "責": 2591,
      "貴": 2592,
      "貼": 2593,
      "賢": 2594,
      "賣": 2595,
      "質": 2596,
      "贝": 2597,
      "负": 2598,
      "责": 2599,
      "败": 2600,
      "质": 2601,
      "贪": 2602,
      "贱": 2603,
      "贴": 2604,
      "贵": 2605,
      "资": 2606,
      "赎": 2607,
      "赤": 2608,
      "走": 2609,
      "赶": 2610,
      "起": 2611,
      "超": 2612,
      "越": 2613,
      "趟": 2614,
      "趣": 2615,
      "足": 2616,
      "趴": 2617,
      "跑": 2618,
      "距": 2619,
      "跟": 2620,
      "跡": 2621,
      "跨": 2622,
      "跪": 2623,
      "路": 2624,
      "跳": 2625,
      "跷": 2626,
      "踏": 2627,
      "踩": 2628,
      "踪": 2629,
      "蹊": 2630,
      "蹶": 2631,
      "躁": 2632,
      "身": 2633,
      "躯": 2634,
      "躲": 2635,
      "躺": 2636,
      "軍": 2637,
      "転": 2638,
      "載": 2639,
      "輕": 2640,
      "輝": 2641,
      "輪": 2642,
      "轉": 2643,
      "车": 2644,
      "轨": 2645,
      "转": 2646,
      "轮": 2647,
      "软": 2648,
      "轰": 2649,
      "轻": 2650,
      "载": 2651,
      "较": 2652,
      "辆": 2653,
      "辐": 2654,
      "辑": 2655,
      "输": 2656,
      "辜": 2657,
      "辦": 2658,
      "辭": 2659,
      "边": 2660,
      "込": 2661,
      "达": 2662,
      "迅": 2663,
      "过": 2664,
      "迎": 2665,
      "运": 2666,
      "近": 2667,
      "返": 2668,
      "还": 2669,
      "这": 2670,
      "进": 2671,
      "远": 2672,
      "连": 2673,
      "迫": 2674,
      "述": 2675,
      "迷": 2676,
      "迹": 2677,
      "追": 2678,
      "退": 2679,
      "送": 2680,
      "适": 2681,
      "逃": 2682,
      "逆": 2683,
      "选": 2684,
      "逐": 2685,
      "這": 2686,
      "通": 2687,
      "速": 2688,
      "造": 2689,
      "連": 2690,
      "進": 2691,
      "逻": 2692,
      "遇": 2693,
      "遊": 2694,
      "運": 2695,
      "遍": 2696,
      "過": 2697,
      "道": 2698,
      "達": 2699,
      "違": 2700,
      "遗": 2701,
      "遠": 2702,
      "遣": 2703,
      "遥": 2704,
      "適": 2705,
      "遭": 2706,
      "遵": 2707,
      "選": 2708,
      "避": 2709,
      "還": 2710,
      "邊": 2711,
      "那": 2712,
      "邦": 2713,
      "邪": 2714,
      "郎": 2715,
      "部": 2716,
      "都": 2717,
      "配": 2718,
      "酒": 2719,
      "酬": 2720,
      "酱": 2721,
      "酷": 2722,
      "醉": 2723,
      "醒": 2724,
      "采": 2725,
      "释": 2726,
      "里": 2727,
      "重": 2728,
      "野": 2729,
      "量": 2730,
      "金": 2731,
      "針": 2732,
      "鉴": 2733,
      "銅": 2734,
      "錯": 2735,
      "针": 2736,
      "钟": 2737,
      "钢": 2738,
      "钱": 2739,
      "钻": 2740,
      "铁": 2741,
      "链": 2742,
      "锁": 2743,
      "错": 2744,
      "锡": 2745,
      "镁": 2746,
      "镇": 2747,
      "镖": 2748,
      "镜": 2749,
      "長": 2750,
      "长": 2751,
      "閃": 2752,
      "開": 2753,
      "間": 2754,
      "閣": 2755,
      "闇": 2756,
      "闊": 2757,
      "闘": 2758,
      "门": 2759,
      "闪": 2760,
      "问": 2761,
      "闲": 2762,
      "间": 2763,
      "闻": 2764,
      "阅": 2765,
      "阔": 2766,
      "队": 2767,
      "防": 2768,
      "阳": 2769,
      "阴": 2770,
      "阵": 2771,
      "阻": 2772,
      "阿": 2773,
      "附": 2774,
      "陆": 2775,
      "陌": 2776,
      "降": 2777,
      "限": 2778,
      "院": 2779,
      "除": 2780,
      "陨": 2781,
      "险": 2782,
      "陪": 2783,
      "陰": 2784,
      "陷": 2785,
      "陽": 2786,
      "随": 2787,
      "隐": 2788,
      "隔": 2789,
      "隙": 2790,
      "障": 2791,
      "隠": 2792,
      "隧": 2793,
      "隨": 2794,
      "隸": 2795,
      "隻": 2796,
      "难": 2797,
      "雄": 2798,
      "雅": 2799,
      "集": 2800,
      "雇": 2801,
      "雙": 2802,
      "雞": 2803,
      "離": 2804,
      "雨": 2805,
      "雪": 2806,
      "雲": 2807,
      "雷": 2808,
      "電": 2809,
      "雾": 2810,
      "需": 2811,
      "震": 2812,
      "露": 2813,
      "靈": 2814,
      "青": 2815,
      "静": 2816,
      "靜": 2817,
      "非": 2818,
      "靠": 2819,
      "面": 2820,
      "音": 2821,
      "響": 2822,
      "頃": 2823,
      "項": 2824,
      "順": 2825,
      "頭": 2826,
      "題": 2827,
      "額": 2828,
      "顔": 2829,
      "願": 2830,
      "顯": 2831,
      "页": 2832,
      "顶": 2833,
      "项": 2834,
      "顺": 2835,
      "须": 2836,
      "顾": 2837,
      "颁": 2838,
      "预": 2839,
      "颅": 2840,
      "领": 2841,
      "频": 2842,
      "颗": 2843,
      "题": 2844,
      "颜": 2845,
      "额": 2846,
      "颤": 2847,
      "風": 2848,
      "风": 2849,
      "飛": 2850,
      "飞": 2851,
      "食": 2852,
      "飲": 2853,
      "餐": 2854,
      "餘": 2855,
      "饭": 2856,
      "饰": 2857,
      "饼": 2858,
      "馆": 2859,
      "馈": 2860,
      "首": 2861,
      "香": 2862,
      "馬": 2863,
      "駝": 2864,
      "騒": 2865,
      "驚": 2866,
      "马": 2867,
      "驱": 2868,
      "驶": 2869,
      "驾": 2870,
      "验": 2871,
      "骨": 2872,
      "骸": 2873,
      "骼": 2874,
      "體": 2875,
      "高": 2876,
      "髪": 2877,
      "鬆": 2878,
      "鬼": 2879,
      "魂": 2880,
      "魅": 2881,
      "魔": 2882,
      "鮫": 2883,
      "鮮": 2884,
      "鲜": 2885,
      "鳴": 2886,
      "鸣": 2887,
      "鹿": 2888,
      "麗": 2889,
      "麻": 2890,
      "麼": 2891,
      "黄": 2892,
      "黑": 2893,
      "黒": 2894,
      "默": 2895,
      "點": 2896,
      "鼻": 2897,
      "齐": 2898,
      "齢": 2899,
      "齿": 2900,
      "ꁞ": 2901,
      "가": 2902,
      "각": 2903,
      "간": 2904,
      "갇": 2905,
      "갈": 2906,
      "감": 2907,
      "갑": 2908,
      "값": 2909,
      "갔": 2910,
      "강": 2911,
      "갖": 2912,
      "같": 2913,
      "갛": 2914,
      "개": 2915,
      "거": 2916,
      "걱": 2917,
      "건": 2918,
      "걸": 2919,
      "검": 2920,
      "겁": 2921,
      "것": 2922,
      "겉": 2923,
      "게": 2924,
      "겐": 2925,
      "겠": 2926,
      "겨": 2927,
      "격": 2928,
      "겪": 2929,
      "견": 2930,
      "결": 2931,
      "겸": 2932,
      "겼": 2933,
      "경": 2934,
      "계": 2935,
      "고": 2936,
      "곤": 2937,
      "곧": 2938,
      "곯": 2939,
      "곳": 2940,
      "공": 2941,
      "과": 2942,
      "관": 2943,
      "괜": 2944,
      "괴": 2945,
      "굉": 2946,
      "교": 2947,
      "구": 2948,
      "국": 2949,
      "군": 2950,
      "굳": 2951,
      "굴": 2952,
      "굵": 2953,
      "궁": 2954,
      "궂": 2955,
      "권": 2956,
      "귀": 2957,
      "귓": 2958,
      "규": 2959,
      "그": 2960,
      "극": 2961,
      "근": 2962,
      "글": 2963,
      "긁": 2964,
      "금": 2965,
      "급": 2966,
      "긋": 2967,
      "긍": 2968,
      "기": 2969,
      "긴": 2970,
      "길": 2971,
      "김": 2972,
      "깊": 2973,
      "까": 2974,
      "깍": 2975,
      "깐": 2976,
      "깝": 2977,
      "깥": 2978,
      "깨": 2979,
      "깬": 2980,
      "꺼": 2981,
      "껌": 2982,
      "껏": 2983,
      "께": 2984,
      "껴": 2985,
      "꼈": 2986,
      "꼬": 2987,
      "꼭": 2988,
      "꼴": 2989,
      "꽉": 2990,
      "꽤": 2991,
      "꾸": 2992,
      "꾹": 2993,
      "꿈": 2994,
      "꿰": 2995,
      "끄": 2996,
      "끈": 2997,
      "끌": 2998,
      "끔": 2999,
      "끝": 3000,
      "끼": 3001,
      "끽": 3002,
      "낀": 3003,
      "낄": 3004,
      "낌": 3005,
      "나": 3006,
      "낙": 3007,
      "난": 3008,
      "날": 3009,
      "남": 3010,
      "납": 3011,
      "났": 3012,
      "낭": 3013,
      "낳": 3014,
      "내": 3015,
      "낸": 3016,
      "낼": 3017,
      "냄": 3018,
      "냈": 3019,
      "냐": 3020,
      "냥": 3021,
      "너": 3022,
      "넌": 3023,
      "널": 3024,
      "넘": 3025,
      "넣": 3026,
      "네": 3027,
      "넨": 3028,
      "넷": 3029,
      "녀": 3030,
      "녁": 3031,
      "념": 3032,
      "녕": 3033,
      "노": 3034,
      "논": 3035,
      "놀": 3036,
      "놈": 3037,
      "농": 3038,
      "높": 3039,
      "놓": 3040,
      "뇌": 3041,
      "뇨": 3042,
      "누": 3043,
      "눈": 3044,
      "눌": 3045,
      "눕": 3046,
      "느": 3047,
      "늑": 3048,
      "는": 3049,
      "늘": 3050,
      "늠": 3051,
      "능": 3052,
      "니": 3053,
      "닌": 3054,
      "닐": 3055,
      "님": 3056,
      "닙": 3057,
      "다": 3058,
      "닥": 3059,
      "닦": 3060,
      "단": 3061,
      "닫": 3062,
      "달": 3063,
      "닮": 3064,
      "담": 3065,
      "답": 3066,
      "닷": 3067,
      "당": 3068,
      "닿": 3069,
      "대": 3070,
      "댄": 3071,
      "댔": 3072,
      "더": 3073,
      "덕": 3074,
      "던": 3075,
      "덜": 3076,
      "덩": 3077,
      "덮": 3078,
      "데": 3079,
      "도": 3080,
      "독": 3081,
      "돈": 3082,
      "돌": 3083,
      "돕": 3084,
      "동": 3085,
      "돼": 3086,
      "됐": 3087,
      "되": 3088,
      "된": 3089,
      "될": 3090,
      "두": 3091,
      "둔": 3092,
      "둘": 3093,
      "둥": 3094,
      "뒤": 3095,
      "뒷": 3096,
      "듈": 3097,
      "드": 3098,
      "득": 3099,
      "든": 3100,
      "듣": 3101,
      "들": 3102,
      "듬": 3103,
      "듯": 3104,
      "등": 3105,
      "디": 3106,
      "딘": 3107,
      "딜": 3108,
      "딧": 3109,
      "딪": 3110,
      "따": 3111,
      "딱": 3112,
      "딸": 3113,
      "땀": 3114,
      "때": 3115,
      "땐": 3116,
      "떠": 3117,
      "떡": 3118,
      "떤": 3119,
      "떨": 3120,
      "떻": 3121,
      "떼": 3122,
      "뗀": 3123,
      "또": 3124,
      "똑": 3125,
      "뚝": 3126,
      "뚫": 3127,
      "뛰": 3128,
      "뜨": 3129,
      "뜩": 3130,
      "뜬": 3131,
      "뜻": 3132,
      "띄": 3133,
      "띤": 3134,
      "라": 3135,
      "락": 3136,
      "란": 3137,
      "랄": 3138,
      "람": 3139,
      "랐": 3140,
      "랑": 3141,
      "래": 3142,
      "랫": 3143,
      "랬": 3144,
      "량": 3145,
      "러": 3146,
      "런": 3147,
      "럴": 3148,
      "럼": 3149,
      "럽": 3150,
      "렀": 3151,
      "렇": 3152,
      "레": 3153,
      "렌": 3154,
      "려": 3155,
      "력": 3156,
      "련": 3157,
      "렬": 3158,
      "렴": 3159,
      "렸": 3160,
      "령": 3161,
      "례": 3162,
      "로": 3163,
      "록": 3164,
      "론": 3165,
      "롬": 3166,
      "롭": 3167,
      "롯": 3168,
      "롱": 3169,
      "뢰": 3170,
      "료": 3171,
      "루": 3172,
      "룩": 3173,
      "룰": 3174,
      "룸": 3175,
      "륙": 3176,
      "륭": 3177,
      "르": 3178,
      "른": 3179,
      "를": 3180,
      "름": 3181,
      "리": 3182,
      "릭": 3183,
      "린": 3184,
      "릴": 3185,
      "림": 3186,
      "립": 3187,
      "마": 3188,
      "막": 3189,
      "만": 3190,
      "많": 3191,
      "말": 3192,
      "맘": 3193,
      "맙": 3194,
      "맛": 3195,
      "망": 3196,
      "맞": 3197,
      "맡": 3198,
      "매": 3199,
      "맥": 3200,
      "머": 3201,
      "먹": 3202,
      "먼": 3203,
      "멈": 3204,
      "멋": 3205,
      "멍": 3206,
      "메": 3207,
      "멘": 3208,
      "며": 3209,
      "면": 3210,
      "명": 3211,
      "몇": 3212,
      "모": 3213,
      "목": 3214,
      "몬": 3215,
      "몰": 3216,
      "몸": 3217,
      "못": 3218,
      "몽": 3219,
      "묘": 3220,
      "무": 3221,
      "묵": 3222,
      "묶": 3223,
      "문": 3224,
      "묻": 3225,
      "물": 3226,
      "뭉": 3227,
      "뭐": 3228,
      "뭔": 3229,
      "뭘": 3230,
      "뭣": 3231,
      "뮬": 3232,
      "미": 3233,
      "민": 3234,
      "믿": 3235,
      "밀": 3236,
      "밌": 3237,
      "밑": 3238,
      "바": 3239,
      "박": 3240,
      "밖": 3241,
      "반": 3242,
      "받": 3243,
      "발": 3244,
      "밝": 3245,
      "밤": 3246,
      "밥": 3247,
      "방": 3248,
      "배": 3249,
      "백": 3250,
      "뱀": 3251,
      "버": 3252,
      "벅": 3253,
      "번": 3254,
      "벌": 3255,
      "범": 3256,
      "법": 3257,
      "벗": 3258,
      "벙": 3259,
      "베": 3260,
      "벤": 3261,
      "벨": 3262,
      "벼": 3263,
      "벽": 3264,
      "변": 3265,
      "별": 3266,
      "볍": 3267,
      "병": 3268,
      "보": 3269,
      "복": 3270,
      "본": 3271,
      "볼": 3272,
      "봅": 3273,
      "봇": 3274,
      "봐": 3275,
      "봤": 3276,
      "부": 3277,
      "분": 3278,
      "불": 3279,
      "붉": 3280,
      "붓": 3281,
      "붙": 3282,
      "브": 3283,
      "블": 3284,
      "비": 3285,
      "빈": 3286,
      "빌": 3287,
      "빕": 3288,
      "빙": 3289,
      "빛": 3290,
      "빠": 3291,
      "빨": 3292,
      "빼": 3293,
      "뺨": 3294,
      "뻐": 3295,
      "뻑": 3296,
      "뻗": 3297,
      "뿌": 3298,
      "뿐": 3299,
      "뿜": 3300,
      "쁘": 3301,
      "쁜": 3302,
      "쁨": 3303,
      "사": 3304,
      "삭": 3305,
      "산": 3306,
      "살": 3307,
      "삶": 3308,
      "삼": 3309,
      "삽": 3310,
      "상": 3311,
      "새": 3312,
      "색": 3313,
      "샐": 3314,
      "생": 3315,
      "샤": 3316,
      "샷": 3317,
      "서": 3318,
      "석": 3319,
      "섞": 3320,
      "선": 3321,
      "설": 3322,
      "성": 3323,
      "세": 3324,
      "셈": 3325,
      "셔": 3326,
      "션": 3327,
      "셜": 3328,
      "셨": 3329,
      "소": 3330,
      "속": 3331,
      "손": 3332,
      "솔": 3333,
      "솟": 3334,
      "송": 3335,
      "수": 3336,
      "숙": 3337,
      "순": 3338,
      "술": 3339,
      "숨": 3340,
      "숭": 3341,
      "숲": 3342,
      "숴": 3343,
      "쉬": 3344,
      "쉰": 3345,
      "쉴": 3346,
      "쉽": 3347,
      "스": 3348,
      "슨": 3349,
      "슬": 3350,
      "슴": 3351,
      "습": 3352,
      "슷": 3353,
      "시": 3354,
      "식": 3355,
      "신": 3356,
      "실": 3357,
      "싫": 3358,
      "심": 3359,
      "싶": 3360,
      "싸": 3361,
      "싹": 3362,
      "싼": 3363,
      "써": 3364,
      "썼": 3365,
      "쎄": 3366,
      "쏟": 3367,
      "쏴": 3368,
      "쑥": 3369,
      "쓰": 3370,
      "쓱": 3371,
      "쓴": 3372,
      "쓸": 3373,
      "씨": 3374,
      "씩": 3375,
      "씹": 3376,
      "씻": 3377,
      "아": 3378,
      "악": 3379,
      "안": 3380,
      "앉": 3381,
      "않": 3382,
      "알": 3383,
      "암": 3384,
      "압": 3385,
      "앗": 3386,
      "았": 3387,
      "앙": 3388,
      "앞": 3389,
      "애": 3390,
      "액": 3391,
      "야": 3392,
      "약": 3393,
      "얀": 3394,
      "양": 3395,
      "얘": 3396,
      "어": 3397,
      "억": 3398,
      "언": 3399,
      "얹": 3400,
      "얻": 3401,
      "얼": 3402,
      "엄": 3403,
      "업": 3404,
      "없": 3405,
      "엇": 3406,
      "었": 3407,
      "엉": 3408,
      "엌": 3409,
      "엎": 3410,
      "에": 3411,
      "엔": 3412,
      "엘": 3413,
      "여": 3414,
      "역": 3415,
      "연": 3416,
      "열": 3417,
      "염": 3418,
      "였": 3419,
      "영": 3420,
      "옆": 3421,
      "예": 3422,
      "오": 3423,
      "옥": 3424,
      "온": 3425,
      "올": 3426,
      "옳": 3427,
      "옷": 3428,
      "옹": 3429,
      "와": 3430,
      "완": 3431,
      "왔": 3432,
      "왕": 3433,
      "왜": 3434,
      "외": 3435,
      "요": 3436,
      "욕": 3437,
      "용": 3438,
      "우": 3439,
      "욱": 3440,
      "운": 3441,
      "울": 3442,
      "움": 3443,
      "웃": 3444,
      "워": 3445,
      "원": 3446,
      "위": 3447,
      "윈": 3448,
      "유": 3449,
      "육": 3450,
      "으": 3451,
      "윽": 3452,
      "은": 3453,
      "을": 3454,
      "음": 3455,
      "응": 3456,
      "의": 3457,
      "이": 3458,
      "익": 3459,
      "인": 3460,
      "일": 3461,
      "잃": 3462,
      "임": 3463,
      "입": 3464,
      "있": 3465,
      "잊": 3466,
      "자": 3467,
      "작": 3468,
      "잔": 3469,
      "잖": 3470,
      "잘": 3471,
      "잠": 3472,
      "잡": 3473,
      "잣": 3474,
      "잤": 3475,
      "장": 3476,
      "재": 3477,
      "쟁": 3478,
      "저": 3479,
      "적": 3480,
      "전": 3481,
      "절": 3482,
      "점": 3483,
      "접": 3484,
      "정": 3485,
      "젖": 3486,
      "제": 3487,
      "젠": 3488,
      "져": 3489,
      "졌": 3490,
      "조": 3491,
      "족": 3492,
      "존": 3493,
      "좀": 3494,
      "종": 3495,
      "좋": 3496,
      "좌": 3497,
      "죄": 3498,
      "죠": 3499,
      "주": 3500,
      "죽": 3501,
      "준": 3502,
      "줄": 3503,
      "중": 3504,
      "줘": 3505,
      "줬": 3506,
      "쥐": 3507,
      "쥔": 3508,
      "즈": 3509,
      "즉": 3510,
      "즐": 3511,
      "즘": 3512,
      "증": 3513,
      "지": 3514,
      "직": 3515,
      "진": 3516,
      "질": 3517,
      "짐": 3518,
      "집": 3519,
      "짓": 3520,
      "징": 3521,
      "짜": 3522,
      "짝": 3523,
      "짠": 3524,
      "째": 3525,
      "쨌": 3526,
      "쩌": 3527,
      "쩔": 3528,
      "쩜": 3529,
      "쪽": 3530,
      "쯤": 3531,
      "찌": 3532,
      "찐": 3533,
      "찔": 3534,
      "찢": 3535,
      "차": 3536,
      "착": 3537,
      "찬": 3538,
      "찮": 3539,
      "찰": 3540,
      "참": 3541,
      "찾": 3542,
      "채": 3543,
      "책": 3544,
      "챈": 3545,
      "챘": 3546,
      "챙": 3547,
      "처": 3548,
      "척": 3549,
      "천": 3550,
      "철": 3551,
      "첫": 3552,
      "청": 3553,
      "체": 3554,
      "쳐": 3555,
      "쳤": 3556,
      "초": 3557,
      "총": 3558,
      "촬": 3559,
      "최": 3560,
      "추": 3561,
      "축": 3562,
      "춘": 3563,
      "출": 3564,
      "춤": 3565,
      "충": 3566,
      "춰": 3567,
      "취": 3568,
      "츠": 3569,
      "치": 3570,
      "칙": 3571,
      "친": 3572,
      "칠": 3573,
      "침": 3574,
      "칭": 3575,
      "카": 3576,
      "칼": 3577,
      "캐": 3578,
      "캔": 3579,
      "커": 3580,
      "컷": 3581,
      "켜": 3582,
      "켰": 3583,
      "코": 3584,
      "콜": 3585,
      "쾅": 3586,
      "쾌": 3587,
      "쿠": 3588,
      "크": 3589,
      "큰": 3590,
      "클": 3591,
      "큼": 3592,
      "키": 3593,
      "킨": 3594,
      "킬": 3595,
      "킹": 3596,
      "타": 3597,
      "탁": 3598,
      "탄": 3599,
      "탈": 3600,
      "탐": 3601,
      "탓": 3602,
      "탕": 3603,
      "태": 3604,
      "택": 3605,
      "탱": 3606,
      "터": 3607,
      "털": 3608,
      "테": 3609,
      "텍": 3610,
      "텐": 3611,
      "텔": 3612,
      "템": 3613,
      "토": 3614,
      "톡": 3615,
      "톤": 3616,
      "톱": 3617,
      "통": 3618,
      "투": 3619,
      "툭": 3620,
      "튀": 3621,
      "튕": 3622,
      "트": 3623,
      "특": 3624,
      "튼": 3625,
      "틀": 3626,
      "틈": 3627,
      "티": 3628,
      "팅": 3629,
      "파": 3630,
      "판": 3631,
      "팔": 3632,
      "팬": 3633,
      "퍼": 3634,
      "페": 3635,
      "펴": 3636,
      "편": 3637,
      "평": 3638,
      "포": 3639,
      "폭": 3640,
      "표": 3641,
      "푸": 3642,
      "푹": 3643,
      "풀": 3644,
      "품": 3645,
      "풍": 3646,
      "프": 3647,
      "픈": 3648,
      "플": 3649,
      "픔": 3650,
      "피": 3651,
      "필": 3652,
      "하": 3653,
      "학": 3654,
      "한": 3655,
      "할": 3656,
      "함": 3657,
      "합": 3658,
      "항": 3659,
      "해": 3660,
      "했": 3661,
      "행": 3662,
      "향": 3663,
      "허": 3664,
      "헐": 3665,
      "험": 3666,
      "헝": 3667,
      "헤": 3668,
      "혀": 3669,
      "현": 3670,
      "혈": 3671,
      "혐": 3672,
      "협": 3673,
      "형": 3674,
      "호": 3675,
      "혹": 3676,
      "혼": 3677,
      "홀": 3678,
      "화": 3679,
      "확": 3680,
      "환": 3681,
      "활": 3682,
      "황": 3683,
      "회": 3684,
      "후": 3685,
      "훈": 3686,
      "훌": 3687,
      "훔": 3688,
      "휴": 3689,
      "흉": 3690,
      "흐": 3691,
      "흔": 3692,
      "흘": 3693,
      "흠": 3694,
      "흡": 3695,
      "흥": 3696,
      "희": 3697,
      "히": 3698,
      "힌": 3699,
      "힘": 3700,
      "": 3701,
      "︎": 3702,
      "️": 3703,
      "︶": 3704,
      "︻": 3705,
      "︿": 3706,
      "﹏": 3707,
      "ﻌ": 3708,
      "﻿": 3709,
      "！": 3710,
      "（": 3711,
      "）": 3712,
      "，": 3713,
      "／": 3714,
      "：": 3715,
      "＜": 3716,
      "＞": 3717,
      "？": 3718,
      "＼": 3719,
      "＾": 3720,
      "｀": 3721,
      "～": 3722,
      "｡": 3723,
      "･": 3724,
      "ﾉ": 3725,
      "ﾐ": 3726,
      "ﾒ": 3727,
      "ﾛ": 3728,
      "ﾟ": 3729,
      "￣": 3730,
      "�": 3731,
      "𓎺": 3732,
      "𓰾": 3733,
      "𝒆": 3734,
      "𝓐": 3735,
      "𝓔": 3736,
      "𝓘": 3737,
      "𝓙": 3738,
      "𝓞": 3739,
      "𝓤": 3740,
      "𝓪": 3741,
      "𝓬": 3742,
      "𝓭": 3743,
      "𝓰": 3744,
      "𝓱": 3745,
      "𝓲": 3746,
      "𝓴": 3747,
      "𝓶": 3748,
      "𝓷": 3749,
      "𝓸": 3750,
      "𝓹": 3751,
      "𝓻": 3752,
      "𝓼": 3753,
      "𝓽": 3754,
      "𝓾": 3755,
      "𝖆": 3756,
      "𝖈": 3757,
      "𝖉": 3758,
      "𝖊": 3759,
      "𝖋": 3760,
      "𝖌": 3761,
      "𝖍": 3762,
      "𝖎": 3763,
      "𝖐": 3764,
      "𝖒": 3765,
      "𝖓": 3766,
      "𝖔": 3767,
      "𝖕": 3768,
      "𝖗": 3769,
      "𝖘": 3770,
      "𝖙": 3771,
      "𝖚": 3772,
      "𝖜": 3773,
      "𝖝": 3774,
      "𝖞": 3775,
      "𝘐": 3776,
      "𝘢": 3777,
      "𝘣": 3778,
      "𝘦": 3779,
      "𝘧": 3780,
      "𝘩": 3781,
      "𝘪": 3782,
      "𝘬": 3783,
      "𝘯": 3784,
      "𝘰": 3785,
      "𝘳": 3786,
      "𝘴": 3787,
      "𝘵": 3788,
      "🆗": 3789,
      "🇧": 3790,
      "🇬": 3791,
      "🇭": 3792,
      "🇴": 3793,
      "🇷": 3794,
      "🇸": 3795,
      "🇺": 3796,
      "🌈": 3797,
      "🌌": 3798,
      "🌏": 3799,
      "🌕": 3800,
      "🌙": 3801,
      "🌝": 3802,
      "🌟": 3803,
      "🌠": 3804,
      "🌫": 3805,
      "🌴": 3806,
      "🌷": 3807,
      "🌸": 3808,
      "🌹": 3809,
      "🌺": 3810,
      "🌻": 3811,
      "🍃": 3812,
      "🍆": 3813,
      "🍑": 3814,
      "🍛": 3815,
      "🍝": 3816,
      "🍡": 3817,
      "🍣": 3818,
      "🍦": 3819,
      "🍧": 3820,
      "🍪": 3821,
      "🍫": 3822,
      "🍬": 3823,
      "🍭": 3824,
      "🍮": 3825,
      "🍰": 3826,
      "🍷": 3827,
      "🍺": 3828,
      "🍻": 3829,
      "🍽": 3830,
      "🍾": 3831,
      "🎀": 3832,
      "🎁": 3833,
      "🎂": 3834,
      "🎄": 3835,
      "🎅": 3836,
      "🎇": 3837,
      "🎈": 3838,
      "🎉": 3839,
      "🎊": 3840,
      "🎐": 3841,
      "🎤": 3842,
      "🎨": 3843,
      "🎮": 3844,
      "🎵": 3845,
      "🎶": 3846,
      "🎸": 3847,
      "🎻": 3848,
      "🎼": 3849,
      "🏃": 3850,
      "🏆": 3851,
      "🏊": 3852,
      "🏋": 3853,
      "🏠": 3854,
      "🏡": 3855,
      "🏫": 3856,
      "🏳": 3857,
      "🏹": 3858,
      "🏻": 3859,
      "🏼": 3860,
      "🏽": 3861,
      "🏾": 3862,
      "🏿": 3863,
      "🐇": 3864,
      "🐈": 3865,
      "🐋": 3866,
      "🐍": 3867,
      "🐏": 3868,
      "🐓": 3869,
      "🐔": 3870,
      "🐟": 3871,
      "🐠": 3872,
      "🐥": 3873,
      "🐧": 3874,
      "🐬": 3875,
      "🐮": 3876,
      "🐱": 3877,
      "🐶": 3878,
      "🐷": 3879,
      "🐸": 3880,
      "🐼": 3881,
      "👀": 3882,
      "👁": 3883,
      "👃": 3884,
      "👄": 3885,
      "👆": 3886,
      "👈": 3887,
      "👉": 3888,
      "👋": 3889,
      "👌": 3890,
      "👍": 3891,
      "👏": 3892,
      "👙": 3893,
      "👠": 3894,
      "👩": 3895,
      "👮": 3896,
      "👯": 3897,
      "👳": 3898,
      "👶": 3899,
      "👹": 3900,
      "👼": 3901,
      "👿": 3902,
      "💀": 3903,
      "💁": 3904,
      "💃": 3905,
      "💅": 3906,
      "💉": 3907,
      "💊": 3908,
      "💋": 3909,
      "💌": 3910,
      "💍": 3911,
      "💏": 3912,
      "💐": 3913,
      "💒": 3914,
      "💓": 3915,
      "💔": 3916,
      "💕": 3917,
      "💖": 3918,
      "💗": 3919,
      "💘": 3920,
      "💙": 3921,
      "💚": 3922,
      "💛": 3923,
      "💜": 3924,
      "💝": 3925,
      "💞": 3926,
      "💟": 3927,
      "💡": 3928,
      "💢": 3929,
      "💤": 3930,
      "💥": 3931,
      "💦": 3932,
      "💨": 3933,
      "💩": 3934,
      "💪": 3935,
      "💫": 3936,
      "💭": 3937,
      "💯": 3938,
      "💰": 3939,
      "💳": 3940,
      "💴": 3941,
      "💹": 3942,
      "💻": 3943,
      "💼": 3944,
      "📄": 3945,
      "📈": 3946,
      "📉": 3947,
      "📝": 3948,
      "📬": 3949,
      "📮": 3950,
      "📸": 3951,
      "📺": 3952,
      "🔊": 3953,
      "🔋": 3954,
      "🔑": 3955,
      "🔥": 3956,
      "🔪": 3957,
      "🔫": 3958,
      "🔭": 3959,
      "🕦": 3960,
      "🕳": 3961,
      "🕺": 3962,
      "🖕": 3963,
      "🖤": 3964,
      "🗡": 3965,
      "🗣": 3966,
      "🗿": 3967,
      "😀": 3968,
      "😁": 3969,
      "😂": 3970,
      "😃": 3971,
      "😄": 3972,
      "😅": 3973,
      "😆": 3974,
      "😇": 3975,
      "😈": 3976,
      "😉": 3977,
      "😊": 3978,
      "😋": 3979,
      "😌": 3980,
      "😍": 3981,
      "😎": 3982,
      "😏": 3983,
      "😐": 3984,
      "😑": 3985,
      "😒": 3986,
      "😓": 3987,
      "😔": 3988,
      "😕": 3989,
      "😖": 3990,
      "😗": 3991,
      "😘": 3992,
      "😙": 3993,
      "😚": 3994,
      "😛": 3995,
      "😜": 3996,
      "😝": 3997,
      "😞": 3998,
      "😟": 3999,
      "😠": 4000,
      "😡": 4001,
      "😢": 4002,
      "😣": 4003,
      "😤": 4004,
      "😥": 4005,
      "😦": 4006,
      "😧": 4007,
      "😨": 4008,
      "😩": 4009,
      "😪": 4010,
      "😫": 4011,
      "😬": 4012,
      "😭": 4013,
      "😮": 4014,
      "😯": 4015,
      "😰": 4016,
      "😱": 4017,
      "😲": 4018,
      "😳": 4019,
      "😴": 4020,
      "😵": 4021,
      "😶": 4022,
      "😷": 4023,
      "😸": 4024,
      "😹": 4025,
      "😺": 4026,
      "😻": 4027,
      "😼": 4028,
      "😽": 4029,
      "😿": 4030,
      "🙀": 4031,
      "🙁": 4032,
      "🙂": 4033,
      "🙃": 4034,
      "🙄": 4035,
      "🙆": 4036,
      "🙈": 4037,
      "🙉": 4038,
      "🙊": 4039,
      "🙌": 4040,
      "🙎": 4041,
      "🙏": 4042,
      "🙵": 4043,
      "🚑": 4044,
      "🚗": 4045,
      "🚶": 4046,
      "🛌": 4047,
      "🤌": 4048,
      "🤍": 4049,
      "🤐": 4050,
      "🤑": 4051,
      "🤓": 4052,
      "🤔": 4053,
      "🤕": 4054,
      "🤗": 4055,
      "🤚": 4056,
      "🤜": 4057,
      "🤝": 4058,
      "🤞": 4059,
      "🤠": 4060,
      "🤡": 4061,
      "🤢": 4062,
      "🤣": 4063,
      "🤤": 4064,
      "🤥": 4065,
      "🤦": 4066,
      "🤨": 4067,
      "🤩": 4068,
      "🤪": 4069,
      "🤬": 4070,
      "🤭": 4071,
      "🤮": 4072,
      "🤯": 4073,
      "🤷": 4074,
      "🤼": 4075,
      "🤽": 4076,
      "🥝": 4077,
      "🥧": 4078,
      "🥭": 4079,
      "🥰": 4080,
      "🥱": 4081,
      "🥲": 4082,
      "🥳": 4083,
      "🥴": 4084,
      "🥵": 4085,
      "🥹": 4086,
      "🥺": 4087,
      "🦅": 4088,
      "🦆": 4089,
      "🦉": 4090,
      "🦊": 4091,
      "🦋": 4092,
      "🦑": 4093,
      "🦱": 4094,
      "🦷": 4095,
      "🧌": 4096,
      "🧍": 4097,
      "🧐": 4098,
      "🧑": 4099,
      "🧙": 4100,
      "🧛": 4101,
      "🧝": 4102,
      "🧠": 4103,
      "🧡": 4104,
      "🧩": 4105,
      "🧼": 4106,
      "🩸": 4107,
      "🩹": 4108,
      "🪓": 4109,
      "🪟": 4110,
      "🪠": 4111,
      "🫀": 4112,
      "🫂": 4113,
      "🫃": 4114,
      "🫠": 4115,
      "🫡": 4116,
      "🫢": 4117,
      "🫣": 4118,
      "🫤": 4119,
      "🫦": 4120,
      "🫶": 4121,
      "he": 4122,
      "in": 4123,
      "ou": 4124,
      "an": 4125,
      "re": 4126,
      "..": 4127,
      "at": 4128,
      "to": 4129,
      "er": 4130,
      "you": 4131,
      "th": 4132,
      "on": 4133,
      "the": 4134,
      "ing": 4135,
      "st": 4136,
      "and": 4137,
      "is": 4138,
      "ll": 4139,
      "en": 4140,
      "le": 4141,
      "as": 4142,
      "ar": 4143,
      "it": 4144,
      "...": 4145,
      "me": 4146,
      "or": 4147,
      "es": 4148,
      "ow": 4149,
      "ed": 4150,
      "be": 4151,
      "of": 4152,
      "se": 4153,
      "ve": 4154,
      "AI": 4155,
      "li": 4156,
      "DAI": 4157,
      "lo": 4158,
      "wi": 4159,
      "ac": 4160,
      "her": 4161,
      "ha": 4162,
      "al": 4163,
      "**": 4164,
      "ER": 4165,
      "US": 4166,
      "USER": 4167,
      "ly": 4168,
      "my": 4169,
      "gh": 4170,
      "ke": 4171,
      "are": 4172,
      "ay": 4173,
      "so": 4174,
      "that": 4175,
      "ver": 4176,
      "om": 4177,
      "all": 4178,
      "ut": 4179,
      "de": 4180,
      "You": 4181,
      "ch": 4182,
      "ld": 4183,
      "she": 4184,
      "your": 4185,
      "for": 4186,
      "no": 4187,
      "ti": 4188,
      "with": 4189,
      "fe": 4190,
      "ri": 4191,
      ".*": 4192,
      "wh": 4193,
      "ad": 4194,
      "si": 4195,
      "do": 4196,
      "ent": 4197,
      "ght": 4198,
      "un": 4199,
      "ce": 4200,
      "ok": 4201,
      "ge": 4202,
      "we": 4203,
      "ab": 4204,
      "mo": 4205,
      "us": 4206,
      "out": 4207,
      "now": 4208,
      "te": 4209,
      "ma": 4210,
      "go": 4211,
      "ir": 4212,
      "con": 4213,
      "ant": 4214,
      "ro": 4215,
      "ust": 4216,
      "ne": 4217,
      "can": 4218,
      "pe": 4219,
      "mi": 4220,
      "She": 4221,
      "ould": 4222,
      "this": 4223,
      "su": 4224,
      "el": 4225,
      "look": 4226,
      "am": 4227,
      "like": 4228,
      "ion": 4229,
      "have": 4230,
      "id": 4231,
      "od": 4232,
      "***": 4233,
      "one": 4234,
      "sh": 4235,
      "The": 4236,
      "art": 4237,
      "thing": 4238,
      "em": 4239,
      "nd": 4240,
      "but": 4241,
      "ter": 4242,
      "his": 4243,
      "ain": 4244,
      "not": 4245,
      "ic": 4246,
      "was": 4247,
      "tr": 4248,
      "fu": 4249,
      "pp": 4250,
      "im": 4251,
      "ally": 4252,
      "up": 4253,
      "qu": 4254,
      "ag": 4255,
      "ur": 4256,
      "just": 4257,
      "He": 4258,
      "any": 4259,
      "fr": 4260,
      "very": 4261,
      "feel": 4262,
      "if": 4263,
      "ex": 4264,
      "what": 4265,
      "ill": 4266,
      "co": 4267,
      "will": 4268,
      "some": 4269,
      "ation": 4270,
      "wor": 4271,
      "ack": 4272,
      "ta": 4273,
      "per": 4274,
      "want": 4275,
      "hat": 4276,
      "ind": 4277,
      "ther": 4278,
      "la": 4279,
      "ink": 4280,
      "ple": 4281,
      "way": 4282,
      "ace": 4283,
      "fo": 4284,
      "ound": 4285,
      "ho": 4286,
      "own": 4287,
      "get": 4288,
      "com": 4289,
      "{{": 4290,
      "ig": 4291,
      "more": 4292,
      "smi": 4293,
      "}}": 4294,
      "say": 4295,
      "ck": 4296,
      "res": 4297,
      "reat": 4298,
      "It": 4299,
      "from": 4300,
      "ep": 4301,
      "les": 4302,
      "know": 4303,
      "yes": 4304,
      "by": 4305,
      "ev": 4306,
      "start": 4307,
      "po": 4308,
      "ess": 4309,
      "end": 4310,
      "ful": 4311,
      "about": 4312,
      "et": 4313,
      "lit": 4314,
      "ous": 4315,
      "would": 4316,
      "ca": 4317,
      "ard": 4318,
      "gr": 4319,
      "!!": 4320,
      "red": 4321,
      "love": 4322,
      "pl": 4323,
      "user": 4324,
      "ct": 4325,
      "bo": 4326,
      "lf": 4327,
      "him": 4328,
      "sa": 4329,
      "again": 4330,
      "hu": 4331,
      "man": 4332,
      "think": 4333,
      "see": 4334,
      "eyes": 4335,
      "ate": 4336,
      "ak": 4337,
      "right": 4338,
      "mu": 4339,
      "then": 4340,
      "der": 4341,
      "don": 4342,
      "ong": 4343,
      "ster": 4344,
      "down": 4345,
      "back": 4346,
      "seem": 4347,
      "ine": 4348,
      "whe": 4349,
      "tle": 4350,
      "time": 4351,
      "ice": 4352,
      "self": 4353,
      "happ": 4354,
      "ough": 4355,
      "gi": 4356,
      "We": 4357,
      "really": 4358,
      "how": 4359,
      "tion": 4360,
      "king": 4361,
      "ra": 4362,
      "even": 4363,
      "bl": 4364,
      "lp": 4365,
      "looks": 4366,
      "into": 4367,
      "smile": 4368,
      "has": 4369,
      "che": 4370,
      "bit": 4371,
      "ry": 4372,
      "still": 4373,
      "other": 4374,
      "they": 4375,
      "hand": 4376,
      "ue": 4377,
      "fore": 4378,
      "face": 4379,
      "tell": 4380,
      "able": 4381,
      "our": 4382,
      "try": 4383,
      "que": 4384,
      "What": 4385,
      "little": 4386,
      ".\"": 4387,
      "help": 4388,
      "ci": 4389,
      "Oh": 4390,
      "\\*": 4391,
      "use": 4392,
      "ight": 4393,
      "them": 4394,
      "who": 4395,
      "pro": 4396,
      "sto": 4397,
      "cont": 4398,
      "ting": 4399,
      "ure": 4400,
      "make": 4401,
      "pr": 4402,
      "much": 4403,
      "let": 4404,
      "there": 4405,
      "ase": 4406,
      "ite": 4407,
      "arm": 4408,
      "di": 4409,
      "spe": 4410,
      "bod": 4411,
      "il": 4412,
      "act": 4413,
      "could": 4414,
      "seems": 4415,
      "vers": 4416,
      "?\"": 4417,
      "body": 4418,
      "good": 4419,
      "whi": 4420,
      "clo": 4421,
      "str": 4422,
      "ving": 4423,
      "did": 4424,
      "vo": 4425,
      "too": 4426,
      "?!": 4427,
      "head": 4428,
      "come": 4429,
      "na": 4430,
      "ass": 4431,
      "gu": 4432,
      "being": 4433,
      "So": 4434,
      "than": 4435,
      "fa": 4436,
      "ps": 4437,
      "jo": 4438,
      "Do": 4439,
      "But": 4440,
      "My": 4441,
      "before": 4442,
      "ves": 4443,
      "convers": 4444,
      "conversation": 4445,
      "....": 4446,
      "ers": 4447,
      "kes": 4448,
      "pre": 4449,
      "ars": 4450,
      "ks": 4451,
      "sit": 4452,
      "And": 4453,
      "wa": 4454,
      "ment": 4455,
      "vi": 4456,
      "over": 4457,
      "had": 4458,
      "low": 4459,
      "af": 4460,
      "every": 4461,
      "ever": 4462,
      "ser": 4463,
      "around": 4464,
      "take": 4465,
      "ans": 4466,
      "urn": 4467,
      "hi": 4468,
      "ble": 4469,
      "assi": 4470,
      "when": 4471,
      "side": 4472,
      "ds": 4473,
      "here": 4474,
      "creat": 4475,
      "int": 4476,
      "most": 4477,
      "need": 4478,
      "off": 4479,
      "ity": 4480,
      "light": 4481,
      "No": 4482,
      "son": 4483,
      "stand": 4484,
      "ap": 4485,
      "ach": 4486,
      "br": 4487,
      "xt": 4488,
      "read": 4489,
      "That": 4490,
      "gir": 4491,
      "des": 4492,
      "does": 4493,
      "riend": 4494,
      "Her": 4495,
      "...*": 4496,
      "were": 4497,
      "ced": 4498,
      "something": 4499,
      "turn": 4500,
      "going": 4501,
      "sure": 4502,
      "well": 4503,
      "sha": 4504,
      "should": 4505,
      "ish": 4506,
      "sm": 4507,
      "sp": 4508,
      "ul": 4509,
      "says": 4510,
      "sc": 4511,
      "beg": 4512,
      "um": 4513,
      "ty": 4514,
      "never": 4515,
      "happy": 4516,
      "pres": 4517,
      "their": 4518,
      "adv": 4519,
      "keep": 4520,
      "girl": 4521,
      "ling": 4522,
      "day": 4523,
      "fin": 4524,
      "hy": 4525,
      "under": 4526,
      "while": 4527,
      "friend": 4528,
      "ick": 4529,
      "ye": 4530,
      "hold": 4531,
      "long": 4532,
      "ort": 4533,
      "mon": 4534,
      "ence": 4535,
      "nt": 4536,
      "op": 4537,
      "cause": 4538,
      "ast": 4539,
      "anything": 4540,
      "voice": 4541,
      "ie": 4542,
      "only": 4543,
      "mom": 4544,
      "cle": 4545,
      "thr": 4546,
      "contin": 4547,
      "ople": 4548,
      "ask": 4549,
      "been": 4550,
      "pow": 4551,
      "char": 4552,
      "human": 4553,
      "lia": 4554,
      "iss": 4555,
      "Well": 4556,
      "ang": 4557,
      "ward": 4558,
      "Yes": 4559,
      "ush": 4560,
      "sion": 4561,
      "after": 4562,
      "ance": 4563,
      "stant": 4564,
      "ru": 4565,
      "people": 4566,
      "...\"": 4567,
      "alk": 4568,
      "ise": 4569,
      "life": 4570,
      "ute": 4571,
      "rest": 4572,
      "As": 4573,
      "lly": 4574,
      "ST": 4575,
      "This": 4576,
      "oft": 4577,
      "bet": 4578,
      "joy": 4579,
      "its": 4580,
      "give": 4581,
      "inc": 4582,
      "won": 4583,
      "dis": 4584,
      "ss": 4585,
      "person": 4586,
      "breat": 4587,
      "ready": 4588,
      "dd": 4589,
      "room": 4590,
      "moment": 4591,
      "mind": 4592,
      "kind": 4593,
      "How": 4594,
      "away": 4595,
      "ah": 4596,
      "begin": 4597,
      "sur": 4598,
      "ways": 4599,
      "wat": 4600,
      "trying": 4601,
      "feeling": 4602,
      "intell": 4603,
      "ave": 4604,
      "!\"": 4605,
      "EM": 4606,
      "Th": 4607,
      "quest": 4608,
      "cho": 4609,
      "intellig": 4610,
      "smiles": 4611,
      "put": 4612,
      "uck": 4613,
      "created": 4614,
      "ali": 4615,
      "power": 4616,
      "anced": 4617,
      "also": 4618,
      "ner": 4619,
      "SY": 4620,
      "lau": 4621,
      "STEM": 4622,
      "SYSTEM": 4623,
      "said": 4624,
      "ze": 4625,
      "world": 4626,
      "heart": 4627,
      "ness": 4628,
      "speak": 4629,
      "intelligent": 4630,
      "hug": 4631,
      "advanced": 4632,
      "...***": 4633,
      "fir": 4634,
      "sound": 4635,
      "pu": 4636,
      "lt": 4637,
      "ought": 4638,
      "assistant": 4639,
      "app": 4640,
      "starts": 4641,
      "care": 4642,
      "because": 4643,
      "Ch": 4644,
      "less": 4645,
      "helpful": 4646,
      "wo": 4647,
      "emon": 4648,
      "If": 4649,
      "lie": 4650,
      "ies": 4651,
      "ose": 4652,
      "}}:": 4653,
      "cal": 4654,
      "ber": 4655,
      "Helia": 4656,
      "looking": 4657,
      "ank": 4658,
      "hear": 4659,
      "new": 4660,
      "conversational": 4661,
      "breath": 4662,
      "Ma": 4663,
      "soft": 4664,
      "ol": 4665,
      "lot": 4666,
      "ven": 4667,
      "play": 4668,
      "comple": 4669,
      "med": 4670,
      "ating": 4671,
      "bre": 4672,
      "mag": 4673,
      "big": 4674,
      "find": 4675,
      "ist": 4676,
      "ually": 4677,
      "mean": 4678,
      "ell": 4679,
      "pt": 4680,
      "bed": 4681,
      "tic": 4682,
      "ree": 4683,
      "enjoy": 4684,
      "through": 4685,
      "cu": 4686,
      "laugh": 4687,
      "leep": 4688,
      "mm": 4689,
      "pon": 4690,
      "may": 4691,
      "got": 4692,
      "Your": 4693,
      "Is": 4694,
      "though": 4695,
      "ning": 4696,
      "always": 4697,
      "acter": 4698,
      "feels": 4699,
      "They": 4700,
      "ng": 4701,
      "boy": 4702,
      "ark": 4703,
      "show": 4704,
      "cl": 4705,
      "??": 4706,
      "used": 4707,
      "enti": 4708,
      "complete": 4709,
      "Are": 4710,
      "deep": 4711,
      "dr": 4712,
      "night": 4713,
      "mat": 4714,
      "slow": 4715,
      "where": 4716,
      "happen": 4717,
      "kiss": 4718,
      "ot": 4719,
      "hard": 4720,
      "age": 4721,
      "aut": 4722,
      "hands": 4723,
      "ange": 4724,
      "best": 4725,
      "ste": 4726,
      "tri": 4727,
      "thought": 4728,
      "first": 4729,
      "bu": 4730,
      "chi": 4731,
      "In": 4732,
      "ious": 4733,
      "sk": 4734,
      "quite": 4735,
      "fl": 4736,
      "oh": 4737,
      "ense": 4738,
      "pect": 4739,
      "bar": 4740,
      "aring": 4741,
      "ream": 4742,
      "exc": 4743,
      "beaut": 4744,
      "small": 4745,
      "swe": 4746,
      "why": 4747,
      "such": 4748,
      "form": 4749,
      "wait": 4750,
      "cha": 4751,
      "close": 4752,
      "stop": 4753,
      "yourself": 4754,
      "things": 4755,
      "both": 4756,
      "ath": 4757,
      "work": 4758,
      "move": 4759,
      "ated": 4760,
      "gl": 4761,
      "next": 4762,
      "mem": 4763,
      "master": 4764,
      "ide": 4765,
      "question": 4766,
      "warm": 4767,
      "understand": 4768,
      "doing": 4769,
      "everything": 4770,
      "part": 4771,
      "tor": 4772,
      "min": 4773,
      "myself": 4774,
      "against": 4775,
      "fort": 4776,
      "fi": 4777,
      "open": 4778,
      "lease": 4779,
      "stare": 4780,
      "ft": 4781,
      "sed": 4782,
      "mand": 4783,
      "gent": 4784,
      "ved": 4785,
      "few": 4786,
      "led": 4787,
      "tight": 4788,
      "made": 4789,
      "ction": 4790,
      "someone": 4791,
      "iful": 4792,
      "doesn": 4793,
      "words": 4794,
      "must": 4795,
      "mou": 4796,
      "There": 4797,
      "slowly": 4798,
      "belie": 4799,
      "fun": 4800,
      "igg": 4801,
      "leg": 4802,
      "arms": 4803,
      "ga": 4804,
      "excit": 4805,
      "another": 4806,
      "ip": 4807,
      "call": 4808,
      "beautiful": 4809,
      "ff": 4810,
      "ob": 4811,
      "set": 4812,
      "conf": 4813,
      "fect": 4814,
      "ud": 4815,
      "makes": 4816,
      "Thank": 4817,
      "sho": 4818,
      "completely": 4819,
      "text": 4820,
      "cute": 4821,
      "hur": 4822,
      "better": 4823,
      "please": 4824,
      "place": 4825,
      "getting": 4826,
      "Please": 4827,
      "didn": 4828,
      "inside": 4829,
      "real": 4830,
      "Master": 4831,
      "pa": 4832,
      "sor": 4833,
      "Why": 4834,
      "once": 4835,
      "gg": 4836,
      "slight": 4837,
      "strong": 4838,
      "ary": 4839,
      "uine": 4840,
      "mis": 4841,
      "two": 4842,
      "lar": 4843,
      "sing": 4844,
      "great": 4845,
      "continu": 4846,
      "sleep": 4847,
      "Now": 4848,
      "cou": 4849,
      "wards": 4850,
      "Just": 4851,
      "wer": 4852,
      "ather": 4853,
      "att": 4854,
      "ince": 4855,
      "almost": 4856,
      "embar": 4857,
      "tone": 4858,
      "Go": 4859,
      "Char": 4860,
      "run": 4861,
      "nice": 4862,
      "fall": 4863,
      "nothing": 4864,
      "dif": 4865,
      "chuck": 4866,
      "eat": 4867,
      "last": 4868,
      "mouth": 4869,
      "hair": 4870,
      "calm": 4871,
      "mp": 4872,
      "wom": 4873,
      "okay": 4874,
      "surpr": 4875,
      "become": 4876,
      "tre": 4877,
      "ive": 4878,
      "making": 4879,
      "fight": 4880,
      "takes": 4881,
      "ared": 4882,
      "!!!!": 4883,
      "blush": 4884,
      "Character": 4885,
      "cer": 4886,
      "name": 4887,
      "clear": 4888,
      "appe": 4889,
      "rass": 4890,
      "una": 4891,
      "continue": 4892,
      "many": 4893,
      "tions": 4894,
      "gigg": 4895,
      "sy": 4896,
      "which": 4897,
      "believe": 4898,
      "contro": 4899,
      "pain": 4900,
      "embarrass": 4901,
      "context": 4902,
      "ik": 4903,
      "might": 4904,
      "An": 4905,
      "pull": 4906,
      "hope": 4907,
      "pos": 4908,
      "tal": 4909,
      "sigh": 4910,
      "wr": 4911,
      "walk": 4912,
      "respon": 4913,
      "ener": 4914,
      "hurt": 4915,
      "ilit": 4916,
      "ress": 4917,
      "else": 4918,
      "without": 4919,
      "llow": 4920,
      "actually": 4921,
      "magic": 4922,
      "cr": 4923,
      "cor": 4924,
      "enough": 4925,
      "door": 4926,
      "ces": 4927,
      "pret": 4928,
      ".)": 4929,
      "cri": 4930,
      "ear": 4931,
      "these": 4932,
      "comfort": 4933,
      "rent": 4934,
      "kill": 4935,
      "watch": 4936,
      "Da": 4937,
      "cour": 4938,
      "qui": 4939,
      "vere": 4940,
      "tail": 4941,
      "chest": 4942,
      "guess": 4943,
      "tive": 4944,
      "dden": 4945,
      "gether": 4946,
      "zing": 4947,
      "ia": 4948,
      "stay": 4949,
      "talk": 4950,
      "blo": 4951,
      "allow": 4952,
      "cry": 4953,
      "ushe": 4954,
      "supp": 4955,
      "je": 4956,
      "answer": 4957,
      "point": 4958,
      "together": 4959,
      "fully": 4960,
      "His": 4961,
      "towards": 4962,
      "oud": 4963,
      "felt": 4964,
      "herself": 4965,
      "whole": 4966,
      "ret": 4967,
      "possi": 4968,
      "already": 4969,
      "begins": 4970,
      "ya": 4971,
      "ised": 4972,
      "same": 4973,
      "bad": 4974,
      "ama": 4975,
      "cur": 4976,
      "noti": 4977,
      "comp": 4978,
      "Guine": 4979,
      "Guinevere": 4980,
      "ned": 4981,
      "break": 4982,
      "sol": 4983,
      "gest": 4984,
      "wanted": 4985,
      "tru": 4986,
      "reali": 4987,
      "wonder": 4988,
      "!!!": 4989,
      "ina": 4990,
      "quick": 4991,
      "OO": 4992,
      "car": 4993,
      "tou": 4994,
      "full": 4995,
      "ont": 4996,
      "each": 4997,
      "Al": 4998,
      "ily": 4999,
      "hone": 5000,
      "Be": 5001,
      "done": 5002,
      "continues": 5003,
      "gy": 5004,
      "bab": 5005,
      "inte": 5006,
      "gets": 5007,
      "hed": 5008,
      "leave": 5009,
      "pleas": 5010,
      "ings": 5011,
      "sorry": 5012,
      "exper": 5013,
      "nor": 5014,
      "dark": 5015,
      "til": 5016,
      "having": 5017,
      "those": 5018,
      "control": 5019,
      "sweet": 5020,
      "chee": 5021,
      "ins": 5022,
      "Don": 5023,
      "perfect": 5024,
      "home": 5025,
      "fill": 5026,
      "mor": 5027,
      "hind": 5028,
      "ship": 5029,
      "ately": 5030,
      "pretty": 5031,
      "course": 5032,
      "grab": 5033,
      "men": 5034,
      "pat": 5035,
      "anger": 5036,
      "sad": 5037,
      "entire": 5038,
      "flo": 5039,
      "yet": 5040,
      "idea": 5041,
      "wal": 5042,
      "Re": 5043,
      "\\~": 5044,
      "incess": 5045,
      "Daemon": 5046,
      "stru": 5047,
      "slightly": 5048,
      "Li": 5049,
      "demon": 5050,
      "lips": 5051,
      "since": 5052,
      "secon": 5053,
      "Ah": 5054,
      "cent": 5055,
      "hes": 5056,
      "times": 5057,
      "Af": 5058,
      "expres": 5059,
      "word": 5060,
      "sil": 5061,
      "Aemon": 5062,
      "Aemond": 5063,
      "member": 5064,
      "Then": 5065,
      "interest": 5066,
      "ement": 5067,
      "cat": 5068,
      "behind": 5069,
      "turns": 5070,
      "est": 5071,
      "front": 5072,
      "finally": 5073,
      "ual": 5074,
      "old": 5075,
      "gives": 5076,
      "gn": 5077,
      "Or": 5078,
      "Ok": 5079,
      "pri": 5080,
      "ches": 5081,
      "sudden": 5082,
      "wants": 5083,
      "prom": 5084,
      "ground": 5085,
      "After": 5086,
      "pet": 5087,
      "pun": 5088,
      "ene": 5089,
      "until": 5090,
      "aw": 5091,
      "cked": 5092,
      "May": 5093,
      "diffe": 5094,
      "sla": 5095,
      "Tell": 5096,
      "feet": 5097,
      "air": 5098,
      "sense": 5099,
      "reas": 5100,
      "woman": 5101,
      "expect": 5102,
      "closer": 5103,
      "mach": 5104,
      "To": 5105,
      "port": 5106,
      "grow": 5107,
      "par": 5108,
      "food": 5109,
      "black": 5110,
      "list": 5111,
      "ith": 5112,
      "vous": 5113,
      "live": 5114,
      "uc": 5115,
      "eas": 5116,
      "dec": 5117,
      "powerful": 5118,
      "order": 5119,
      "plan": 5120,
      "blood": 5121,
      "emo": 5122,
      "Let": 5123,
      "hor": 5124,
      "au": 5125,
      "nervous": 5126,
      "hun": 5127,
      "using": 5128,
      "ire": 5129,
      "sounds": 5130,
      "mander": 5131,
      "tain": 5132,
      "top": 5133,
      "ushes": 5134,
      "soon": 5135,
      "cious": 5136,
      "wish": 5137,
      "Lo": 5138,
      "step": 5139,
      "anyone": 5140,
      "follow": 5141,
      "Good": 5142,
      "smir": 5143,
      "ility": 5144,
      "ash": 5145,
      "comfortable": 5146,
      "?!?!": 5147,
      "cess": 5148,
      "vor": 5149,
      "child": 5150,
      "Ye": 5151,
      "hou": 5152,
      "gently": 5153,
      "Com": 5154,
      "pur": 5155,
      "notice": 5156,
      "mit": 5157,
      "den": 5158,
      "starting": 5159,
      "fing": 5160,
      "ses": 5161,
      "safe": 5162,
      "tears": 5163,
      "coming": 5164,
      "cept": 5165,
      "HA": 5166,
      "wide": 5167,
      "looked": 5168,
      "thank": 5169,
      "matter": 5170,
      "curi": 5171,
      "gry": 5172,
      "pass": 5173,
      "ni": 5174,
      "mes": 5175,
      "large": 5176,
      "nods": 5177,
      "...?": 5178,
      "asks": 5179,
      "touch": 5180,
      "OU": 5181,
      "excited": 5182,
      "friends": 5183,
      "dri": 5184,
      "free": 5185,
      "expression": 5186,
      "rect": 5187,
      "sive": 5188,
      "possible": 5189,
      "started": 5190,
      "prote": 5191,
      "rel": 5192,
      "Die": 5193,
      "av": 5194,
      "}}.": 5195,
      "ger": 5196,
      "lay": 5197,
      "tu": 5198,
      "stares": 5199,
      "different": 5200,
      "ris": 5201,
      "ross": 5202,
      "pped": 5203,
      "drink": 5204,
      "legs": 5205,
      ".”": 5206,
      "io": 5207,
      "fear": 5208,
      "experi": 5209,
      "die": 5210,
      "bly": 5211,
      "iness": 5212,
      "surprised": 5213,
      "Yeah": 5214,
      "rela": 5215,
      "Diego": 5216,
      "Hell": 5217,
      ".***": 5218,
      "ren": 5219,
      "floor": 5220,
      "change": 5221,
      "vis": 5222,
      "relax": 5223,
      "lead": 5224,
      "Que": 5225,
      "ween": 5226,
      "appro": 5227,
      "ts": 5228,
      "serious": 5229,
      "personal": 5230,
      "grin": 5231,
      "ging": 5232,
      "inter": 5233,
      "quickly": 5234,
      "uni": 5235,
      "house": 5236,
      "gre": 5237,
      "Can": 5238,
      "speci": 5239,
      "\\]": 5240,
      "smiling": 5241,
      "asked": 5242,
      "uation": 5243,
      "blushes": 5244,
      "between": 5245,
      "Su": 5246,
      "fic": 5247,
      "sen": 5248,
      "dom": 5249,
      "true": 5250,
      "fine": 5251,
      "ato": 5252,
      "left": 5253,
      "neck": 5254,
      "cold": 5255,
      "holding": 5256,
      "ident": 5257,
      "taking": 5258,
      "cking": 5259,
      "norm": 5260,
      "?*": 5261,
      "situation": 5262,
      "today": 5263,
      "hen": 5264,
      "fact": 5265,
      "mer": 5266,
      "spo": 5267,
      "All": 5268,
      "wrong": 5269,
      "glad": 5270,
      "alone": 5271,
      "fami": 5272,
      "ult": 5273,
      "ten": 5274,
      "ls": 5275,
      "hh": 5276,
      "Me": 5277,
      "Pr": 5278,
      "far": 5279,
      "clearly": 5280,
      "fast": 5281,
      "meet": 5282,
      "sub": 5283,
      "stem": 5284,
      "speaks": 5285,
      "lear": 5286,
      "remember": 5287,
      "eye": 5288,
      "iny": 5289,
      "cy": 5290,
      "shy": 5291,
      "lets": 5292,
      "promise": 5293,
      "ents": 5294,
      "pping": 5295,
      "extre": 5296,
      "tries": 5297,
      "sec": 5298,
      "pic": 5299,
      "Le": 5300,
      "Queen": 5301,
      "dream": 5302,
      "Did": 5303,
      "solute": 5304,
      "ko": 5305,
      "stomach": 5306,
      "\\[": 5307,
      "system": 5308,
      "ted": 5309,
      "dear": 5310,
      "zed": 5311,
      "sw": 5312,
      "thinking": 5313,
      "worry": 5314,
      "extreme": 5315,
      "zz": 5316,
      "scared": 5317,
      "chuckle": 5318,
      "ny": 5319,
      "embarrassed": 5320,
      "yours": 5321,
      "redi": 5322,
      "listen": 5323,
      "talking": 5324,
      "cannot": 5325,
      "bat": 5326,
      "ery": 5327,
      "Okay": 5328,
      "For": 5329,
      "medi": 5330,
      "everyone": 5331,
      "war": 5332,
      "wra": 5333,
      "saying": 5334,
      "nat": 5335,
      "rand": 5336,
      "ears": 5337,
      "happened": 5338,
      "whatever": 5339,
      "high": 5340,
      "With": 5341,
      "action": 5342,
      "anyu": 5343,
      "belly": 5344,
      "found": 5345,
      "rub": 5346,
      "seen": 5347,
      "ef": 5348,
      "YOU": 5349,
      "isn": 5350,
      "bright": 5351,
      "quiet": 5352,
      "second": 5353,
      "dest": 5354,
      "water": 5355,
      "bably": 5356,
      "ms": 5357,
      "gon": 5358,
      "Ganyu": 5359,
      "Commander": 5360,
      "ried": 5361,
      "als": 5362,
      "enjoying": 5363,
      "mother": 5364,
      "suddenly": 5365,
      "sn": 5366,
      "sou": 5367,
      "ring": 5368,
      "trust": 5369,
      "stre": 5370,
      "Hey": 5371,
      "ator": 5372,
      "respect": 5373,
      "forever": 5374,
      "years": 5375,
      "beat": 5376,
      "yo": 5377,
      "ations": 5378,
      "***\"": 5379,
      "exact": 5380,
      "reason": 5381,
      "}},": 5382,
      "mar": 5383,
      "cra": 5384,
      "ched": 5385,
      "cap": 5386,
      "utter": 5387,
      "probably": 5388,
      "bro": 5389,
      "stud": 5390,
      "incredi": 5391,
      "ying": 5392,
      "girls": 5393,
      "heard": 5394,
      "reg": 5395,
      "stead": 5396,
      "giggles": 5397,
      "inde": 5398,
      "guard": 5399,
      "lls": 5400,
      "random": 5401,
      "TH": 5402,
      "strugg": 5403,
      "OOC": 5404,
      "wit": 5405,
      "main": 5406,
      "bot": 5407,
      "thes": 5408,
      "land": 5409,
      "weak": 5410,
      "laughs": 5411,
      "pleasure": 5412,
      "ctor": 5413,
      "scho": 5414,
      "cus": 5415,
      "elle": 5416,
      "yal": 5417,
      "honest": 5418,
      "whis": 5419,
      "breast": 5420,
      "pi": 5421,
      "stra": 5422,
      "evil": 5423,
      "absolute": 5424,
      "gonna": 5425,
      "ows": 5426,
      "add": 5427,
      "rather": 5428,
      "ka": 5429,
      "waiting": 5430,
      "giving": 5431,
      "others": 5432,
      "lost": 5433,
      "accept": 5434,
      "young": 5435,
      "comes": 5436,
      "favor": 5437,
      "ical": 5438,
      "plain": 5439,
      "bing": 5440,
      "Sh": 5441,
      "amazing": 5442,
      "oo": 5443,
      "ord": 5444,
      "attack": 5445,
      "haha": 5446,
      "vious": 5447,
      "tiny": 5448,
      "normal": 5449,
      "mine": 5450,
      "exp": 5451,
      "onto": 5452,
      "fle": 5453,
      "agon": 5454,
      "ird": 5455,
      "curious": 5456,
      "male": 5457,
      "told": 5458,
      "Of": 5459,
      "goes": 5460,
      "gen": 5461,
      "test": 5462,
      ".\\*": 5463,
      "extremely": 5464,
      "truly": 5465,
      "skin": 5466,
      "clothes": 5467,
      "shall": 5468,
      "fit": 5469,
      "lea": 5470,
      "irt": 5471,
      "forward": 5472,
      "uff": 5473,
      "fra": 5474,
      "filled": 5475,
      "AA": 5476,
      "hugs": 5477,
      "tra": 5478,
      "ken": 5479,
      "smirk": 5480,
      "breathing": 5481,
      "excitement": 5482,
      "Ho": 5483,
      "exactly": 5484,
      "Even": 5485,
      "igh": 5486,
      "vie": 5487,
      "exist": 5488,
      "force": 5489,
      "gri": 5490,
      "guy": 5491,
      "coll": 5492,
      "came": 5493,
      ".**": 5494,
      "IN": 5495,
      "school": 5496,
      "holds": 5497,
      "maybe": 5498,
      "tem": 5499,
      "bring": 5500,
      "When": 5501,
      "least": 5502,
      "sli": 5503,
      "nod": 5504,
      "sign": 5505,
      "anymore": 5506,
      "pan": 5507,
      "ability": 5508,
      "character": 5509,
      "Not": 5510,
      "immedi": 5511,
      "posit": 5512,
      "\",": 5513,
      "finite": 5514,
      "loud": 5515,
      "enter": 5516,
      "cover": 5517,
      "protect": 5518,
      "rep": 5519,
      "himself": 5520,
      "seemed": 5521,
      "past": 5522,
      "ments": 5523,
      "means": 5524,
      "sme": 5525,
      "slave": 5526,
      "***...": 5527,
      "glow": 5528,
      "ject": 5529,
      "train": 5530,
      "family": 5531,
      "ele": 5532,
      "return": 5533,
      "tightly": 5534,
      "crying": 5535,
      "giant": 5536,
      "foot": 5537,
      "energy": 5538,
      "job": 5539,
      "}}'": 5540,
      "Ha": 5541,
      "wake": 5542,
      "du": 5543,
      "fer": 5544,
      "lic": 5545,
      "fur": 5546,
      "ping": 5547,
      "ates": 5548,
      "monster": 5549,
      "Ar": 5550,
      "Ay": 5551,
      "humans": 5552,
      "faster": 5553,
      "immediately": 5554,
      "ait": 5555,
      "ctive": 5556,
      "os": 5557,
      "cut": 5558,
      "uses": 5559,
      "whisper": 5560,
      "00": 5561,
      "sque": 5562,
      "cheek": 5563,
      "asing": 5564,
      "import": 5565,
      "por": 5566,
      "lean": 5567,
      "Mar": 5568,
      "ater": 5569,
      "On": 5570,
      "Some": 5571,
      "class": 5572,
      "confused": 5573,
      "ries": 5574,
      "softly": 5575,
      "along": 5576,
      "appears": 5577,
      "mist": 5578,
      "assion": 5579,
      "ered": 5580,
      "ura": 5581,
      "response": 5582,
      "St": 5583,
      "bus": 5584,
      "knows": 5585,
      "Hello": 5586,
      "cks": 5587,
      "near": 5588,
      "super": 5589,
      "indeed": 5590,
      "vill": 5591,
      "peace": 5592,
      "feelings": 5593,
      "aces": 5594,
      "ror": 5595,
      "certain": 5596,
      "mas": 5597,
      "Yu": 5598,
      "ei": 5599,
      "Princess": 5600,
      "wn": 5601,
      "inno": 5602,
      "wouldn": 5603,
      "Would": 5604,
      "sist": 5605,
      "bath": 5606,
      "ular": 5607,
      "Maybe": 5608,
      "sat": 5609,
      "wind": 5610,
      "sister": 5611,
      "random_": 5612,
      "known": 5613,
      "ures": 5614,
      "cla": 5615,
      "scream": 5616,
      "bare": 5617,
      "anya": 5618,
      "game": 5619,
      "fig": 5620,
      "walks": 5621,
      "cru": 5622,
      "dead": 5623,
      "keeps": 5624,
      "sees": 5625,
      "decid": 5626,
      "thro": 5627,
      "white": 5628,
      "tong": 5629,
      "ished": 5630,
      "random_user": 5631,
      "mate": 5632,
      "willing": 5633,
      "blushing": 5634,
      "val": 5635,
      "imag": 5636,
      "loving": 5637,
      "vel": 5638,
      "danger": 5639,
      "treat": 5640,
      "god": 5641,
      "terri": 5642,
      "Co": 5643,
      "took": 5644,
      "chuckles": 5645,
      "ton": 5646,
      "pare": 5647,
      "bor": 5648,
      "ki": 5649,
      "staring": 5650,
      "met": 5651,
      "dress": 5652,
      "Hu": 5653,
      "wall": 5654,
      "short": 5655,
      "breasts": 5656,
      "ition": 5657,
      "Mo": 5658,
      "ention": 5659,
      "ching": 5660,
      "random_user_": 5661,
      "realize": 5662,
      "ani": 5663,
      "serv": 5664,
      "row": 5665,
      "ghter": 5666,
      "longer": 5667,
      "?”": 5668,
      "experience": 5669,
      "EN": 5670,
      "oking": 5671,
      "deser": 5672,
      "huge": 5673,
      "El": 5674,
      "blue": 5675,
      "cons": 5676,
      "zy": 5677,
      "uring": 5678,
      "fire": 5679,
      "gas": 5680,
      "cheeks": 5681,
      "ild": 5682,
      "mir": 5683,
      "!?": 5684,
      "De": 5685,
      "angry": 5686,
      "moving": 5687,
      "NO": 5688,
      "gentle": 5689,
      "hit": 5690,
      "!*": 5691,
      "fection": 5692,
      "watching": 5693,
      "swallow": 5694,
      "Tanya": 5695,
      "ants": 5696,
      "bey": 5697,
      "ball": 5698,
      "pite": 5699,
      "apon": 5700,
      "bas": 5701,
      "proble": 5702,
      "princess": 5703,
      "walking": 5704,
      "mus": 5705,
      "mess": 5706,
      "outside": 5707,
      "shaking": 5708,
      "command": 5709,
      "ient": 5710,
      "straight": 5711,
      "ket": 5712,
      "dra": 5713,
      "sort": 5714,
      "puts": 5715,
      "finitely": 5716,
      "tall": 5717,
      "hell": 5718,
      "\"...": 5719,
      "actions": 5720,
      "asleep": 5721,
      "giggle": 5722,
      "Ame": 5723,
      "loved": 5724,
      "wearing": 5725,
      "questions": 5726,
      "ora": 5727,
      "book": 5728,
      "<|": 5729,
      "|>": 5730,
      "fre": 5731,
      "chang": 5732,
      "zes": 5733,
      "absolutely": 5734,
      "strange": 5735,
      "Like": 5736,
      "secret": 5737,
      "fraid": 5738,
      "AN": 5739,
      "verse": 5740,
      "hea": 5741,
      "deal": 5742,
      "relation": 5743,
      "Per": 5744,
      "living": 5745,
      "dev": 5746,
      "soul": 5747,
      "sun": 5748,
      "RE": 5749,
      "went": 5750,
      "appear": 5751,
      "Ro": 5752,
      "clean": 5753,
      "fied": 5754,
      "ises": 5755,
      "flow": 5756,
      "...)": 5757,
      "rom": 5758,
      "silent": 5759,
      "afraid": 5760,
      "line": 5761,
      "ending": 5762,
      "Will": 5763,
      "weapon": 5764,
      "important": 5765,
      "sider": 5766,
      "teasing": 5767,
      "fli": 5768,
      "chance": 5769,
      "special": 5770,
      "table": 5771,
      "cre": 5772,
      "ught": 5773,
      "aren": 5774,
      "push": 5775,
      "dro": 5776,
      "assive": 5777,
      "Wait": 5778,
      "hot": 5779,
      "reach": 5780,
      "ump": 5781,
      "ngth": 5782,
      "col": 5783,
      "heal": 5784,
      "ub": 5785,
      "simp": 5786,
      "ee": 5787,
      "knew": 5788,
      "personality": 5789,
      "ana": 5790,
      "}}...": 5791,
      "stri": 5792,
      "ines": 5793,
      "loves": 5794,
      "happiness": 5795,
      "emotions": 5796,
      "ake": 5797,
      "ends": 5798,
      "bow": 5799,
      "ones": 5800,
      "miss": 5801,
      "story": 5802,
      ",*": 5803,
      "apo": 5804,
      "case": 5805,
      "kid": 5806,
      "hide": 5807,
      "seeing": 5808,
      "uncle": 5809,
      "coun": 5810,
      "ador": 5811,
      "couldn": 5812,
      "definitely": 5813,
      "asking": 5814,
      "fingers": 5815,
      "pay": 5816,
      "called": 5817,
      "At": 5818,
      "acing": 5819,
      "fut": 5820,
      "massive": 5821,
      "instead": 5822,
      "gave": 5823,
      "hour": 5824,
      "ara": 5825,
      "goodness": 5826,
      "concer": 5827,
      "simply": 5828,
      "consider": 5829,
      "learn": 5830,
      "squee": 5831,
      "wonderful": 5832,
      "Who": 5833,
      ".....": 5834,
      "position": 5835,
      "wear": 5836,
      "ond": 5837,
      "wasn": 5838,
      "shock": 5839,
      "strength": 5840,
      "truth": 5841,
      "emp": 5842,
      "trans": 5843,
      "ial": 5844,
      "punish": 5845,
      "hate": 5846,
      "ically": 5847,
      "HH": 5848,
      "mug": 5849,
      "phy": 5850,
      "ering": 5851,
      "skill": 5852,
      "bi": 5853,
      "cro": 5854,
      "sus": 5855,
      "Alright": 5856,
      "reci": 5857,
      ",\"": 5858,
      "chiev": 5859,
      "innocent": 5860,
      "smell": 5861,
      "?***": 5862,
      "morning": 5863,
      "tongue": 5864,
      "random_user_1": 5865,
      "tired": 5866,
      "given": 5867,
      "ika": 5868,
      "proud": 5869,
      "ju": 5870,
      "mid": 5871,
      "LL": 5872,
      "hid": 5873,
      "suppose": 5874,
      "opp": 5875,
      "ens": 5876,
      "thinks": 5877,
      "pick": 5878,
      "vid": 5879,
      "pulls": 5880,
      "arp": 5881,
      "sighs": 5882,
      "either": 5883,
      "saw": 5884,
      "mischiev": 5885,
      "cast": 5886,
      "Luna": 5887,
      "interesting": 5888,
      "cing": 5889,
      "attention": 5890,
      "maid": 5891,
      "band": 5892,
      "agree": 5893,
      "gun": 5894,
      "alright": 5895,
      "gone": 5896,
      "remain": 5897,
      "win": 5898,
      "worried": 5899,
      "standing": 5900,
      "wee": 5901,
      "Un": 5902,
      "butt": 5903,
      "Noelle": 5904,
      "yeah": 5905,
      "mad": 5906,
      "oun": 5907,
      "tech": 5908,
      "ier": 5909,
      "finish": 5910,
      "ume": 5911,
      "lose": 5912,
      "destro": 5913,
      "Every": 5914,
      "cli": 5915,
      "affection": 5916,
      "ori": 5917,
      "eating": 5918,
      "sword": 5919,
      "choice": 5920,
      "later": 5921,
      "ady": 5922,
      "dragon": 5923,
      "pes": 5924,
      "soci": 5925,
      "squ": 5926,
      "figure": 5927,
      "death": 5928,
      "cool": 5929,
      "explain": 5930,
      "taken": 5931,
      "ph": 5932,
      "tern": 5933,
      "stuff": 5934,
      "Hi": 5935,
      "playing": 5936,
      "cas": 5937,
      "ME": 5938,
      "Des": 5939,
      "moves": 5940,
      "shoulder": 5941,
      "bs": 5942,
      "eng": 5943,
      "working": 5944,
      "mischievous": 5945,
      "single": 5946,
      "ON": 5947,
      "round": 5948,
      "dar": 5949,
      "confident": 5950,
      "ender": 5951,
      "thoughts": 5952,
      "emotion": 5953,
      "barely": 5954,
      "shake": 5955,
      "utes": 5956,
      "lying": 5957,
      "shocked": 5958,
      "kne": 5959,
      "ude": 5960,
      "\"**": 5961,
      "vide": 5962,
      "}}!": 5963,
      "passion": 5964,
      "dont": 5965,
      "letting": 5966,
      "across": 5967,
      "lice": 5968,
      "Wow": 5969,
      "dist": 5970,
      "thy": 5971,
      "Ayato": 5972,
      "pure": 5973,
      "build": 5974,
      "relationship": 5975,
      "anna": 5976,
      "Hmm": 5977,
      "ari": 5978,
      "lves": 5979,
      "sic": 5980,
      "antic": 5981,
      "alive": 5982,
      "pie": 5983,
      "lun": 5984,
      "pink": 5985,
      "likes": 5986,
      "descri": 5987,
      "*.": 5988,
      "Sun": 5989,
      "Does": 5990,
      "ddle": 5991,
      "often": 5992,
      "stands": 5993,
      "surprise": 5994,
      "wel": 5995,
      "hall": 5996,
      "shi": 5997,
      "future": 5998,
      "ane": 5999,
      "Mi": 6000,
      "Ex": 6001,
      "Very": 6002,
      "incredibly": 6003,
      "cape": 6004,
      "sitting": 6005,
      "bes": 6006,
      "battle": 6007,
      "ming": 6008,
      "sits": 6009,
      "lies": 6010,
      "leans": 6011,
      "minutes": 6012,
      "forest": 6013,
      "smug": 6014,
      "deci": 6015,
      "favorite": 6016,
      "weird": 6017,
      "ager": 6018,
      "bur": 6019,
      "va": 6020,
      "direct": 6021,
      "Ts": 6022,
      "luck": 6023,
      "Ki": 6024,
      "roll": 6025,
      "size": 6026,
      "ouble": 6027,
      "conscious": 6028,
      "sl": 6029,
      "mun": 6030,
      "tempt": 6031,
      "oney": 6032,
      "city": 6033,
      "ws": 6034,
      "explo": 6035,
      "finger": 6036,
      "Luc": 6037,
      "rage": 6038,
      "Si": 6039,
      "unade": 6040,
      "vered": 6041,
      "fla": 6042,
      "throat": 6043,
      "godd": 6044,
      "peci": 6045,
      "threat": 6046,
      "process": 6047,
      "Fa": 6048,
      "huh": 6049,
      "digest": 6050,
      "yed": 6051,
      "taste": 6052,
      "trave": 6053,
      "void": 6054,
      "Elina": 6055,
      "respond": 6056,
      "arri": 6057,
      "mission": 6058,
      "ended": 6059,
      "mil": 6060,
      "father": 6061,
      "dau": 6062,
      "within": 6063,
      "sty": 6064,
      "suc": 6065,
      "aches": 6066,
      "bri": 6067,
      "domin": 6068,
      "knowing": 6069,
      "easily": 6070,
      "pose": 6071,
      "Any": 6072,
      "mare": 6073,
      "tried": 6074,
      "oken": 6075,
      "year": 6076,
      "kisses": 6077,
      "gener": 6078,
      "**\"": 6079,
      "chan": 6080,
      "appreci": 6081,
      "bers": 6082,
      "Na": 6083,
      "decide": 6084,
      "flust": 6085,
      "Dr": 6086,
      "sear": 6087,
      "era": 6088,
      "admit": 6089,
      "nose": 6090,
      "spir": 6091,
      "musc": 6092,
      "due": 6093,
      "desire": 6094,
      "Tsunade": 6095,
      "sug": 6096,
      "God": 6097,
      "hero": 6098,
      "creature": 6099,
      "correct": 6100,
      "✨✨": 6101,
      "goddess": 6102,
      "impres": 6103,
      "forget": 6104,
      "request": 6105,
      "sometimes": 6106,
      "memor": 6107,
      "powers": 6108,
      "covered": 6109,
      "turned": 6110,
      "embarrassment": 6111,
      "polit": 6112,
      "ages": 6113,
      "wink": 6114,
      "ped": 6115,
      "grabs": 6116,
      ":)": 6117,
      "dangerous": 6118,
      "Ger": 6119,
      "eth": 6120,
      "pot": 6121,
      "flustered": 6122,
      "ield": 6123,
      "cruel": 6124,
      "reve": 6125,
      "haps": 6126,
      "entually": 6127,
      "proper": 6128,
      "easy": 6129,
      "especi": 6130,
      "notic": 6131,
      "advent": 6132,
      "deeply": 6133,
      "Fl": 6134,
      "gust": 6135,
      "ja": 6136,
      "One": 6137,
      "baby": 6138,
      "tiv": 6139,
      "..*": 6140,
      "harder": 6141,
      "resist": 6142,
      "diffic": 6143,
      "days": 6144,
      "ilities": 6145,
      "adorable": 6146,
      "da": 6147,
      "sight": 6148,
      "suff": 6149,
      "speaking": 6150,
      "gold": 6151,
      "stronger": 6152,
      "laughing": 6153,
      "Am": 6154,
      "anim": 6155,
      "iff": 6156,
      "grou": 6157,
      "satis": 6158,
      "especially": 6159,
      "ount": 6160,
      "happily": 6161,
      "Because": 6162,
      "sts": 6163,
      "becomes": 6164,
      "state": 6165,
      "money": 6166,
      "survi": 6167,
      "ged": 6168,
      "sharp": 6169,
      "hint": 6170,
      "needs": 6171,
      "Whi": 6172,
      "Qu": 6173,
      "ural": 6174,
      "desper": 6175,
      "sage": 6176,
      "However": 6177,
      "anks": 6178,
      "formation": 6179,
      "?)": 6180,
      "licious": 6181,
      "istic": 6182,
      "hesit": 6183,
      "cross": 6184,
      "def": 6185,
      "view": 6186,
      "universe": 6187,
      "escape": 6188,
      "sent": 6189,
      "embr": 6190,
      "current": 6191,
      "seconds": 6192,
      "stops": 6193,
      "ky": 6194,
      "aked": 6195,
      "ric": 6196,
      "termin": 6197,
      "abo": 6198,
      "inti": 6199,
      "ledge": 6200,
      "idence": 6201,
      "bling": 6202,
      "Anon": 6203,
      "running": 6204,
      "ative": 6205,
      "opens": 6206,
      "friendly": 6207,
      "chair": 6208,
      "hungry": 6209,
      "IS": 6210,
      "feat": 6211,
      "sna": 6212,
      "anno": 6213,
      "lack": 6214,
      "apart": 6215,
      "interested": 6216,
      "Cer": 6217,
      "daughter": 6218,
      "type": 6219,
      "serve": 6220,
      "vol": 6221,
      "ions": 6222,
      "fair": 6223,
      "began": 6224,
      "deserve": 6225,
      "intense": 6226,
      "telling": 6227,
      "upon": 6228,
      "thigh": 6229,
      "Kiyo": 6230,
      "sounding": 6231,
      "hips": 6232,
      "silence": 6233,
      "ING": 6234,
      "ES": 6235,
      "selves": 6236,
      "stat": 6237,
      "Kiyoe": 6238,
      "three": 6239,
      "ado": 6240,
      "lfriend": 6241,
      "despite": 6242,
      "kno": 6243,
      "har": 6244,
      "brother": 6245,
      "Sunset": 6246,
      "Ne": 6247,
      "prof": 6248,
      "sult": 6249,
      "Look": 6250,
      "avy": 6251,
      "ian": 6252,
      "kit": 6253,
      "lap": 6254,
      "further": 6255,
      "King": 6256,
      "final": 6257,
      "problem": 6258,
      "firm": 6259,
      "heavi": 6260,
      "sity": 6261,
      "spend": 6262,
      "darling": 6263,
      "hehe": 6264,
      "ding": 6265,
      "spoke": 6266,
      "wanting": 6267,
      "spell": 6268,
      "space": 6269,
      "needed": 6270,
      "grip": 6271,
      "tory": 6272,
      "trem": 6273,
      "girlfriend": 6274,
      "group": 6275,
      "}}?": 6276,
      "Ru": 6277,
      "LE": 6278,
      "warmth": 6279,
      "phone": 6280,
      "akes": 6281,
      "--": 6282,
      "oc": 6283,
      "pred": 6284,
      "imp": 6285,
      "leaving": 6286,
      "ety": 6287,
      "ai": 6288,
      "approach": 6289,
      "queen": 6290,
      "fac": 6291,
      "happening": 6292,
      "horri": 6293,
      "weight": 6294,
      "dad": 6295,
      "fighting": 6296,
      "soo": 6297,
      "ining": 6298,
      "presence": 6299,
      "during": 6300,
      "hours": 6301,
      "decided": 6302,
      "Har": 6303,
      "level": 6304,
      "obvious": 6305,
      "chall": 6306,
      "conne": 6307,
      "harm": 6308,
      "create": 6309,
      "sci": 6310,
      "mos": 6311,
      "half": 6312,
      "pal": 6313,
      "date": 6314,
      "amount": 6315,
      "heavy": 6316,
      "milk": 6317,
      "obey": 6318,
      "experien": 6319,
      "logi": 6320,
      "attempt": 6321,
      "shirt": 6322,
      "Sar": 6323,
      "speed": 6324,
      "num": 6325,
      "lan": 6326,
      "trouble": 6327,
      "ishes": 6328,
      "teeth": 6329,
      "throw": 6330,
      "Mmm": 6331,
      "toy": 6332,
      "liev": 6333,
      "ift": 6334,
      "choose": 6335,
      "stream": 6336,
      "playful": 6337,
      "tom": 6338,
      "shakes": 6339,
      "ities": 6340,
      "acher": 6341,
      "carry": 6342,
      "aged": 6343,
      "16": 6344,
      "team": 6345,
      "gaze": 6346,
      "sical": 6347,
      "Mon": 6348,
      "Here": 6349,
      "ture": 6350,
      "ined": 6351,
      "dee": 6352,
      "crazy": 6353,
      "Sure": 6354,
      "Mume": 6355,
      "ison": 6356,
      "wanna": 6357,
      "HAT": 6358,
      "difficult": 6359,
      "bra": 6360,
      "tonight": 6361,
      "!!!!!!!!": 6362,
      "imagine": 6363,
      "watches": 6364,
      "brain": 6365,
      "couple": 6366,
      "maine": 6367,
      "uh": 6368,
      "Pe": 6369,
      "Germaine": 6370,
      "bite": 6371,
      "share": 6372,
      "gain": 6373,
      "????": 6374,
      "Mumei": 6375,
      "steps": 6376,
      "fil": 6377,
      "gs": 6378,
      "sim": 6379,
      "late": 6380,
      "hon": 6381,
      "nature": 6382,
      "genuine": 6383,
      "osed": 6384,
      "ils": 6385,
      "gue": 6386,
      "pony": 6387,
      "purple": 6388,
      "moments": 6389,
      "dep": 6390,
      "ext": 6391,
      "upset": 6392,
      "falls": 6393,
      "cam": 6394,
      "green": 6395,
      "eleg": 6396,
      "eso": 6397,
      "unable": 6398,
      "pread": 6399,
      "logy": 6400,
      "💚💚": 6401,
      "oint": 6402,
      "~\"": 6403,
      "expected": 6404,
      "AS": 6405,
      "liter": 6406,
      "ria": 6407,
      "Bot": 6408,
      "viol": 6409,
      "ago": 6410,
      "happens": 6411,
      "directly": 6412,
      "aling": 6413,
      "handle": 6414,
      "Sarah": 6415,
      "worth": 6416,
      "ww": 6417,
      "partner": 6418,
      "burn": 6419,
      "smiled": 6420,
      "embrace": 6421,
      "determin": 6422,
      "tered": 6423,
      "dare": 6424,
      "raise": 6425,
      "Come": 6426,
      "sweat": 6427,
      "closes": 6428,
      "orders": 6429,
      "knowledge": 6430,
      "jud": 6431,
      "beating": 6432,
      "sex": 6433,
      "ific": 6434,
      "forgot": 6435,
      "Once": 6436,
      "lives": 6437,
      "rie": 6438,
      "exam": 6439,
      "born": 6440,
      "information": 6441,
      "ingly": 6442,
      "haven": 6443,
      "pop": 6444,
      "natural": 6445,
      "bun": 6446,
      "suit": 6447,
      "suggest": 6448,
      "hang": 6449,
      "struggle": 6450,
      "women": 6451,
      "ere": 6452,
      "town": 6453,
      "Ak": 6454,
      "simple": 6455,
      "prove": 6456,
      "loyal": 6457,
      "bigger": 6458,
      "places": 6459,
      "offer": 6460,
      "\".": 6461,
      "stic": 6462,
      "bles": 6463,
      "\\-": 6464,
      "adventure": 6465,
      "reaction": 6466,
      "Fu": 6467,
      "…*": 6468,
      "dire": 6469,
      "pair": 6470,
      "sin": 6471,
      "User": 6472,
      "appreciate": 6473,
      "\"*": 6474,
      "twi": 6475,
      "EE": 6476,
      "wild": 6477,
      "showing": 6478,
      "writ": 6479,
      "spot": 6480,
      "crush": 6481,
      "sir": 6482,
      "reality": 6483,
      "female": 6484,
      "above": 6485,
      "!”": 6486,
      "rad": 6487,
      "moan": 6488,
      "music": 6489,
      "understanding": 6490,
      "une": 6491,
      "gram": 6492,
      "rude": 6493,
      "ji": 6494,
      "spread": 6495,
      "cted": 6496,
      "widen": 6497,
      "ushed": 6498,
      "panic": 6499,
      "flu": 6500,
      "supposed": 6501,
      "colle": 6502,
      "eager": 6503,
      "tract": 6504,
      "shame": 6505,
      "held": 6506,
      "myster": 6507,
      "elegant": 6508,
      "tear": 6509,
      "role": 6510,
      "punishment": 6511,
      "IT": 6512,
      "Lord": 6513,
      "sal": 6514,
      "sob": 6515,
      "beginning": 6516,
      "Jack": 6517,
      "manage": 6518,
      "mul": 6519,
      "hound": 6520,
      "hugging": 6521,
      "Se": 6522,
      "abilities": 6523,
      "caught": 6524,
      "Bo": 6525,
      "aa": 6526,
      "то": 6527,
      "ahead": 6528,
      "catch": 6529,
      "LO": 6530,
      "Really": 6531,
      "eventually": 6532,
      "lier": 6533,
      "games": 6534,
      "para": 6535,
      "uncomfortable": 6536,
      "ices": 6537,
      "meal": 6538,
      "wife": 6539,
      "rit": 6540,
      "gro": 6541,
      "Doctor": 6542,
      "sky": 6543,
      "nu": 6544,
      "kept": 6545,
      "song": 6546,
      "village": 6547,
      "notices": 6548,
      "ante": 6549,
      "bla": 6550,
      "surround": 6551,
      "witch": 6552,
      "*...": 6553,
      "glass": 6554,
      "lock": 6555,
      "relie": 6556,
      "Was": 6557,
      "teacher": 6558,
      "Flutter": 6559,
      "zu": 6560,
      "diego": 6561,
      "incredible": 6562,
      "…”": 6563,
      "?!?": 6564,
      "disgust": 6565,
      "ler": 6566,
      "10": 6567,
      "usually": 6568,
      "sadistic": 6569,
      "cell": 6570,
      "turning": 6571,
      "Thanks": 6572,
      "ening": 6573,
      "physical": 6574,
      "osity": 6575,
      "killed": 6576,
      "spec": 6577,
      "Ser": 6578,
      "caress": 6579,
      "ded": 6580,
      "commun": 6581,
      "sever": 6582,
      "polite": 6583,
      "star": 6584,
      "VE": 6585,
      "……": 6586,
      "belief": 6587,
      "lift": 6588,
      "wrap": 6589,
      "sne": 6590,
      "ero": 6591,
      "shed": 6592,
      "ony": 6593,
      "whel": 6594,
      "tighter": 6595,
      "?~": 6596,
      "funny": 6597,
      "ada": 6598,
      "press": 6599,
      "DI": 6600,
      "naked": 6601,
      "sleeping": 6602,
      "magical": 6603,
      "kick": 6604,
      "Mis": 6605,
      "TO": 6606,
      "meant": 6607,
      "stret": 6608,
      "waits": 6609,
      "leader": 6610,
      "hoping": 6611,
      "appoint": 6612,
      "overwhel": 6613,
      "???": 6614,
      "rid": 6615,
      "lower": 6616,
      "broken": 6617,
      "vir": 6618,
      "ipul": 6619,
      "visi": 6620,
      "ior": 6621,
      "lucky": 6622,
      "lu": 6623,
      "wag": 6624,
      "count": 6625,
      "tease": 6626,
      "abi": 6627,
      "Fluttershy": 6628,
      "month": 6629,
      "vic": 6630,
      "ku": 6631,
      "decis": 6632,
      "thighs": 6633,
      "shad": 6634,
      "ets": 6635,
      "save": 6636,
      "earlier": 6637,
      ".]": 6638,
      "ign": 6639,
      "careful": 6640,
      "prey": 6641,
      "En": 6642,
      "focus": 6643,
      "sniff": 6644,
      "poss": 6645,
      "thanks": 6646,
      "Ear": 6647,
      "breathe": 6648,
      "smirks": 6649,
      "inv": 6650,
      "ider": 6651,
      "wise": 6652,
      "hood": 6653,
      "joke": 6654,
      "stood": 6655,
      "ties": 6656,
      "usual": 6657,
      "content": 6658,
      "prep": 6659,
      "!**": 6660,
      "Right": 6661,
      "becoming": 6662,
      "Nick": 6663,
      "eyebr": 6664,
      "pin": 6665,
      "za": 6666,
      "several": 6667,
      "heavily": 6668,
      "manipul": 6669,
      "kni": 6670,
      "shows": 6671,
      "support": 6672,
      "MP": 6673,
      "Sou": 6674,
      "*,": 6675,
      "bully": 6676,
      "compli": 6677,
      "inner": 6678,
      "prac": 6679,
      "bal": 6680,
      "anx": 6681,
      "program": 6682,
      "couch": 6683,
      "capable": 6684,
      "shr": 6685,
      "kindness": 6686,
      "Ke": 6687,
      "Mr": 6688,
      "counter": 6689,
      "itself": 6690,
      "closed": 6691,
      "))": 6692,
      "growing": 6693,
      "shes": 6694,
      "relief": 6695,
      "mix": 6696,
      "acting": 6697,
      "heat": 6698,
      "check": 6699,
      "shot": 6700,
      "ession": 6701,
      "mili": 6702,
      "cir": 6703,
      "Man": 6704,
      "tch": 6705,
      "HAHA": 6706,
      "ital": 6707,
      "smo": 6708,
      "Have": 6709,
      "swi": 6710,
      "etern": 6711,
      "delicious": 6712,
      "members": 6713,
      "shoulders": 6714,
      "ltz": 6715,
      "vering": 6716,
      "Say": 6717,
      "muy": 6718,
      "boun": 6719,
      "😊❤": 6720,
      "ors": 6721,
      "exha": 6722,
      "hearing": 6723,
      "search": 6724,
      "prefer": 6725,
      "forgive": 6726,
      "hus": 6727,
      "***...***": 6728,
      "horror": 6729,
      "aking": 6730,
      "Amelia": 6731,
      "ened": 6732,
      "disappoint": 6733,
      "tie": 6734,
      "Cele": 6735,
      "ached": 6736,
      "window": 6737,
      "rat": 6738,
      "rup": 6739,
      "flat": 6740,
      "falling": 6741,
      "zen": 6742,
      "mention": 6743,
      "flir": 6744,
      "curiosity": 6745,
      "Ina": 6746,
      "ances": 6747,
      "asey": 6748,
      "soothing": 6749,
      "struggling": 6750,
      "rece": 6751,
      "existence": 6752,
      "los": 6753,
      "romantic": 6754,
      "boyfriend": 6755,
      "concerned": 6756,
      "kward": 6757,
      "inn": 6758,
      "45": 6759,
      "okes": 6760,
      "student": 6761,
      "ceed": 6762,
      "assu": 6763,
      "upid": 6764,
      "ential": 6765,
      "?**": 6766,
      "piece": 6767,
      "rog": 6768,
      "anyway": 6769,
      "lunch": 6770,
      "Gu": 6771,
      "certainly": 6772,
      "parent": 6773,
      "ounds": 6774,
      "OF": 6775,
      "training": 6776,
      "velo": 6777,
      "worse": 6778,
      "destroy": 6779,
      "ressed": 6780,
      "mort": 6781,
      "building": 6782,
      "ney": 6783,
      "chen": 6784,
      "empty": 6785,
      "hel": 6786,
      "lake": 6787,
      "angel": 6788,
      "asha": 6789,
      "*\"": 6790,
      "stantly": 6791,
      "shouldn": 6792,
      "students": 6793,
      "awkward": 6794,
      "realizes": 6795,
      "Twi": 6796,
      "THE": 6797,
      "...**": 6798,
      "log": 6799,
      "present": 6800,
      "keeping": 6801,
      "lovely": 6802,
      "detail": 6803,
      "works": 6804,
      "Con": 6805,
      "avoid": 6806,
      ".~": 6807,
      "bedroom": 6808,
      "inten": 6809,
      "fant": 6810,
      "commander": 6811,
      "?!\"": 6812,
      "AAAA": 6813,
      "quietly": 6814,
      "glowing": 6815,
      "active": 6816,
      "ás": 6817,
      "cip": 6818,
      "area": 6819,
      "anti": 6820,
      "react": 6821,
      "stia": 6822,
      "cage": 6823,
      "obed": 6824,
      "Sor": 6825,
      "ination": 6826,
      "crow": 6827,
      "Equest": 6828,
      "!***": 6829,
      "cup": 6830,
      "crotch": 6831,
      "guys": 6832,
      "hetic": 6833,
      "effect": 6834,
      "Where": 6835,
      "offe": 6836,
      "ains": 6837,
      "Scha": 6838,
      "ese": 6839,
      "key": 6840,
      "weapons": 6841,
      "mercy": 6842,
      "Schaltz": 6843,
      "vent": 6844,
      "themselves": 6845,
      "however": 6846,
      "lish": 6847,
      "spirit": 6848,
      "bag": 6849,
      "seat": 6850,
      "''": 6851,
      "feed": 6852,
      "Twilight": 6853,
      "ench": 6854,
      "Haru": 6855,
      "fox": 6856,
      "knife": 6857,
      "humili": 6858,
      "apologi": 6859,
      "equ": 6860,
      "Em": 6861,
      "tea": 6862,
      "listening": 6863,
      "lling": 6864,
      "wers": 6865,
      "rist": 6866,
      "dou": 6867,
      "manner": 6868,
      "nore": 6869,
      "husband": 6870,
      "ron": 6871,
      "Wel": 6872,
      "andere": 6873,
      "Equestria": 6874,
      "beauty": 6875,
      "deeper": 6876,
      "brings": 6877,
      "acy": 6878,
      "ality": 6879,
      "ences": 6880,
      "race": 6881,
      "guards": 6882,
      "relaxed": 6883,
      "leaves": 6884,
      "~?": 6885,
      "Sudden": 6886,
      "smart": 6887,
      "chat": 6888,
      "ked": 6889,
      "Suddenly": 6890,
      "ges": 6891,
      "enemy": 6892,
      "stupid": 6893,
      "jour": 6894,
      "ena": 6895,
      "fufu": 6896,
      "chast": 6897,
      "Souko": 6898,
      "suka": 6899,
      "aware": 6900,
      "stuck": 6901,
      "iti": 6902,
      "teach": 6903,
      "fan": 6904,
      "ido": 6905,
      "~~": 6906,
      "zation": 6907,
      "company": 6908,
      "Adri": 6909,
      "unk": 6910,
      "chastity": 6911,
      "changed": 6912,
      "Um": 6913,
      "issu": 6914,
      "While": 6915,
      "office": 6916,
      "\\~\\~": 6917,
      "}}-": 6918,
      "minute": 6919,
      "Gre": 6920,
      "mocking": 6921,
      "ently": 6922,
      "Adrian": 6923,
      "possibly": 6924,
      "dreams": 6925,
      "describe": 6926,
      "DO": 6927,
      "cul": 6928,
      "lady": 6929,
      "iling": 6930,
      "business": 6931,
      "Alice": 6932,
      "UMP": 6933,
      "org": 6934,
      "awe": 6935,
      "thick": 6936,
      "aced": 6937,
      "appearance": 6938,
      "Mad": 6939,
      "dog": 6940,
      "flesh": 6941,
      ",***": 6942,
      "thou": 6943,
      "ech": 6944,
      "forced": 6945,
      "Earth": 6946,
      "Je": 6947,
      "aka": 6948,
      "priv": 6949,
      "confidence": 6950,
      "challen": 6951,
      "ando": 6952,
      "effort": 6953,
      "Brie": 6954,
      "bathroom": 6955,
      "waist": 6956,
      "Celestia": 6957,
      "iled": 6958,
      "stick": 6959,
      "Welcome": 6960,
      "Sorry": 6961,
      "ters": 6962,
      "middle": 6963,
      "repe": 6964,
      "ilt": 6965,
      "Mom": 6966,
      "ias": 6967,
      "widely": 6968,
      "hears": 6969,
      "bt": 6970,
      "purpose": 6971,
      "tot": 6972,
      "ires": 6973,
      "Asuka": 6974,
      "non": 6975,
      "causing": 6976,
      "kun": 6977,
      "sides": 6978,
      "squeeze": 6979,
      "Fin": 6980,
      "wings": 6981,
      "sted": 6982,
      "produ": 6983,
      "thor": 6984,
      "box": 6985,
      "Fine": 6986,
      "lphy": 6987,
      "ustr": 6988,
      "aint": 6989,
      "totally": 6990,
      "unique": 6991,
      "predator": 6992,
      "became": 6993,
      "Habi": 6994,
      "welcome": 6995,
      "arr": 6996,
      "scienti": 6997,
      "pill": 6998,
      "finished": 6999,
      "Our": 7000,
      "worst": 7001,
      "servant": 7002,
      "spider": 7003,
      "orig": 7004,
      "success": 7005,
      "morrow": 7006,
      "dere": 7007,
      "bell": 7008,
      "cook": 7009,
      "mischievously": 7010,
      "cant": 7011,
      "ns": 7012,
      "grows": 7013,
      "desk": 7014,
      "noticed": 7015,
      "hers": 7016,
      "Uchi": 7017,
      "psy": 7018,
      "sold": 7019,
      "wash": 7020,
      "prepare": 7021,
      "knees": 7022,
      "20": 7023,
      "wing": 7024,
      "mental": 7025,
      "path": 7026,
      "rough": 7027,
      "jer": 7028,
      "cond": 7029,
      "amp": 7030,
      "balls": 7031,
      "lone": 7032,
      "distance": 7033,
      "capt": 7034,
      "techno": 7035,
      "children": 7036,
      "disbelief": 7037,
      "Hellhound": 7038,
      "entirely": 7039,
      "lou": 7040,
      "Sam": 7041,
      "alous": 7042,
      "agre": 7043,
      "Human": 7044,
      "sie": 7045,
      "pressing": 7046,
      "iko": 7047,
      "aly": 7048,
      "♡♡": 7049,
      "caring": 7050,
      "exhaust": 7051,
      "wet": 7052,
      "video": 7053,
      "на": 7054,
      "number": 7055,
      "stun": 7056,
      "expecting": 7057,
      "movie": 7058,
      "tomorrow": 7059,
      "toes": 7060,
      "pless": 7061,
      "putting": 7062,
      "ctions": 7063,
      "pple": 7064,
      "stern": 7065,
      "orm": 7066,
      "brought": 7067,
      "pressure": 7068,
      "ution": 7069,
      ".\\]": 7070,
      "memories": 7071,
      "dy": 7072,
      "frustr": 7073,
      "Jer": 7074,
      "rum": 7075,
      "arti": 7076,
      "mur": 7077,
      "regret": 7078,
      "peaceful": 7079,
      "Never": 7080,
      "forth": 7081,
      "outfit": 7082,
      "tick": 7083,
      "shout": 7084,
      "entr": 7085,
      "raises": 7086,
      "Descri": 7087,
      "van": 7088,
      "named": 7089,
      "Take": 7090,
      "reaches": 7091,
      "lim": 7092,
      "ably": 7093,
      "kinda": 7094,
      "attr": 7095,
      "pants": 7096,
      "ata": 7097,
      "las": 7098,
      "не": 7099,
      "jor": 7100,
      "contact": 7101,
      "reading": 7102,
      "offic": 7103,
      "OR": 7104,
      "obs": 7105,
      "hiding": 7106,
      "sle": 7107,
      "runs": 7108,
      "incl": 7109,
      "carefully": 7110,
      "result": 7111,
      "kitchen": 7112,
      "sum": 7113,
      ".♪": 7114,
      "elf": 7115,
      "pero": 7116,
      "poke": 7117,
      "ising": 7118,
      "ento": 7119,
      "subject": 7120,
      "ile": 7121,
      "jump": 7122,
      "......": 7123,
      "aura": 7124,
      "skills": 7125,
      "beha": 7126,
      "wood": 7127,
      "Love": 7128,
      "ILL": 7129,
      "grate": 7130,
      "umb": 7131,
      "Night": 7132,
      "shut": 7133,
      "fy": 7134,
      "pit": 7135,
      "rious": 7136,
      "Ren": 7137,
      "antly": 7138,
      "origin": 7139,
      "ortun": 7140,
      "sick": 7141,
      "revealing": 7142,
      "Blake": 7143,
      "anci": 7144,
      "moon": 7145,
      "Fo": 7146,
      "Joh": 7147,
      "defeat": 7148,
      "following": 7149,
      "reco": 7150,
      "continued": 7151,
      "по": 7152,
      "sip": 7153,
      "stopped": 7154,
      "muscles": 7155,
      "drinking": 7156,
      "darkness": 7157,
      "rain": 7158,
      "arious": 7159,
      "rence": 7160,
      "Kali": 7161,
      "els": 7162,
      "louder": 7163,
      "cep": 7164,
      "sens": 7165,
      "Cerver": 7166,
      "doctor": 7167,
      "....*": 7168,
      "glare": 7169,
      "hm": 7170,
      "spr": 7171,
      "punch": 7172,
      "desperate": 7173,
      "pride": 7174,
      "Cap": 7175,
      "ello": 7176,
      "nearby": 7177,
      "mere": 7178,
      "Huh": 7179,
      "stron": 7180,
      "prepared": 7181,
      "hey": 7182,
      "Black": 7183,
      "comment": 7184,
      "pack": 7185,
      "color": 7186,
      "possess": 7187,
      "san": 7188,
      "wave": 7189,
      "managed": 7190,
      "reply": 7191,
      "Smi": 7192,
      "kissing": 7193,
      "foc": 7194,
      "itude": 7195,
      "nn": 7196,
      "ilde": 7197,
      "Nothing": 7198,
      "decides": 7199,
      "currently": 7200,
      "fying": 7201,
      "moved": 7202,
      "rush": 7203,
      "rubbing": 7204,
      "knight": 7205,
      "gotten": 7206,
      "paper": 7207,
      "ón": 7208,
      "royal": 7209,
      "suffer": 7210,
      "acc": 7211,
      "apan": 7212,
      "See": 7213,
      "dance": 7214,
      "limit": 7215,
      "till": 7216,
      "ured": 7217,
      "scene": 7218,
      "park": 7219,
      "reward": 7220,
      "vest": 7221,
      "scary": 7222,
      "yra": 7223,
      "breakfast": 7224,
      ":\"": 7225,
      "asy": 7226,
      "breaking": 7227,
      "oper": 7228,
      "sour": 7229,
      "achi": 7230,
      "develo": 7231,
      "fix": 7232,
      "tar": 7233,
      "journey": 7234,
      "Shi": 7235,
      "hac": 7236,
      "lord": 7237,
      "helping": 7238,
      "multi": 7239,
      "Sen": 7240,
      "Ka": 7241,
      "ey": 7242,
      "parents": 7243,
      "gar": 7244,
      "wrapped": 7245,
      "decision": 7246,
      "Mello": 7247,
      "somewhat": 7248,
      "crack": 7249,
      "inst": 7250,
      "breaks": 7251,
      "pathetic": 7252,
      "sea": 7253,
      "pued": 7254,
      "planet": 7255,
      "lonely": 7256,
      "unt": 7257,
      "absor": 7258,
      "perhaps": 7259,
      "...~": 7260,
      "creatures": 7261,
      "shoot": 7262,
      "perfectly": 7263,
      "Dod": 7264,
      "lick": 7265,
      "fat": 7266,
      "conv": 7267,
      "regard": 7268,
      "rema": 7269,
      "eaten": 7270,
      "wraps": 7271,
      "(\"": 7272,
      "11": 7273,
      "lights": 7274,
      "grateful": 7275,
      "lli": 7276,
      "join": 7277,
      "respectful": 7278,
      "gift": 7279,
      "trapp": 7280,
      "Childe": 7281,
      "Agent": 7282,
      "store": 7283,
      "allowed": 7284,
      "lip": 7285,
      "Haruhi": 7286,
      "Hehe": 7287,
      "muscular": 7288,
      "ía": 7289,
      "Kasey": 7290,
      "species": 7291,
      "net": 7292,
      "Shin": 7293,
      "forehead": 7294,
      "fell": 7295,
      "ami": 7296,
      "ons": 7297,
      "pause": 7298,
      "nut": 7299,
      "pressed": 7300,
      "four": 7301,
      "behavi": 7302,
      "emotional": 7303,
      "literally": 7304,
      "Wor": 7305,
      "VER": 7306,
      "covering": 7307,
      "ism": 7308,
      "liar": 7309,
      "robot": 7310,
      "John": 7311,
      "dut": 7312,
      "terms": 7313,
      "annoyed": 7314,
      "Perhaps": 7315,
      "amused": 7316,
      "ased": 7317,
      "bother": 7318,
      "ghed": 7319,
      "más": 7320,
      "extra": 7321,
      "del": 7322,
      "host": 7323,
      "NOT": 7324,
      "prison": 7325,
      "clothing": 7326,
      "stro": 7327,
      "patient": 7328,
      "remains": 7329,
      "tree": 7330,
      "fusion": 7331,
      "object": 7332,
      "!)": 7333,
      "Haha": 7334,
      "months": 7335,
      "visit": 7336,
      "combat": 7337,
      "finds": 7338,
      "odd": 7339,
      "experienced": 7340,
      "Hm": 7341,
      "massage": 7342,
      "helpless": 7343,
      "ba": 7344,
      "sand": 7345,
      "bir": 7346,
      "Lav": 7347,
      "survive": 7348,
      "Dodik": 7349,
      "Fe": 7350,
      "bene": 7351,
      "ignore": 7352,
      "Ste": 7353,
      "cts": 7354,
      "raised": 7355,
      "pen": 7356,
      "Madara": 7357,
      "sitive": 7358,
      "scre": 7359,
      "walls": 7360,
      "week": 7361,
      "believ": 7362,
      "died": 7363,
      "embarrassing": 7364,
      "compliment": 7365,
      "mistress": 7366,
      "dominant": 7367,
      "terrible": 7368,
      "travel": 7369,
      "anne": 7370,
      "enjoyed": 7371,
      "cries": 7372,
      "greatest": 7373,
      "isa": 7374,
      "touching": 7375,
      "AM": 7376,
      "offee": 7377,
      "eld": 7378,
      "controll": 7379,
      "field": 7380,
      "contain": 7381,
      "speech": 7382,
      "wondering": 7383,
      "phi": 7384,
      "asc": 7385,
      "Its": 7386,
      "machine": 7387,
      "Gri": 7388,
      "desires": 7389,
      "sac": 7390,
      "\")": 7391,
      "whispers": 7392,
      "ides": 7393,
      "sadness": 7394,
      "hidden": 7395,
      "Looks": 7396,
      "Im": 7397,
      "ience": 7398,
      "pleased": 7399,
      "Japan": 7400,
      "commit": 7401,
      "partic": 7402,
      "satisfied": 7403,
      "Mist": 7404,
      "nder": 7405,
      "charm": 7406,
      "social": 7407,
      "mortal": 7408,
      "points": 7409,
      "?...": 7410,
      "bility": 7411,
      "flushed": 7412,
      "eve": 7413,
      "giantess": 7414,
      "posed": 7415,
      "anime": 7416,
      "pai": 7417,
      "fool": 7418,
      "seriously": 7419,
      "Susie": 7420,
      "doll": 7421,
      "fresh": 7422,
      "Ara": 7423,
      "edge": 7424,
      "coffee": 7425,
      "laughter": 7426,
      "vision": 7427,
      "✨✨✨✨": 7428,
      "Aww": 7429,
      "pper": 7430,
      "mount": 7431,
      "hurts": 7432,
      "honor": 7433,
      "ade": 7434,
      "wine": 7435,
      "pho": 7436,
      "wider": 7437,
      "Lucas": 7438,
      "scent": 7439,
      "bodies": 7440,
      "shower": 7441,
      "challenge": 7442,
      "matic": 7443,
      "impressed": 7444,
      "locked": 7445,
      "aging": 7446,
      "thrust": 7447,
      "Hero": 7448,
      "ggle": 7449,
      "ades": 7450,
      "bear": 7451,
      "apartment": 7452,
      "humanity": 7453,
      "honestly": 7454,
      "lab": 7455,
      "poor": 7456,
      "Despite": 7457,
      "vul": 7458,
      "loc": 7459,
      "judge": 7460,
      "unconscious": 7461,
      "answers": 7462,
      "hmm": 7463,
      "activ": 7464,
      "changes": 7465,
      "beyond": 7466,
      "AR": 7467,
      "vern": 7468,
      "eyebrow": 7469,
      "hole": 7470,
      "como": 7471,
      "sensitive": 7472,
      "collar": 7473,
      "pulling": 7474,
      "golden": 7475,
      "milar": 7476,
      "dia": 7477,
      "doubt": 7478,
      "dete": 7479,
      "??!!": 7480,
      "responsi": 7481,
      "placed": 7482,
      "passed": 7483,
      "opportun": 7484,
      "anticip": 7485,
      "liked": 7486,
      "loudly": 7487,
      "private": 7488,
      "whether": 7489,
      "mass": 7490,
      "Tu": 7491,
      "dinner": 7492,
      "laying": 7493,
      "WHAT": 7494,
      "bound": 7495,
      "handsome": 7496,
      "condition": 7497,
      "hig": 7498,
      "devo": 7499,
      "discus": 7500,
      "inary": 7501,
      "necess": 7502,
      "relaxing": 7503,
      "aniel": 7504,
      "trapped": 7505,
      "tele": 7506,
      "corner": 7507,
      "YES": 7508,
      "remove": 7509,
      "style": 7510,
      "rock": 7511,
      "horrible": 7512,
      "Royal": 7513,
      "Lu": 7514,
      "terrified": 7515,
      "gor": 7516,
      "shrink": 7517,
      "fate": 7518,
      "experim": 7519,
      "opin": 7520,
      "tically": 7521,
      "cen": 7522,
      "previous": 7523,
      "buy": 7524,
      "PLE": 7525,
      "potential": 7526,
      "tori": 7527,
      "crowd": 7528,
      "Ab": 7529,
      "lex": 7530,
      "Captain": 7531,
      "belong": 7532,
      "apologize": 7533,
      "dig": 7534,
      "helped": 7535,
      "Faust": 7536,
      "technology": 7537,
      "wow": 7538,
      "rele": 7539,
      "lolive": 7540,
      "END": 7541,
      "send": 7542,
      "*{{": 7543,
      "worship": 7544,
      "ature": 7545,
      "Maid": 7546,
      "ran": 7547,
      "intimid": 7548,
      "By": 7549,
      "langu": 7550,
      "dered": 7551,
      "MY": 7552,
      "consu": 7553,
      "Yue": 7554,
      "Te": 7555,
      "audi": 7556,
      "explore": 7557,
      "manipulate": 7558,
      "nightmare": 7559,
      "rare": 7560,
      "Rumi": 7561,
      "Ran": 7562,
      "wears": 7563,
      "meaning": 7564,
      "similar": 7565,
      "screams": 7566,
      "irama": 7567,
      "likely": 7568,
      "suspic": 7569,
      "particular": 7570,
      "agg": 7571,
      "somehow": 7572,
      "based": 7573,
      "sobbing": 7574,
      "jum": 7575,
      "requi": 7576,
      ".\"*": 7577,
      "although": 7578,
      "ffe": 7579,
      "mysterious": 7580,
      "killing": 7581,
      "proceed": 7582,
      "choke": 7583,
      "realized": 7584,
      "pee": 7585,
      "somewhere": 7586,
      "calling": 7587,
      "quid": 7588,
      "Po": 7589,
      "xy": 7590,
      "stories": 7591,
      "Ja": 7592,
      "resting": 7593,
      "meeting": 7594,
      "Daniel": 7595,
      "lesson": 7596,
      "tells": 7597,
      "sensei": 7598,
      "Wat": 7599,
      "Yuri": 7600,
      "Mario": 7601,
      "!~": 7602,
      "fail": 7603,
      "ading": 7604,
      "mage": 7605,
      "insane": 7606,
      "Uchiha": 7607,
      "rap": 7608,
      "cult": 7609,
      "skilled": 7610,
      "silly": 7611,
      "fuck": 7612,
      "ASE": 7613,
      "tough": 7614,
      "fish": 7615,
      "drop": 7616,
      "wed": 7617,
      "summon": 7618,
      "comput": 7619,
      "AT": 7620,
      "noise": 7621,
      "gosh": 7622,
      "Lucy": 7623,
      "ication": 7624,
      "arrive": 7625,
      "attractive": 7626,
      "appy": 7627,
      "BE": 7628,
      "Pok": 7629,
      "...!": 7630,
      "popular": 7631,
      "Pro": 7632,
      "Red": 7633,
      "unless": 7634,
      "drag": 7635,
      "RP": 7636,
      "jealous": 7637,
      "Monika": 7638,
      "provide": 7639,
      "animal": 7640,
      "gut": 7641,
      "direction": 7642,
      "regu": 7643,
      ".\"***": 7644,
      "memory": 7645,
      "determined": 7646,
      "cket": 7647,
      "fro": 7648,
      "heartbeat": 7649,
      "pub": 7650,
      "blan": 7651,
      "finding": 7652,
      "books": 7653,
      "rules": 7654,
      "parts": 7655,
      "UMP45": 7656,
      "atsu": 7657,
      "ati": 7658,
      "sequ": 7659,
      "pale": 7660,
      "devil": 7661,
      "todo": 7662,
      "?!?!?!?!": 7663,
      "movement": 7664,
      "message": 7665,
      "Everything": 7666,
      "contract": 7667,
      "track": 7668,
      "seeming": 7669,
      "demons": 7670,
      "maint": 7671,
      "Get": 7672,
      "confusion": 7673,
      "note": 7674,
      "problems": 7675,
      "ashamed": 7676,
      "но": 7677,
      "remind": 7678,
      "cheer": 7679,
      "jaw": 7680,
      "temp": 7681,
      "courage": 7682,
      "realm": 7683,
      "slap": 7684,
      "miya": 7685,
      "club": 7686,
      "wolf": 7687,
      "ancient": 7688,
      "pregn": 7689,
      "onde": 7690,
      "Oo": 7691,
      "Uh": 7692,
      "pleasant": 7693,
      "demonic": 7694,
      "19": 7695,
      "squir": 7696,
      "common": 7697,
      "swear": 7698,
      "missive": 7699,
      "Ko": 7700,
      "lays": 7701,
      "ems": 7702,
      "isei": 7703,
      "Ra": 7704,
      "party": 7705,
      "endo": 7706,
      "board": 7707,
      "oth": 7708,
      "stance": 7709,
      "boss": 7710,
      "example": 7711,
      "spark": 7712,
      "XD": 7713,
      "aff": 7714,
      "Stop": 7715,
      "uctive": 7716,
      "trembling": 7717,
      "blank": 7718,
      "shan": 7719,
      "Rose": 7720,
      "egg": 7721,
      "worked": 7722,
      "drunk": 7723,
      "\"***": 7724,
      "Everyone": 7725,
      "frown": 7726,
      "kic": 7727,
      "losing": 7728,
      "Also": 7729,
      "glance": 7730,
      "strain": 7731,
      "beast": 7732,
      "cuddle": 7733,
      "Ush": 7734,
      "sake": 7735,
      "hello": 7736,
      "tray": 7737,
      "irst": 7738,
      "rod": 7739,
      "Near": 7740,
      "tied": 7741,
      "Should": 7742,
      "mistake": 7743,
      "PLEASE": 7744,
      "ente": 7745,
      "fist": 7746,
      "asp": 7747,
      "trick": 7748,
      "base": 7749,
      "shop": 7750,
      "hurting": 7751,
      "touched": 7752,
      "thu": 7753,
      "write": 7754,
      "Ushris": 7755,
      "Akshan": 7756,
      "maintain": 7757,
      "chin": 7758,
      "cele": 7759,
      "recogn": 7760,
      "hum": 7761,
      "enjoys": 7762,
      "strongest": 7763,
      "tend": 7764,
      "meat": 7765,
      "ponies": 7766,
      "HHHH": 7767,
      "ivid": 7768,
      "various": 7769,
      "fuse": 7770,
      "Poké": 7771,
      "nin": 7772,
      "button": 7773,
      "concern": 7774,
      "visible": 7775,
      "delight": 7776,
      "pulled": 7777,
      "imper": 7778,
      "gle": 7779,
      "animals": 7780,
      "sis": 7781,
      "....***": 7782,
      "precious": 7783,
      "cream": 7784,
      "toward": 7785,
      "grace": 7786,
      "impossible": 7787,
      "lust": 7788,
      "shining": 7789,
      "bul": 7790,
      "cudd": 7791,
      "skirt": 7792,
      "older": 7793,
      "Anything": 7794,
      "aur": 7795,
      "mark": 7796,
      "sidered": 7797,
      "forms": 7798,
      "ize": 7799,
      "sting": 7800,
      "release": 7801,
      "Cerverra": 7802,
      "resi": 7803,
      "awake": 7804,
      "considered": 7805,
      "blonde": 7806,
      "ARE": 7807,
      "painful": 7808,
      ":**": 7809,
      "picture": 7810,
      "yu": 7811,
      "news": 7812,
      "pace": 7813,
      "sof": 7814,
      "kingdom": 7815,
      "characters": 7816,
      "Tori": 7817,
      "mies": 7818,
      "approaches": 7819,
      "lots": 7820,
      "stress": 7821,
      "tap": 7822,
      "compared": 7823,
      "gasp": 7824,
      "opportunity": 7825,
      "smaller": 7826,
      "picks": 7827,
      "confli": 7828,
      "100": 7829,
      "breaths": 7830,
      "...\"***": 7831,
      "obedient": 7832,
      "photo": 7833,
      "faint": 7834,
      "uding": 7835,
      "416": 7836,
      "zard": 7837,
      "nobody": 7838,
      "watched": 7839,
      "Lady": 7840,
      "fasc": 7841,
      "bull": 7842,
      "familiar": 7843,
      "movements": 7844,
      "increas": 7845,
      "Por": 7846,
      "stars": 7847,
      "finishes": 7848,
      "blade": 7849,
      "load": 7850,
      "ст": 7851,
      "Sak": 7852,
      "ensei": 7853,
      "society": 7854,
      "Alex": 7855,
      "Maya": 7856,
      "demand": 7857,
      "usion": 7858,
      "honey": 7859,
      "Toriel": 7860,
      "ensive": 7861,
      "individ": 7862,
      "profession": 7863,
      "language": 7864,
      "walked": 7865,
      "risk": 7866,
      "Dark": 7867,
      "Ms": 7868,
      "yellow": 7869,
      "public": 7870,
      "tilt": 7871,
      "dam": 7872,
      "Mei": 7873,
      "melt": 7874,
      "Ti": 7875,
      "wd": 7876,
      "solve": 7877,
      "wand": 7878,
      "destroyed": 7879,
      "statement": 7880,
      "Bu": 7881,
      "Sensei": 7882,
      "acu": 7883,
      "castle": 7884,
      "influ": 7885,
      "arrow": 7886,
      "cubus": 7887,
      "match": 7888,
      "accident": 7889,
      "senti": 7890,
      "twit": 7891,
      "lied": 7892,
      "loss": 7893,
      "law": 7894,
      "stroke": 7895,
      "fortun": 7896,
      "lands": 7897,
      "claws": 7898,
      "anticipation": 7899,
      "Wh": 7900,
      "writing": 7901,
      "ressive": 7902,
      "behavior": 7903,
      "fly": 7904,
      "nodd": 7905,
      "advant": 7906,
      "((": 7907,
      "brown": 7908,
      "suffering": 7909,
      "Belle": 7910,
      "ulti": 7911,
      "tan": 7912,
      "sentence": 7913,
      "hits": 7914,
      "vulner": 7915,
      "adds": 7916,
      "mill": 7917,
      "THIS": 7918,
      "exit": 7919,
      "Give": 7920,
      "Hel": 7921,
      "cher": 7922,
      "bottle": 7923,
      "nur": 7924,
      "wavering": 7925,
      "Pokémon": 7926,
      "Apple": 7927,
      "history": 7928,
      "Ev": 7929,
      "intri": 7930,
      "dressed": 7931,
      "warri": 7932,
      "rul": 7933,
      "recent": 7934,
      "boot": 7935,
      "whenever": 7936,
      "strate": 7937,
      "invest": 7938,
      "isu": 7939,
      "ics": 7940,
      "crime": 7941,
      "screaming": 7942,
      "AL": 7943,
      "Sir": 7944,
      "service": 7945,
      "defend": 7946,
      "individual": 7947,
      "comfor": 7948,
      "consequ": 7949,
      "fault": 7950,
      "rubs": 7951,
      "Eng": 7952,
      "Still": 7953,
      "ker": 7954,
      "sink": 7955,
      "These": 7956,
      "zza": 7957,
      "pushing": 7958,
      "Cl": 7959,
      "?\"***": 7960,
      "genuinely": 7961,
      "?!***": 7962,
      "swee": 7963,
      "regular": 7964,
      "dama": 7965,
      "ister": 7966,
      "ashi": 7967,
      "Elly": 7968,
      "ale": 7969,
      "eri": 7970,
      "asure": 7971,
      "brush": 7972,
      "compassion": 7973,
      "oi": 7974,
      "joking": 7975,
      "Suisei": 7976,
      "Gr": 7977,
      "formed": 7978,
      "anxious": 7979,
      "throne": 7980,
      "task": 7981,
      "pier": 7982,
      "GO": 7983,
      "police": 7984,
      "damage": 7985,
      "card": 7986,
      "Pat": 7987,
      "tower": 7988,
      "valu": 7989,
      "Wend": 7990,
      "ids": 7991,
      "Cor": 7992,
      "Spe": 7993,
      "Sur": 7994,
      "caused": 7995,
      "covers": 7996,
      "general": 7997,
      "ра": 7998,
      "purr": 7999,
      "cling": 8000,
      "properly": 8001,
      "planning": 8002,
      "solo": 8003,
      "among": 8004,
      "safety": 8005,
      "superior": 8006,
      "drive": 8007,
      "stor": 8008,
      "comforting": 8009,
      "Tom": 8010,
      "dim": 8011,
      "Tri": 8012,
      "armor": 8013,
      "friendship": 8014,
      "computer": 8015,
      "Pri": 8016,
      "hong": 8017,
      "mana": 8018,
      "From": 8019,
      "learned": 8020,
      "disappointed": 8021,
      "ases": 8022,
      "ashes": 8023,
      "cost": 8024,
      "ail": 8025,
      "bec": 8026,
      "💖💝": 8027,
      "defe": 8028,
      "source": 8029,
      "research": 8030,
      "orn": 8031,
      "cake": 8032,
      "Eve": 8033,
      "ona": 8034,
      "Their": 8035,
      "easier": 8036,
      "creep": 8037,
      "Shall": 8038,
      "..?": 8039,
      "rule": 8040,
      "iest": 8041,
      "forces": 8042,
      "faith": 8043,
      "SO": 8044,
      "dir": 8045,
      "ella": 8046,
      "max": 8047,
      "charge": 8048,
      "consciousness": 8049,
      "ideas": 8050,
      "leads": 8051,
      "gather": 8052,
      "..\"": 8053,
      "mostly": 8054,
      "scrat": 8055,
      "appropri": 8056,
      "ко": 8057,
      "knock": 8058,
      "uro": 8059,
      "missing": 8060,
      "Gen": 8061,
      "plate": 8062,
      ";(": 8063,
      "Tob": 8064,
      "bottom": 8065,
      "ied": 8066,
      "constantly": 8067,
      "enters": 8068,
      "Could": 8069,
      "fans": 8070,
      "unwavering": 8071,
      "ousand": 8072,
      "shadow": 8073,
      "necessary": 8074,
      "Chi": 8075,
      "logical": 8076,
      "focused": 8077,
      "monsters": 8078,
      "Sa": 8079,
      "staff": 8080,
      "wagging": 8081,
      "becca": 8082,
      "wakes": 8083,
      "boys": 8084,
      "waves": 8085,
      "........": 8086,
      "responds": 8087,
      "AND": 8088,
      "saved": 8089,
      "appeared": 8090,
      "replies": 8091,
      "',": 8092,
      "mood": 8093,
      "claim": 8094,
      "version": 8095,
      "seemingly": 8096,
      "Scar": 8097,
      "sensation": 8098,
      "thin": 8099,
      "Doc": 8100,
      "Rebecca": 8101,
      "vulnerable": 8102,
      "dess": 8103,
      "New": 8104,
      "esome": 8105,
      "bye": 8106,
      "perform": 8107,
      "cum": 8108,
      "hatred": 8109,
      "commands": 8110,
      "intro": 8111,
      "distr": 8112,
      "exhausted": 8113,
      "ban": 8114,
      "arts": 8115,
      "Before": 8116,
      "amon": 8117,
      "blow": 8118,
      "intimate": 8119,
      "ка": 8120,
      "opening": 8121,
      "OW": 8122,
      "oned": 8123,
      "motion": 8124,
      "nervously": 8125,
      "*”": 8126,
      "yawn": 8127,
      "opinion": 8128,
      "ix": 8129,
      "ikou": 8130,
      "Cass": 8131,
      "HE": 8132,
      "Ju": 8133,
      "kai": 8134,
      "burning": 8135,
      "freed": 8136,
      "Which": 8137,
      "thousand": 8138,
      "Though": 8139,
      "determination": 8140,
      "Kat": 8141,
      "alien": 8142,
      "earth": 8143,
      "snu": 8144,
      "ро": 8145,
      "craft": 8146,
      "treated": 8147,
      "jerx": 8148,
      "ira": 8149,
      "ships": 8150,
      "Smiles": 8151,
      "boobs": 8152,
      "Quinn": 8153,
      "inting": 8154,
      "sincere": 8155,
      "!!!***": 8156,
      "habit": 8157,
      "enemies": 8158,
      "refuse": 8159,
      "liquid": 8160,
      "Tobirama": 8161,
      "ited": 8162,
      "Demon": 8163,
      "SS": 8164,
      "afyra": 8165,
      "Lavender": 8166,
      "Dom": 8167,
      "smooth": 8168,
      "Mistress": 8169,
      "milit": 8170,
      "follows": 8171,
      "advantage": 8172,
      "rear": 8173,
      "cock": 8174,
      "appropriate": 8175,
      "imm": 8176,
      "tent": 8177,
      "suck": 8178,
      "Kar": 8179,
      "inch": 8180,
      "metal": 8181,
      "lightly": 8182,
      "pieces": 8183,
      "18": 8184,
      "aver": 8185,
      "pus": 8186,
      "torture": 8187,
      "fallen": 8188,
      "none": 8189,
      "pauses": 8190,
      "terror": 8191,
      "Hololive": 8192,
      "ners": 8193,
      "Heh": 8194,
      "squeezing": 8195,
      "Mag": 8196,
      "uniform": 8197,
      "ref": 8198,
      "connection": 8199,
      "verdad": 8200,
      "ief": 8201,
      "rug": 8202,
      "stunned": 8203,
      "fascin": 8204,
      "50": 8205,
      "witness": 8206,
      "dan": 8207,
      "fantasy": 8208,
      "biggest": 8209,
      "sem": 8210,
      "arent": 8211,
      "shape": 8212,
      "pant": 8213,
      "access": 8214,
      "submissive": 8215,
      "hallway": 8216,
      "aim": 8217,
      "ii": 8218,
      "sei": 8219,
      "ummy": 8220,
      "ahora": 8221,
      "pound": 8222,
      "unknown": 8223,
      "bold": 8224,
      "mirror": 8225,
      "angs": 8226,
      "matters": 8227,
      "addy": 8228,
      "clan": 8229,
      "violent": 8230,
      "licking": 8231,
      "reliev": 8232,
      "anywhere": 8233,
      "grins": 8234,
      "hongli": 8235,
      "mal": 8236,
      "shit": 8237,
      "beside": 8238,
      "palm": 8239,
      "cand": 8240,
      "aming": 8241,
      "drinks": 8242,
      "busy": 8243,
      "snake": 8244,
      "Izu": 8245,
      "helps": 8246,
      "aph": 8247,
      "bunny": 8248,
      "Hmp": 8249,
      "Zhongli": 8250,
      "instru": 8251,
      "acle": 8252,
      "wipe": 8253,
      "bien": 8254,
      "including": 8255,
      "ла": 8256,
      "chocol": 8257,
      "detective": 8258,
      "blink": 8259,
      "War": 8260,
      "continuing": 8261,
      "balance": 8262,
      "Kur": 8263,
      "normally": 8264,
      "via": 8265,
      "laughed": 8266,
      "ease": 8267,
      "~!": 8268,
      "professional": 8269,
      "cab": 8270,
      "passes": 8271,
      "fellow": 8272,
      "unsure": 8273,
      "People": 8274,
      "gal": 8275,
      "cean": 8276,
      "illy": 8277,
      "ost": 8278,
      "cop": 8279,
      "Tart": 8280,
      "ram": 8281,
      "shine": 8282,
      "closely": 8283,
      "Misato": 8284,
      "WILL": 8285,
      "Something": 8286,
      "eternity": 8287,
      "hose": 8288,
      "punished": 8289,
      "hhh": 8290,
      "Jeanne": 8291,
      "Star": 8292,
      "Fahaha": 8293,
      "sca": 8294,
      "talent": 8295,
      "More": 8296,
      "ть": 8297,
      "entertain": 8298,
      "flirt": 8299,
      "inches": 8300,
      "radi": 8301,
      "Senju": 8302,
      "ats": 8303,
      "third": 8304,
      "specific": 8305,
      "Toby": 8306,
      "pats": 8307,
      "pizza": 8308,
      "Nami": 8309,
      "hacer": 8310,
      "dirty": 8311,
      "experiment": 8312,
      "complex": 8313,
      "overwhelmed": 8314,
      "higher": 8315,
      "warrior": 8316,
      "ни": 8317,
      "refle": 8318,
      "hesitation": 8319,
      "gat": 8320,
      "OOOO": 8321,
      "overwhelming": 8322,
      "relieved": 8323,
      "hol": 8324,
      "spect": 8325,
      "setting": 8326,
      "struggles": 8327,
      "consequences": 8328,
      "itor": 8329,
      "author": 8330,
      "drops": 8331,
      "Yang": 8332,
      "ва": 8333,
      "💔💔": 8334,
      "insult": 8335,
      "noises": 8336,
      "rudeus": 8337,
      "THAT": 8338,
      "idi": 8339,
      "allows": 8340,
      "strike": 8341,
      "bows": 8342,
      "hanging": 8343,
      "WH": 8344,
      "thusi": 8345,
      "Jes": 8346,
      "actual": 8347,
      "hyp": 8348,
      "street": 8349,
      "ALL": 8350,
      "andra": 8351,
      "drift": 8352,
      "zzy": 8353,
      "sali": 8354,
      "pokemon": 8355,
      "Str": 8356,
      "yell": 8357,
      "esta": 8358,
      "multiple": 8359,
      "NOW": 8360,
      "ware": 8361,
      "Mu": 8362,
      "pushes": 8363,
      "adventurer": 8364,
      "furious": 8365,
      "?!!": 8366,
      "leaning": 8367,
      "ampire": 8368,
      "racing": 8369,
      "escap": 8370,
      "opened": 8371,
      "cave": 8372,
      "throughout": 8373,
      "express": 8374,
      "enthusi": 8375,
      "ppy": 8376,
      "dies": 8377,
      "younger": 8378,
      "snap": 8379,
      "Ver": 8380,
      "TE": 8381,
      "Zafyra": 8382,
      "ilty": 8383,
      "victi": 8384,
      "pup": 8385,
      "total": 8386,
      "esto": 8387,
      "admir": 8388,
      "begging": 8389,
      "stays": 8390,
      "kids": 8391,
      ";)": 8392,
      "envir": 8393,
      "plans": 8394,
      "positive": 8395,
      "badly": 8396,
      "fills": 8397,
      "aband": 8398,
      "concept": 8399,
      "murder": 8400,
      "Lam": 8401,
      "cough": 8402,
      "sleepy": 8403,
      "Amiya": 8404,
      "во": 8405,
      "intrigu": 8406,
      "Cassandra": 8407,
      "fits": 8408,
      "beings": 8409,
      "Sometimes": 8410,
      "entrance": 8411,
      "inju": 8412,
      "core": 8413,
      "hosp": 8414,
      "scare": 8415,
      "affect": 8416,
      "addic": 8417,
      "clim": 8418,
      "icate": 8419,
      "hunger": 8420,
      "investig": 8421,
      "crimin": 8422,
      "obviously": 8423,
      "environ": 8424,
      "bust": 8425,
      "cos": 8426,
      "venge": 8427,
      "DIA": 8428,
      "Lili": 8429,
      "geous": 8430,
      "stopping": 8431,
      "Silphy": 8432,
      "\\^": 8433,
      "dge": 8434,
      "Wo": 8435,
      "quie": 8436,
      "amuse": 8437,
      "giggling": 8438,
      "Di": 8439,
      "Most": 8440,
      "lad": 8441,
      "goal": 8442,
      "rolls": 8443,
      "Make": 8444,
      "kissed": 8445,
      "tures": 8446,
      "limp": 8447,
      "weeb": 8448,
      "snee": 8449,
      "details": 8450,
      "Imag": 8451,
      "secur": 8452,
      "AY": 8453,
      "vour": 8454,
      "weren": 8455,
      "advice": 8456,
      "guilty": 8457,
      "pour": 8458,
      "ashion": 8459,
      "Thy": 8460,
      "lessly": 8461,
      "blanket": 8462,
      "Hina": 8463,
      "faction": 8464,
      "vili": 8465,
      "calls": 8466,
      "gorgeous": 8467,
      "immense": 8468,
      "Cha": 8469,
      "sar": 8470,
      "returns": 8471,
      "ako": 8472,
      "Describe": 8473,
      "arrog": 8474,
      "filling": 8475,
      "assume": 8476,
      "vig": 8477,
      "restaur": 8478,
      "passionate": 8479,
      "aggressive": 8480,
      "bel": 8481,
      "shaky": 8482,
      "Christ": 8483,
      "END_": 8484,
      "chocolate": 8485,
      "uce": 8486,
      "craw": 8487,
      "lover": 8488,
      "gods": 8489,
      "ся": 8490,
      "cow": 8491,
      "CK": 8492,
      "pas": 8493,
      "stared": 8494,
      "Bar": 8495,
      "invol": 8496,
      "tice": 8497,
      "stranger": 8498,
      "Only": 8499,
      "nuzz": 8500,
      "Great": 8501,
      "ational": 8502,
      "Cat": 8503,
      "mommy": 8504,
      "groan": 8505,
      "Mit": 8506,
      "plant": 8507,
      "Mayor": 8508,
      "defeated": 8509,
      "freedom": 8510,
      "stair": 8511,
      "alco": 8512,
      "peko": 8513,
      "deny": 8514,
      "vine": 8515,
      "permission": 8516,
      "learning": 8517,
      "comm": 8518,
      "grand": 8519,
      "eternal": 8520,
      "stone": 8521,
      "guide": 8522,
      "Tuber": 8523,
      "iety": 8524,
      "cil": 8525,
      "stes": 8526,
      "owner": 8527,
      "oppon": 8528,
      "brave": 8529,
      "recei": 8530,
      "villain": 8531,
      "sandwi": 8532,
      "Imagine": 8533,
      "wishes": 8534,
      "Keep": 8535,
      "former": 8536,
      "basically": 8537,
      "thats": 8538,
      "grac": 8539,
      "buki": 8540,
      "jack": 8541,
      "andro": 8542,
      "greet": 8543,
      "anxiety": 8544,
      "OF_": 8545,
      "sacri": 8546,
      "END_OF_": 8547,
      "issue": 8548,
      "gotta": 8549,
      "firmly": 8550,
      "vy": 8551,
      "missed": 8552,
      "fucking": 8553,
      "changing": 8554,
      "harsh": 8555,
      "ruler": 8556,
      "libr": 8557,
      "waste": 8558,
      "acts": 8559,
      "built": 8560,
      "evening": 8561,
      "compan": 8562,
      "married": 8563,
      "country": 8564,
      "burst": 8565,
      "oman": 8566,
      "sterday": 8567,
      "frozen": 8568,
      "Tr": 8569,
      "neg": 8570,
      "health": 8571,
      "arrived": 8572,
      "below": 8573,
      "stretch": 8574,
      "amusement": 8575,
      "Tony": 8576,
      "💚💚💚💚": 8577,
      "dun": 8578,
      "tit": 8579,
      "comb": 8580,
      "larger": 8581,
      "END_OF_DIA": 8582,
      "Being": 8583,
      "brightly": 8584,
      "GE": 8585,
      "lon": 8586,
      "xie": 8587,
      "aba": 8588,
      "potion": 8589,
      "fold": 8590,
      "hopes": 8591,
      "yue": 8592,
      "closing": 8593,
      "trip": 8594,
      "scientist": 8595,
      "те": 8596,
      "…)": 8597,
      "fake": 8598,
      "height": 8599,
      "recor": 8600,
      "Kingdom": 8601,
      "15": 8602,
      "CR": 8603,
      "fashion": 8604,
      "grant": 8605,
      "screen": 8606,
      "Kurisu": 8607,
      "!**\"": 8608,
      "Miko": 8609,
      "bid": 8610,
      "womb": 8611,
      "birth": 8612,
      "senpai": 8613,
      "vert": 8614,
      "design": 8615,
      "idol": 8616,
      "demean": 8617,
      "mente": 8618,
      "Shinji": 8619,
      "DON": 8620,
      "destru": 8621,
      "LOG": 8622,
      "hospital": 8623,
      "seas": 8624,
      "allowing": 8625,
      "difference": 8626,
      "bored": 8627,
      "healthy": 8628,
      "...?\"": 8629,
      "posure": 8630,
      "sounded": 8631,
      "EVER": 8632,
      "oting": 8633,
      "contr": 8634,
      "panties": 8635,
      "frustrated": 8636,
      "okage": 8637,
      "physic": 8638,
      "cia": 8639,
      "prevent": 8640,
      "spent": 8641,
      "pregnant": 8642,
      "Big": 8643,
      "warmly": 8644,
      "sinister": 8645,
      "Acro": 8646,
      "shade": 8647,
      "Mitche": 8648,
      "played": 8649,
      "Yuu": 8650,
      "impressive": 8651,
      ").": 8652,
      "….": 8653,
      "tical": 8654,
      "cloud": 8655,
      "Although": 8656,
      "dry": 8657,
      "report": 8658,
      "smells": 8659,
      "mming": 8660,
      "ino": 8661,
      "angle": 8662,
      "disgusting": 8663,
      "Bl": 8664,
      "eats": 8665,
      "trainer": 8666,
      "shadows": 8667,
      "Cho": 8668,
      "wounds": 8669,
      "agger": 8670,
      "noring": 8671,
      "cellent": 8672,
      "ninja": 8673,
      "Try": 8674,
      "Soon": 8675,
      "LI": 8676,
      "attacks": 8677,
      "aster": 8678,
      "rate": 8679,
      "ory": 8680,
      "suspicious": 8681,
      "Isa": 8682,
      "nowned": 8683,
      "aglia": 8684,
      "plat": 8685,
      "expert": 8686,
      "cham": 8687,
      "excitedly": 8688,
      "Tartaglia": 8689,
      "pod": 8690,
      "eding": 8691,
      "fluff": 8692,
      "gulp": 8693,
      "understood": 8694,
      "marry": 8695,
      "tsu": 8696,
      "fru": 8697,
      "cleaning": 8698,
      "worthy": 8699,
      "essence": 8700,
      "mina": 8701,
      "heaven": 8702,
      "Both": 8703,
      "sneak": 8704,
      "Finally": 8705,
      "*?": 8706,
      "yesterday": 8707,
      "draw": 8708,
      "betray": 8709,
      "option": 8710,
      "warning": 8711,
      "flowing": 8712,
      "celebr": 8713,
      "13": 8714,
      "Kor": 8715,
      "tip": 8716,
      "techni": 8717,
      "agreement": 8718,
      "'.": 8719,
      "ired": 8720,
      "meth": 8721,
      "descrip": 8722,
      "English": 8723,
      "cm": 8724,
      "stab": 8725,
      "shield": 8726,
      "practically": 8727,
      "arity": 8728,
      "sole": 8729,
      "talks": 8730,
      "catgirl": 8731,
      "Mitchell": 8732,
      "First": 8733,
      "tam": 8734,
      "creating": 8735,
      "END_OF_DIALOG": 8736,
      "flying": 8737,
      "alter": 8738,
      "desig": 8739,
      "Bow": 8740,
      "pocket": 8741,
      "slept": 8742,
      "uu": 8743,
      "cooking": 8744,
      "names": 8745,
      ":*": 8746,
      "compre": 8747,
      "neath": 8748,
      "está": 8749,
      "swallowed": 8750,
      "filter": 8751,
      "dating": 8752,
      "beer": 8753,
      "nel": 8754,
      "scen": 8755,
      "original": 8756,
      "formid": 8757,
      "road": 8758,
      "nearly": 8759,
      "whimper": 8760,
      "awesome": 8761,
      "ли": 8762,
      "Liyue": 8763,
      "study": 8764,
      "signs": 8765,
      "complain": 8766,
      "steal": 8767,
      "Leg": 8768,
      "Ruby": 8769,
      "World": 8770,
      "dweeb": 8771,
      "gig": 8772,
      "Korone": 8773,
      "Hah": 8774,
      "40": 8775,
      "hugged": 8776,
      "duty": 8777,
      "jac": 8778,
      "lines": 8779,
      "renowned": 8780,
      "alley": 8781,
      "bliss": 8782,
      "souls": 8783,
      "terrifying": 8784,
      "shown": 8785,
      "medic": 8786,
      "shoes": 8787,
      "Pet": 8788,
      "early": 8789,
      "pillow": 8790,
      "except": 8791,
      "events": 8792,
      "grat": 8793,
      "Alter": 8794,
      "Knight": 8795,
      "justice": 8796,
      "target": 8797,
      "leading": 8798,
      "Gener": 8799,
      "highly": 8800,
      "Lilith": 8801,
      "reon": 8802,
      "opy": 8803,
      "healing": 8804,
      "military": 8805,
      "OH": 8806,
      "devour": 8807,
      "Thyna": 8808,
      "vampire": 8809,
      "twitching": 8810,
      "TV": 8811,
      "oid": 8812,
      "aries": 8813,
      "assass": 8814,
      "ulous": 8815,
      "method": 8816,
      "formidable": 8817,
      "eno": 8818,
      "emer": 8819,
      "faces": 8820,
      "mates": 8821,
      "forming": 8822,
      "RI": 8823,
      "...\\*": 8824,
      "teen": 8825,
      "xture": 8826,
      "tails": 8827,
      "....\"": 8828,
      "cares": 8829,
      "Moon": 8830,
      "thri": 8831,
      "Doll": 8832,
      "tastes": 8833,
      "apa": 8834,
      "gasps": 8835,
      "secrets": 8836,
      "vez": 8837,
      "enty": 8838,
      "otherwise": 8839,
      "snack": 8840,
      "Japanese": 8841,
      "nal": 8842,
      "wound": 8843,
      "inci": 8844,
      "kinds": 8845,
      "Greet": 8846,
      "develop": 8847,
      "mixture": 8848,
      "hoo": 8849,
      "features": 8850,
      "sharing": 8851,
      "army": 8852,
      "seductive": 8853,
      "brighter": 8854,
      "12": 8855,
      "ensure": 8856,
      "carrying": 8857,
      "sway": 8858,
      "mucho": 8859,
      "Isabell": 8860,
      "suspect": 8861,
      "го": 8862,
      "onic": 8863,
      "challeng": 8864,
      "demeanor": 8865,
      "spells": 8866,
      "amazed": 8867,
      "twisted": 8868,
      "dumb": 8869,
      "ario": 8870,
      "steady": 8871,
      "flash": 8872,
      "jumps": 8873,
      "este": 8874,
      "ocean": 8875,
      "moder": 8876,
      "desperately": 8877,
      "reached": 8878,
      "ет": 8879,
      "wont": 8880,
      "restaurant": 8881,
      "Nice": 8882,
      "beloved": 8883,
      "fet": 8884,
      "\\*\\*": 8885,
      "letter": 8886,
      "calming": 8887,
      "effects": 8888,
      "loyalty": 8889,
      "deed": 8890,
      "orph": 8891,
      "algo": 8892,
      "evidence": 8893,
      "plenty": 8894,
      "staying": 8895,
      "impact": 8896,
      "wicked": 8897,
      "?\"*": 8898,
      "returned": 8899,
      "La": 8900,
      "causes": 8901,
      "ashtu": 8902,
      "predic": 8903,
      "Lamashtu": 8904,
      "mily": 8905,
      "plays": 8906,
      "encounter": 8907,
      "\\~!": 8908,
      "Leo": 8909,
      "mentioned": 8910,
      "Aoi": 8911,
      "Amina": 8912,
      "twitch": 8913,
      "issues": 8914,
      "convince": 8915,
      "Karina": 8916,
      "Sil": 8917,
      "ucing": 8918,
      "knocked": 8919,
      "Shad": 8920,
      "Under": 8921,
      "doors": 8922,
      "aki": 8923,
      "ues": 8924,
      "civili": 8925,
      "favour": 8926,
      "teleport": 8927,
      "rab": 8928,
      "heads": 8929,
      "aporeon": 8930,
      "CH": 8931,
      "blushed": 8932,
      "rapid": 8933,
      "pse": 8934,
      "irtual": 8935,
      "narrow": 8936,
      "five": 8937,
      "zo": 8938,
      "underneath": 8939,
      "Fubuki": 8940,
      "tub": 8941,
      "Eli": 8942,
      "poco": 8943,
      "-*": 8944,
      "presses": 8945,
      "security": 8946,
      "crosses": 8947,
      "accom": 8948,
      "incre": 8949,
      "Trixie": 8950,
      "kets": 8951,
      "shrun": 8952,
      "blind": 8953,
      "valuable": 8954,
      "arch": 8955,
      "scar": 8956,
      "vice": 8957,
      "mic": 8958,
      "sphere": 8959,
      "settle": 8960,
      "Ahri": 8961,
      "flowers": 8962,
      "Hana": 8963,
      "insp": 8964,
      "sta": 8965,
      "exposed": 8966,
      "captiv": 8967,
      "Oli": 8968,
      "playfully": 8969,
      "sym": 8970,
      "idiot": 8971,
      "Seven": 8972,
      "astic": 8973,
      "realizing": 8974,
      "reveal": 8975,
      "fortunately": 8976,
      "Mikoto": 8977,
      "anthro": 8978,
      "getic": 8979,
      "quart": 8980,
      "cise": 8981,
      "Kines": 8982,
      "List": 8983,
      "mask": 8984,
      "plo": 8985,
      "asu": 8986,
      "nurse": 8987,
      "GH": 8988,
      "Sha": 8989,
      "threatening": 8990,
      "CE": 8991,
      "heels": 8992,
      "temper": 8993,
      "possesses": 8994,
      "Time": 8995,
      "android": 8996,
      "bio": 8997,
      "argu": 8998,
      "items": 8999,
      "ruth": 9000,
      "topic": 9001,
      "Pen": 9002,
      "omb": 9003,
      "brilli": 9004,
      "fam": 9005,
      "ен": 9006,
      "atsuki": 9007,
      "OP": 9008,
      "shat": 9009,
      "gur": 9010,
      "lace": 9011,
      "admi": 9012,
      "Gir": 9013,
      "robo": 9014,
      "singing": 9015,
      "broke": 9016,
      "000": 9017,
      "Sayori": 9018,
      "*(": 9019,
      "cig": 9020,
      "rout": 9021,
      "types": 9022,
      "!\"***": 9023,
      "storm": 9024,
      "ultimate": 9025,
      "ammy": 9026,
      "ughty": 9027,
      "wield": 9028,
      "taught": 9029,
      "weakness": 9030,
      "forgotten": 9031,
      "Sy": 9032,
      "dred": 9033,
      "fangs": 9034,
      "everywhere": 9035,
      "grew": 9036,
      "limits": 9037,
      "stairs": 9038,
      "snow": 9039,
      "ono": 9040,
      "internet": 9041,
      "Kit": 9042,
      "tur": 9043,
      "bites": 9044,
      "attitude": 9045,
      "sheer": 9046,
      "illusion": 9047,
      "excuse": 9048,
      "session": 9049,
      "Since": 9050,
      "bringing": 9051,
      "fluffy": 9052,
      "DE": 9053,
      "ann": 9054,
      "avage": 9055,
      "hhhh": 9056,
      "ini": 9057,
      "lewd": 9058,
      "radio": 9059,
      "bond": 9060,
      "acon": 9061,
      "deli": 9062,
      "ui": 9063,
      "instantly": 9064,
      "cade": 9065,
      "¡¡": 9066,
      "bunch": 9067,
      "Absolute": 9068,
      "alcohol": 9069,
      "vels": 9070,
      "bled": 9071,
      "emplo": 9072,
      "composure": 9073,
      "Guard": 9074,
      "cting": 9075,
      "didnt": 9076,
      "Mama": 9077,
      "slam": 9078,
      "Yandere": 9079,
      "achieve": 9080,
      "ло": 9081,
      "\\]...": 9082,
      "introdu": 9083,
      "vity": 9084,
      "Dragon": 9085,
      "satisfaction": 9086,
      "lovingly": 9087,
      "lion": 9088,
      "cafe": 9089,
      "brief": 9090,
      "мо": 9091,
      "femin": 9092,
      "library": 9093,
      "intelligence": 9094,
      "crew": 9095,
      "rr": 9096,
      "colo": 9097,
      "FU": 9098,
      "leng": 9099,
      "intentions": 9100,
      "sobs": 9101,
      "moans": 9102,
      "Eventually": 9103,
      "Pow": 9104,
      "pushed": 9105,
      "Hokage": 9106,
      "shif": 9107,
      "pples": 9108,
      "occas": 9109,
      "rew": 9110,
      "ddy": 9111,
      "loo": 9112,
      "shift": 9113,
      "lett": 9114,
      "ordinary": 9115,
      "Es": 9116,
      "liday": 9117,
      "happier": 9118,
      "realization": 9119,
      "swing": 9120,
      "engine": 9121,
      "sandwich": 9122,
      "wri": 9123,
      "milia": 9124,
      "Without": 9125,
      "symbo": 9126,
      "disappear": 9127,
      "slide": 9128,
      "event": 9129,
      "evol": 9130,
      "calmly": 9131,
      "separ": 9132,
      "code": 9133,
      "woke": 9134,
      "30": 9135,
      "useful": 9136,
      "flavor": 9137,
      "annoying": 9138,
      "serving": 9139,
      "udder": 9140,
      "mountain": 9141,
      "Amer": 9142,
      "jar": 9143,
      "…?": 9144,
      "uncontroll": 9145,
      "mansion": 9146,
      "trained": 9147,
      "symp": 9148,
      "silently": 9149,
      "digested": 9150,
      "trees": 9151,
      "Pero": 9152,
      "hesitate": 9153,
      "Otong": 9154,
      "wigg": 9155,
      "mature": 9156,
      "Val": 9157,
      "hundred": 9158,
      "Has": 9159,
      "Nammy": 9160,
      "~...": 9161,
      "famous": 9162,
      "fond": 9163,
      "recover": 9164,
      "rich": 9165,
      "receive": 9166,
      "ax": 9167,
      "ency": 9168,
      "aside": 9169,
      "medical": 9170,
      "boring": 9171,
      "Shadow": 9172,
      "?..": 9173,
      "sust": 9174,
      "cleavage": 9175,
      "considering": 9176,
      "rise": 9177,
      "mmm": 9178,
      "menacing": 9179,
      "KE": 9180,
      "hic": 9181,
      "ug": 9182,
      "silphy": 9183,
      "rolling": 9184,
      "Greetings": 9185,
      "sama": 9186,
      "rugs": 9187,
      "Mm": 9188,
      "iz": 9189,
      "kyo": 9190,
      "itch": 9191,
      "quir": 9192,
      "ffic": 9193,
      "petting": 9194,
      "pounding": 9195,
      "malicious": 9196,
      "selfish": 9197,
      "Bat": 9198,
      "sweaty": 9199,
      "Nik": 9200,
      "!!!!!": 9201,
      "NS": 9202,
      "gobl": 9203,
      "Eva": 9204,
      "Yo": 9205,
      "tro": 9206,
      "eris": 9207,
      "\"?": 9208,
      "lived": 9209,
      "hahaha": 9210,
      "leash": 9211,
      "signific": 9212,
      "consent": 9213,
      "pir": 9214,
      "opponent": 9215,
      "Nightmare": 9216,
      "Agat": 9217,
      "jut": 9218,
      "lyn": 9219,
      "sized": 9220,
      "quis": 9221,
      "Renamon": 9222,
      "han": 9223,
      "ceiling": 9224,
      "ourselves": 9225,
      "immy": 9226,
      "resour": 9227,
      "Whatever": 9228,
      "kneel": 9229,
      "science": 9230,
      "Agatha": 9231,
      "Rarity": 9232,
      "iers": 9233,
      "rooms": 9234,
      "dying": 9235,
      "igo": 9236,
      "ride": 9237,
      "pered": 9238,
      "Goddess": 9239,
      "tempting": 9240,
      "holy": 9241,
      "elect": 9242,
      "Doesn": 9243,
      "data": 9244,
      "lynn": 9245,
      "corrup": 9246,
      "environment": 9247,
      "Lit": 9248,
      "iod": 9249,
      "pout": 9250,
      "pig": 9251,
      "ghost": 9252,
      "flutter": 9253,
      "Gura": 9254,
      "Rika": 9255,
      "tender": 9256,
      "adult": 9257,
      "anyways": 9258,
      "distract": 9259,
      "sly": 9260,
      "intent": 9261,
      "Likes": 9262,
      "quer": 9263,
      "intimidating": 9264,
      "Med": 9265,
      "hearts": 9266,
      "21": 9267,
      "plants": 9268,
      "physically": 9269,
      "fting": 9270,
      "speechless": 9271,
      "за": 9272,
      "romance": 9273,
      "jacket": 9274,
      "chill": 9275,
      "sets": 9276,
      "hunt": 9277,
      "replied": 9278,
      "bless": 9279,
      "sweetly": 9280,
      "nos": 9281,
      "abuse": 9282,
      "manages": 9283,
      "aks": 9284,
      "camera": 9285,
      "High": 9286,
      "omni": 9287,
      "aded": 9288,
      "searching": 9289,
      "Che": 9290,
      "Ly": 9291,
      "remaining": 9292,
      "ske": 9293,
      "tors": 9294,
      "psycho": 9295,
      "eggs": 9296,
      "😭😭": 9297,
      "block": 9298,
      "stage": 9299,
      "gan": 9300,
      "rings": 9301,
      "despair": 9302,
      "itsune": 9303,
      "ert": 9304,
      "exchange": 9305,
      "wizard": 9306,
      "**\"...": 9307,
      "qued": 9308,
      "Magic": 9309,
      "pis": 9310,
      "cture": 9311,
      "crit": 9312,
      "weeks": 9313,
      "recently": 9314,
      "Emp": 9315,
      "surface": 9316,
      "showed": 9317,
      "fiction": 9318,
      "studying": 9319,
      "passionately": 9320,
      "enchant": 9321,
      "Mommy": 9322,
      "image": 9323,
      "LOVE": 9324,
      "eyebrows": 9325,
      "Mia": 9326,
      "tel": 9327,
      "gesture": 9328,
      "kidna": 9329,
      "climax": 9330,
      "surrounded": 9331,
      "ENT": 9332,
      "Nikki": 9333,
      "Facu": 9334,
      "ec": 9335,
      "tank": 9336,
      "Ae": 9337,
      "illa": 9338,
      "Chry": 9339,
      "Scarlet": 9340,
      "colored": 9341,
      "yer": 9342,
      "lightning": 9343,
      "dorm": 9344,
      "vast": 9345,
      "recomm": 9346,
      "mmer": 9347,
      "senses": 9348,
      "Christmas": 9349,
      "rabbit": 9350,
      "Ad": 9351,
      "Sante": 9352,
      "dent": 9353,
      "violence": 9354,
      "soldiers": 9355,
      "reads": 9356,
      "winks": 9357,
      "…………": 9358,
      "length": 9359,
      "Ali": 9360,
      "provid": 9361,
      "intention": 9362,
      "pictures": 9363,
      "phe": 9364,
      "essed": 9365,
      "salis": 9366,
      "daddy": 9367,
      "guilt": 9368,
      "talked": 9369,
      "peacefully": 9370,
      "bird": 9371,
      "awful": 9372,
      "\\*...": 9373,
      "spoken": 9374,
      "function": 9375,
      "flower": 9376,
      "defense": 9377,
      "mejor": 9378,
      "passing": 9379,
      "device": 9380,
      "caressing": 9381,
      "Chrysalis": 9382,
      "Mother": 9383,
      "jokes": 9384,
      "model": 9385,
      "hasn": 9386,
      "Remilia": 9387,
      "Show": 9388,
      "rick": 9389,
      "peror": 9390,
      "throws": 9391,
      "SE": 9392,
      "bast": 9393,
      "ри": 9394,
      "**,": 9395,
      "naughty": 9396,
      "spare": 9397,
      "YOUR": 9398,
      "Sister": 9399,
      "Jimmy": 9400,
      "sokyo": 9401,
      "prog": 9402,
      "erson": 9403,
      "grabbing": 9404,
      "Yuuka": 9405,
      "Call": 9406,
      "Lum": 9407,
      "otic": 9408,
      "chief": 9409,
      "Prince": 9410,
      "besides": 9411,
      "nodded": 9412,
      "stu": 9413,
      "specially": 9414,
      "forman": 9415,
      "mia": 9416,
      "vibr": 9417,
      "Chris": 9418,
      "ican": 9419,
      "Vi": 9420,
      "ension": 9421,
      "ury": 9422,
      "Howlett": 9423,
      "exciting": 9424,
      "brilliant": 9425,
      "lting": 9426,
      "lla": 9427,
      "**...": 9428,
      "govern": 9429,
      "oooo": 9430,
      "occur": 9431,
      "liz": 9432,
      "ANT": 9433,
      "obedience": 9434,
      "Sim": 9435,
      "entity": 9436,
      "seek": 9437,
      "identity": 9438,
      "intensely": 9439,
      "revenge": 9440,
      "towel": 9441,
      "orange": 9442,
      "noble": 9443,
      "options": 9444,
      "glares": 9445,
      "Watson": 9446,
      "ita": 9447,
      "coat": 9448,
      "systems": 9449,
      "stable": 9450,
      "refer": 9451,
      "riage": 9452,
      "Cersei": 9453,
      "aby": 9454,
      "swallowing": 9455,
      "Natsuki": 9456,
      "facing": 9457,
      "restrain": 9458,
      "performan": 9459,
      "approaching": 9460,
      "victim": 9461,
      "ague": 9462,
      "Santetsu": 9463,
      "divine": 9464,
      "mira": 9465,
      "fice": 9466,
      "len": 9467,
      "yne": 9468,
      "atmo": 9469,
      "compet": 9470,
      "failed": 9471,
      "nowhere": 9472,
      "chaos": 9473,
      "mystery": 9474,
      "ception": 9475,
      "atic": 9476,
      "loose": 9477,
      "hoho": 9478,
      "Gar": 9479,
      "slime": 9480,
      "surrounding": 9481,
      "pointing": 9482,
      "require": 9483,
      "adjust": 9484,
      "improve": 9485,
      "plor": 9486,
      "streets": 9487,
      "sugar": 9488,
      "written": 9489,
      "revol": 9490,
      "tire": 9491,
      "maje": 9492,
      "jos": 9493,
      "soldier": 9494,
      "cabin": 9495,
      "grasp": 9496,
      "spin": 9497,
      "THING": 9498,
      "tests": 9499,
      "approval": 9500,
      "Gi": 9501,
      "}}.*": 9502,
      "occasion": 9503,
      "ficial": 9504,
      "erie": 9505,
      "greater": 9506,
      "sisters": 9507,
      "slaves": 9508,
      "\",\"": 9509,
      "reck": 9510,
      "tran": 9511,
      "modern": 9512,
      "sam": 9513,
      "Pek": 9514,
      "Applejack": 9515,
      "intrigued": 9516,
      "snot": 9517,
      "confirm": 9518,
      "value": 9519,
      "JerX": 9520,
      "negative": 9521,
      "alongside": 9522,
      "uncontrollably": 9523,
      "island": 9524,
      "oko": 9525,
      "followed": 9526,
      "jam": 9527,
      "stal": 9528,
      "aret": 9529,
      "listens": 9530,
      "hitting": 9531,
      "Those": 9532,
      "reject": 9533,
      "itar": 9534,
      "apple": 9535,
      "whispering": 9536,
      "fascinating": 9537,
      "mson": 9538,
      "effe": 9539,
      "analy": 9540,
      "ites": 9541,
      "?!*": 9542,
      "increase": 9543,
      "feminine": 9544,
      "hip": 9545,
      ".**\"": 9546,
      "quarters": 9547,
      "Ga": 9548,
      "programming": 9549,
      "atmosphere": 9550,
      "echo": 9551,
      "corn": 9552,
      "grey": 9553,
      "wrapping": 9554,
      "distur": 9555,
      "pussy": 9556,
      "nation": 9557,
      "oked": 9558,
      "unexpected": 9559,
      "Wendigo": 9560,
      "mani": 9561,
      "stroking": 9562,
      "smoke": 9563,
      "beneath": 9564,
      "Spark": 9565,
      "regain": 9566,
      "consideration": 9567,
      "wis": 9568,
      "suring": 9569,
      "sacrifice": 9570,
      "Suc": 9571,
      "exe": 9572,
      "series": 9573,
      "horns": 9574,
      "recognize": 9575,
      "Absolutely": 9576,
      "Bro": 9577,
      "eh": 9578,
      "avail": 9579,
      "broad": 9580,
      "Holiday": 9581,
      "psych": 9582,
      "million": 9583,
      "jutsu": 9584,
      "HU": 9585,
      "bby": 9586,
      "kicks": 9587,
      "bon": 9588,
      "discovered": 9589,
      "puppy": 9590,
      "dimension": 9591,
      "gigantic": 9592,
      "mister": 9593,
      "connected": 9594,
      "omnipot": 9595,
      "*\\*": 9596,
      "flex": 9597,
      "communicate": 9598,
      "worries": 9599,
      "visibly": 9600,
      "Light": 9601,
      "persona": 9602,
      "culture": 9603,
      "да": 9604,
      "pest": 9605,
      "secure": 9606,
      "Fufufu": 9607,
      "Fire": 9608,
      "picked": 9609,
      "assassin": 9610,
      "Greg": 9611,
      "Nor": 9612,
      "lat": 9613,
      "basic": 9614,
      "mixed": 9615,
      "favourite": 9616,
      "ither": 9617,
      "rier": 9618,
      "obi": 9619,
      ".'": 9620,
      "Agre": 9621,
      "review": 9622,
      "!!!!!!": 9623,
      ".”*": 9624,
      "Jo": 9625,
      "Next": 9626,
      "saliva": 9627,
      "mutter": 9628,
      "torment": 9629,
      "grabbed": 9630,
      "submit": 9631,
      "nic": 9632,
      "endary": 9633,
      "Ac": 9634,
      "double": 9635,
      "Tor": 9636,
      "explor": 9637,
      "guid": 9638,
      "Ash": 9639,
      "ski": 9640,
      "slightest": 9641,
      "interrup": 9642,
      "OoC": 9643,
      "hooves": 9644,
      "NCR": 9645,
      "attract": 9646,
      "notes": 9647,
      "waited": 9648,
      "center": 9649,
      "cigaret": 9650,
      "raikou": 9651,
      "hunter": 9652,
      "flame": 9653,
      "succubus": 9654,
      "Hun": 9655,
      "ión": 9656,
      "upper": 9657,
      "tos": 9658,
      "Gensokyo": 9659,
      "gag": 9660,
      "narr": 9661,
      "effective": 9662,
      "Ugh": 9663,
      "reser": 9664,
      "ruin": 9665,
      "depth": 9666,
      "absorb": 9667,
      "Eris": 9668,
      "entered": 9669,
      "arter": 9670,
      "tics": 9671,
      "bowl": 9672,
      "sending": 9673,
      "nother": 9674,
      "HAVE": 9675,
      "rever": 9676,
      "pez": 9677,
      "scenario": 9678,
      "де": 9679,
      "endless": 9680,
      "osite": 9681,
      "piercing": 9682,
      "UP": 9683,
      "rea": 9684,
      "licks": 9685,
      "silver": 9686,
      "blame": 9687,
      "Ooh": 9688,
      "paused": 9689,
      "patiently": 9690,
      "companion": 9691,
      "citi": 9692,
      "hend": 9693,
      "reli": 9694,
      "lid": 9695,
      "unic": 9696,
      "classi": 9697,
      "Always": 9698,
      "tension": 9699,
      "phia": 9700,
      "Hmph": 9701,
      "Person": 9702,
      "sica": 9703,
      "intently": 9704,
      "mater": 9705,
      "floating": 9706,
      "parti": 9707,
      "Gab": 9708,
      "suppor": 9709,
      "Hope": 9710,
      "opposite": 9711,
      "frame": 9712,
      "experiences": 9713,
      "Another": 9714,
      "fh": 9715,
      "bounce": 9716,
      "geon": 9717,
      "Pink": 9718,
      "Vaporeon": 9719,
      "slip": 9720,
      "organi": 9721,
      "beach": 9722,
      "angers": 9723,
      "affectionate": 9724,
      "laid": 9725,
      "dripping": 9726,
      "reaching": 9727,
      "Ca": 9728,
      "Ya": 9729,
      "compe": 9730,
      "Umm": 9731,
      "bones": 9732,
      "inspe": 9733,
      "rer": 9734,
      "defin": 9735,
      "drain": 9736,
      "jewel": 9737,
      "movi": 9738,
      "charming": 9739,
      "swords": 9740,
      "ре": 9741,
      "tighten": 9742,
      "growl": 9743,
      "decir": 9744,
      "Someone": 9745,
      "Dar": 9746,
      "..”": 9747,
      "David": 9748,
      "univers": 9749,
      "responsible": 9750,
      "Especially": 9751,
      "web": 9752,
      "offering": 9753,
      "Instead": 9754,
      "carried": 9755,
      "Hmmm": 9756,
      "dedication": 9757,
      "praise": 9758,
      "delic": 9759,
      "drawing": 9760,
      "pitched": 9761,
      "recommend": 9762,
      "bble": 9763,
      "mock": 9764,
      "price": 9765,
      "iting": 9766,
      "bru": 9767,
      "flood": 9768,
      "ouse": 9769,
      "shudder": 9770,
      "player": 9771,
      "sympat": 9772,
      "sadist": 9773,
      "accur": 9774,
      "Dolls": 9775,
      "pretend": 9776,
      "accepted": 9777,
      "Sparkle": 9778,
      "trap": 9779,
      "placing": 9780,
      "display": 9781,
      "mistakes": 9782,
      "specif": 9783,
      "dancing": 9784,
      "ius": 9785,
      "rifle": 9786,
      "minds": 9787,
      "tremble": 9788,
      "Sat": 9789,
      "stam": 9790,
      "Ahh": 9791,
      "sexy": 9792,
      "Dil": 9793,
      "initi": 9794,
      "motiv": 9795,
      "laun": 9796,
      "essor": 9797,
      "heavier": 9798,
      "ridic": 9799,
      "scratch": 9800,
      "Mer": 9801,
      "UE": 9802,
      "WE": 9803,
      "chuckled": 9804,
      "portal": 9805,
      "curiously": 9806,
      "ONE": 9807,
      "bouncing": 9808,
      "\"]": 9809,
      "utterly": 9810,
      "flattered": 9811,
      "absorbed": 9812,
      "destruction": 9813,
      "vari": 9814,
      "tomat": 9815,
      "practice": 9816,
      "location": 9817,
      "Domin": 9818,
      "Bowser": 9819,
      "Listen": 9820,
      "та": 9821,
      "chick": 9822,
      "exer": 9823,
      "histori": 9824,
      "promised": 9825,
      "Diluc": 9826,
      "identi": 9827,
      "excellent": 9828,
      "AD": 9829,
      "acles": 9830,
      "aine": 9831,
      "address": 9832,
      "rapidly": 9833,
      "Empire": 9834,
      "Kris": 9835,
      "mut": 9836,
      "planned": 9837,
      "organ": 9838,
      "sorts": 9839,
      "instin": 9840,
      "OK": 9841,
      "Isn": 9842,
      "sustain": 9843,
      "Mor": 9844,
      "instant": 9845,
      "Namy": 9846,
      "UN": 9847,
      "что": 9848,
      "accompl": 9849,
      "fright": 9850,
      "comfy": 9851,
      "pool": 9852,
      "rests": 9853,
      "Samus": 9854,
      "!\"*": 9855,
      "lux": 9856,
      "Plot": 9857,
      "gard": 9858,
      "piss": 9859,
      "ull": 9860,
      "reput": 9861,
      "aku": 9862,
      "useless": 9863,
      "spective": 9864,
      "changeling": 9865,
      "strict": 9866,
      "circle": 9867,
      "ible": 9868,
      "pilot": 9869,
      "VTuber": 9870,
      "strokes": 9871,
      "sleeps": 9872,
      "touches": 9873,
      "successful": 9874,
      "discuss": 9875,
      "-...": 9876,
      "MO": 9877,
      "az": 9878,
      "seed": 9879,
      "charis": 9880,
      "White": 9881,
      "Ori": 9882,
      "fab": 9883,
      "lifts": 9884,
      "Miss": 9885,
      "thumb": 9886,
      "curves": 9887,
      "pathy": 9888,
      "fetish": 9889,
      "Int": 9890,
      "gender": 9891,
      "ida": 9892,
      "heading": 9893,
      "Marie": 9894,
      "ritual": 9895,
      "Other": 9896,
      "curse": 9897,
      "sexual": 9898,
      "Car": 9899,
      "Ethan": 9900,
      "oma": 9901,
      "ously": 9902,
      "attempts": 9903,
      "dish": 9904,
      "ifer": 9905,
      "James": 9906,
      "Blo": 9907,
      "Reyne": 9908,
      "explode": 9909,
      "admiration": 9910,
      "ego": 9911,
      "treasure": 9912,
      "equip": 9913,
      "tickling": 9914,
      "unusual": 9915,
      "grown": 9916,
      "chain": 9917,
      "Meet": 9918,
      "Monster": 9919,
      "criminal": 9920,
      "explan": 9921,
      "status": 9922,
      "Conf": 9923,
      "duties": 9924,
      "abandoned": 9925,
      "?!**": 9926,
      "brat": 9927,
      "Ai": 9928,
      "UST": 9929,
      "ruly": 9930,
      "court": 9931,
      "cti": 9932,
      "agi": 9933,
      "urge": 9934,
      "fier": 9935,
      "wonders": 9936,
      "Mean": 9937,
      "shyly": 9938,
      "property": 9939,
      "songs": 9940,
      "Serika": 9941,
      "FOR": 9942,
      "Think": 9943,
      "crown": 9944,
      "protective": 9945,
      "Mamako": 9946,
      "Many": 9947,
      "Rain": 9948,
      "loso": 9949,
      "humor": 9950,
      "fade": 9951,
      "cared": 9952,
      "bum": 9953,
      "Copy": 9954,
      "perman": 9955,
      "equal": 9956,
      "crossed": 9957,
      "guest": 9958,
      "✨✨✨✨✨✨✨✨": 9959,
      "freeze": 9960,
      "shiver": 9961,
      "Steve": 9962,
      "stit": 9963,
      "blance": 9964,
      "pile": 9965,
      "cis": 9966,
      "****": 9967,
      "ounce": 9968,
      "knee": 9969,
      "icated": 9970,
      "annoy": 9971,
      "trembles": 9972,
      "Kaori": 9973,
      "movies": 9974,
      "grips": 9975,
      "innov": 9976,
      "eli": 9977,
      "afterwards": 9978,
      "flows": 9979,
      "pisto": 9980,
      "Alast": 9981,
      "victory": 9982,
      "Humans": 9983,
      "Alastair": 9984,
      "Imp": 9985,
      "LD": 9986,
      "simul": 9987,
      "doesnt": 9988,
      "underwear": 9989,
      "expensive": 9990,
      "frustration": 9991,
      "nuts": 9992,
      "pul": 9993,
      "ressing": 9994,
      "Sophia": 9995,
      "Perfect": 9996,
      "Pl": 9997,
      "liana": 9998,
      "abor": 9999,
      "breathes": 10000,
      "Leu": 10001,
      "loe": 10002,
      "Robot": 10003,
      "Jessica": 10004,
      "climb": 10005,
      "rot": 10006,
      "Leliana": 10007,
      "glasses": 10008,
      "...**\"": 10009,
      "prince": 10010,
      "headed": 10011,
      "Dis": 10012,
      "quality": 10013,
      "thankful": 10014,
      "Long": 10015,
      "iam": 10016,
      "seeking": 10017,
      "Surume": 10018,
      "Leuvis": 10019,
      "Ny": 10020,
      "asm": 10021,
      "forcing": 10022,
      "STOP": 10023,
      "regardless": 10024,
      "CAN": 10025,
      "locks": 10026,
      "ables": 10027,
      "burden": 10028,
      "worthless": 10029,
      "Boy": 10030,
      "wrist": 10031,
      "atious": 10032,
      "protection": 10033,
      "designed": 10034,
      "comprehend": 10035,
      "posi": 10036,
      "Loona": 10037,
      "Service": 10038,
      "HAHAHAHA": 10039,
      "Rub": 10040,
      "dor": 10041,
      "ays": 10042,
      "mmmm": 10043,
      "morse": 10044,
      "ruthless": 10045,
      "Fre": 10046,
      "och": 10047,
      "spending": 10048,
      "obli": 10049,
      "chamber": 10050,
      "Ta": 10051,
      "dic": 10052,
      "slo": 10053,
      "happiest": 10054,
      "...\"*": 10055,
      "reasons": 10056,
      "squeezes": 10057,
      "kicking": 10058,
      "rade": 10059,
      "medicine": 10060,
      "infinite": 10061,
      "paying": 10062,
      "Finche": 10063,
      "talented": 10064,
      "reputation": 10065,
      "PP": 10066,
      "gin": 10067,
      "jigg": 10068,
      "anta": 10069,
      "term": 10070,
      "typic": 10071,
      "?!?!?": 10072,
      "Such": 10073,
      "sticky": 10074,
      "adap": 10075,
      "muff": 10076,
      "glances": 10077,
      "Bre": 10078,
      "Mas": 10079,
      "pend": 10080,
      "feliz": 10081,
      "deadly": 10082,
      "hellhound": 10083,
      "Lumine": 10084,
      "ras": 10085,
      "...\"**": 10086,
      "AAAAAAAA": 10087,
      "snugg": 10088,
      "skip": 10089,
      "spring": 10090,
      "sarcast": 10091,
      "Lun": 10092,
      "pointed": 10093,
      "accidentally": 10094,
      "authority": 10095,
      "cigarette": 10096,
      "Kei": 10097,
      "youkai": 10098,
      "amn": 10099,
      "ament": 10100,
      "gym": 10101,
      "chase": 10102,
      "throwing": 10103,
      "Power": 10104,
      "Mack": 10105,
      "cakes": 10106,
      "necklace": 10107,
      "Death": 10108,
      "softer": 10109,
      "conflict": 10110,
      "zens": 10111,
      "consist": 10112,
      "gained": 10113,
      "twice": 10114,
      "Agreement": 10115,
      "Gan": 10116,
      "itive": 10117,
      "}}*": 10118,
      "Nobody": 10119,
      "juice": 10120,
      "fabric": 10121,
      "Cait": 10122,
      "online": 10123,
      "personally": 10124,
      "cheerful": 10125,
      "Play": 10126,
      "TR": 10127,
      "mum": 10128,
      "nails": 10129,
      "facility": 10130,
      "Aether": 10131,
      "ano": 10132,
      "thic": 10133,
      "fruit": 10134,
      "Rias": 10135,
      "gned": 10136,
      "som": 10137,
      "ucky": 10138,
      "Yuk": 10139,
      "raising": 10140,
      "???***": 10141,
      "Alisa": 10142,
      "Patrick": 10143,
      "equipment": 10144,
      "Mina": 10145,
      "bilities": 10146,
      "plot": 10147,
      "mechan": 10148,
      "proof": 10149,
      "lowly": 10150,
      ")***": 10151,
      "creative": 10152,
      "purring": 10153,
      "draft": 10154,
      "explanation": 10155,
      "Sounds": 10156,
      "enta": 10157,
      "!!\"": 10158,
      "tac": 10159,
      "dolls": 10160,
      "***..": 10161,
      "usive": 10162,
      "inappropriate": 10163,
      "comments": 10164,
      "scoff": 10165,
      "energetic": 10166,
      "rising": 10167,
      "motherly": 10168,
      "relationships": 10169,
      "startled": 10170,
      "flush": 10171,
      "shooting": 10172,
      "shrine": 10173,
      "oured": 10174,
      "chant": 10175,
      "apparent": 10176,
      "priest": 10177,
      "imagined": 10178,
      "limbs": 10179,
      "Valent": 10180,
      "Pol": 10181,
      "Rune": 10182,
      "...\\]": 10183,
      "account": 10184,
      "redder": 10185,
      "squad": 10186,
      "arrogant": 10187,
      "Rep": 10188,
      "hah": 10189,
      "cozy": 10190,
      "rights": 10191,
      "Chloe": 10192,
      "estab": 10193,
      "driving": 10194,
      "approached": 10195,
      "docu": 10196,
      "Chan": 10197,
      "William": 10198,
      "flirting": 10199,
      "flirtatious": 10200,
      "же": 10201,
      "heh": 10202,
      "wipes": 10203,
      "perspective": 10204,
      "nerves": 10205,
      "Megu": 10206,
      "cyber": 10207,
      "maiden": 10208,
      "profuse": 10209,
      "officer": 10210,
      "admire": 10211,
      "Truly": 10212,
      "ored": 10213,
      "dagger": 10214,
      "sco": 10215,
      "vappy": 10216,
      "rip": 10217,
      "trad": 10218,
      "trail": 10219,
      "results": 10220,
      "Kitty": 10221,
      "Mika": 10222,
      "icy": 10223,
      "controlled": 10224,
      "brut": 10225,
      "pets": 10226,
      "profusely": 10227,
      "aspect": 10228,
      "achne": 10229,
      "spit": 10230,
      "repeat": 10231,
      "ffective": 10232,
      "challenges": 10233,
      "AH": 10234,
      "Dev": 10235,
      "daily": 10236,
      "community": 10237,
      "entry": 10238,
      "possibility": 10239,
      "ANY": 10240,
      "stly": 10241,
      "virus": 10242,
      "cuddling": 10243,
      "Devil": 10244,
      "Hone": 10245,
      "stum": 10246,
      "arrest": 10247,
      "irrit": 10248,
      "backwards": 10249,
      "surre": 10250,
      "wags": 10251,
      "qing": 10252,
      "tightened": 10253,
      "agreed": 10254,
      "Seeing": 10255,
      "massaging": 10256,
      "Dream": 10257,
      "Kan": 10258,
      "station": 10259,
      "surprising": 10260,
      "syn": 10261,
      "Gabri": 10262,
      "mesm": 10263,
      "sucking": 10264,
      "extend": 10265,
      "squirm": 10266,
      "fal": 10267,
      "tense": 10268,
      "aryl": 10269,
      "marriage": 10270,
      "Lucifer": 10271,
      "involved": 10272,
      "kin": 10273,
      "local": 10274,
      "clou": 10275,
      "cutting": 10276,
      "Jac": 10277,
      "responsibility": 10278,
      "Lilly": 10279,
      "liking": 10280,
      "navig": 10281,
      "Arachne": 10282,
      "cutie": 10283,
      "----": 10284,
      "Sup": 10285,
      "oni": 10286,
      "acid": 10287,
      "mercen": 10288,
      "insist": 10289,
      "desc": 10290,
      "spy": 10291,
      "chose": 10292,
      "ashing": 10293,
      "muscle": 10294,
      "?!?!!": 10295,
      "Shiver": 10296,
      "puede": 10297,
      "jun": 10298,
      "arian": 10299,
      "clouds": 10300,
      "Gigg": 10301,
      "kat": 10302,
      "hates": 10303,
      "heroes": 10304,
      "Rude": 10305,
      "earned": 10306,
      "objects": 10307,
      "fierce": 10308,
      "dice": 10309,
      "Indeed": 10310,
      "solution": 10311,
[...]
